{
  "<EOS>": 0,
  "<GO>": 1,
  "<UNK>": 2,
  "DCSP": 3,
  "DCNL": 4,
  "_": 5,
  "(": 6,
  ")": 7,
  "&apos;": 8,
  ",": 9,
  ":": 10,
  "=": 11,
  ".": 12,
  "the": 13,
  "&#91;": 14,
  "&#93;": 15,
  "return": 16,
  "\\": 17,
  "if": 18,
  "a": 19,
  "def": 20,
  "to": 21,
  "in": 22,
  "*": 23,
  "of": 24,
  "&gt;": 25,
  "is": 26,
  "for": 27,
  "/": 28,
  "None": 29,
  "name": 30,
  "and": 31,
  "1": 32,
  "not": 33,
  "0": 34,
  "&quot;": 35,
  "%": 36,
  "{": 37,
  "}": 38,
  "s": 39,
  "or": 40,
  "+": 41,
  "be": 42,
  "path": 43,
  "list": 44,
  "from": 45,
  "value": 46,
  "key": 47,
  "param": 48,
  "The": 49,
  "with": 50,
  "x": 51,
  "type": 52,
  "id": 53,
  "file": 54,
  "as": 55,
  "data": 56,
  "-": 57,
  "get": 58,
  "True": 59,
  "else": 60,
  "string": 61,
  "2": 62,
  "False": 63,
  "that": 64,
  "n": 65,
  "u": 66,
  "@": 67,
  "user": 68,
  "an": 69,
  "raise": 70,
  "&lt;": 71,
  "str": 72,
  "function": 73,
  "args": 74,
  "by": 75,
  "on": 76,
  "i": 77,
  "are": 78,
  "kwargs": 79,
  "will": 80,
  "dict": 81,
  "all": 82,
  "len": 83,
  "object": 84,
  "try": 85,
  "If": 86,
  "it": 87,
  "except": 88,
  "default": 89,
  "set": 90,
  "..": 91,
  "this": 92,
  "result": 93,
  "A": 94,
  "int": 95,
  "given": 96,
  "f": 97,
  "context": 98,
  "url": 99,
  "class": 100,
  "import": 101,
  "request": 102,
  "salt": 103,
  "Returns": 104,
  "version": 105,
  "test": 106,
  "new": 107,
  "text": 108,
  "module": 109,
  "isinstance": 110,
  "t": 111,
  "ret": 112,
  "This": 113,
  "p": 114,
  "3": 115,
  "func": 116,
  "y": 117,
  "use": 118,
  "filename": 119,
  "which": 120,
  "number": 121,
  "size": 122,
  "instance": 123,
  "used": 124,
  "line": 125,
  "image": 126,
  "output": 127,
  "values": 128,
  "d": 129,
  "error": 130,
  "can": 131,
  "!": 132,
  ".format": 133,
  "array": 134,
  "elif": 135,
  "``": 136,
  "`": 137,
  "&apos;Return": 138,
  "config": 139,
  "k": 140,
  "method": 141,
  "b": 142,
  "host": 143,
  "node": 144,
  "format": 145,
  "obj": 146,
  "dir": 147,
  "message": 148,
  "code": 149,
  "r": 150,
  "returns": 151,
  "info": 152,
  "v": 153,
  "start": 154,
  "index": 155,
  "input": 156,
  "ValueError": 157,
  "Example": 158,
  "out": 159,
  "-1": 160,
  "check": 161,
  "time": 162,
  "c": 163,
  "only": 164,
  "cmd": 165,
  "response": 166,
  "&#124;": 167,
  "assert": 168,
  "code-block": 169,
  "one": 170,
  "should": 171,
  "current": 172,
  "&apos;@@": 173,
  "names": 174,
  "&apos;Returns": 175,
  "has": 176,
  "tuple": 177,
  "CLI": 178,
  "no": 179,
  "source": 180,
  "4": 181,
  "profile": 182,
  "bash": 183,
  "model": 184,
  "e": 185,
  "query": 186,
  "Parameters": 187,
  "`@@": 188,
  "port": 189,
  "must": 190,
  "field": 191,
  "range": 192,
  "arg": 193,
  "command": 194,
  "group": 195,
  "create": 196,
  "password": 197,
  "files": 198,
  "status": 199,
  "#": 200,
  "service": 201,
  "cache": 202,
  "params": 203,
  ";": 204,
  "using": 205,
  "target": 206,
  "float": 207,
  "length": 208,
  "directory": 209,
  "mode": 210,
  "item": 211,
  "base": 212,
  "max": 213,
  "into": 214,
  "at": 215,
  "state": 216,
  "first": 217,
  "course": 218,
  "m": 219,
  "optional": 220,
  "specified": 221,
  "msg": 222,
  "when": 223,
  "prefix": 224,
  "print": 225,
  "run": 226,
  "options": 227,
  "shape": 228,
  "``@@": 229,
  "each": 230,
  "token": 231,
  "any": 232,
  "template": 233,
  "...": 234,
  "content": 235,
  "have": 236,
  "bytes": 237,
  "pass": 238,
  "count": 239,
  "match": 240,
  "root": 241,
  "server": 242,
  "app": 243,
  "num": 244,
  "&apos;Get": 245,
  "Args": 246,
  "bool": 247,
  "http": 248,
  "dictionary": 249,
  "X": 250,
  "keys": 251,
  "we": 252,
  "header": 253,
  "resource": 254,
  "table": 255,
  "end": 256,
  ".@@": 257,
  "call": 258,
  "matrix": 259,
  "client": 260,
  "tag": 261,
  "dtype": 262,
  "encoding": 263,
  "C": 264,
  "filter": 265,
  "address": 266,
  "log": 267,
  "add": 268,
  "package": 269,
  "region": 270,
  "order": 271,
  "axis": 272,
  "val": 273,
  "returned": 274,
  "5": 275,
  "found": 276,
  "arguments": 277,
  "where": 278,
  "parse": 279,
  "w": 280,
  "unicode": 281,
  "valid": 282,
  "argument": 283,
  "then": 284,
  "date": 285,
  "task": 286,
  "but": 287,
  "username": 288,
  "lines": 289,
  "like": 290,
  "update": 291,
  "open": 292,
  "read": 293,
  "session": 294,
  "you": 295,
  "while": 296,
  "db": 297,
  "graph": 298,
  "&amp;": 299,
  "rtype": 300,
  "L": 301,
  "yield": 302,
  "items": 303,
  "?": 304,
  "G": 305,
  "types": 306,
  "parent": 307,
  "does": 308,
  "last": 309,
  "same": 310,
  "results": 311,
  "form": 312,
  "local": 313,
  "timeout": 314,
  "self": 315,
  "action": 316,
  "load": 317,
  "label": 318,
  "URL": 319,
  "res": 320,
  "nodes": 321,
  "device": 322,
  "passed": 323,
  "variable": 324,
  "find": 325,
  "opts": 326,
  "make": 327,
  "exception": 328,
  "element": 329,
  "map": 330,
  "fields": 331,
  "sequence": 332,
  "os.path.join": 333,
  "headers": 334,
  "exists": 335,
  "errors": 336,
  "containing": 337,
  "python": 338,
  "delete": 339,
  "api": 340,
  "email": 341,
  "conn": 342,
  "page": 343,
  "random": 344,
  "Examples": 345,
  "objects": 346,
  "access": 347,
  "available": 348,
  "stream": 349,
  ".join": 350,
  "global": 351,
  "settings": 352,
  "project": 353,
  "view": 354,
  "connection": 355,
  "attribute": 356,
  "integer": 357,
  "level": 358,
  "event": 359,
  "was": 360,
  "10": 361,
  "parameter": 362,
  "g": 363,
  "lambda": 364,
  "ip": 365,
  "so": 366,
  "comment": 367,
  "old": 368,
  "~": 369,
  "j": 370,
  "cls": 371,
  "min": 372,
  "auth": 373,
  "-@@": 374,
  "system": 375,
  "more": 376,
  "than": 377,
  "parameters": 378,
  "h": 379,
  "its": 380,
  "block": 381,
  "row": 382,
  "html": 383,
  "l": 384,
  "case": 385,
  "See": 386,
  "search": 387,
  "required": 388,
  "getattr": 389,
  "Exception": 390,
  "limit": 391,
  "true": 392,
  "offset": 393,
  "strings": 394,
  "q": 395,
  "process": 396,
  "pattern": 397,
  "hash": 398,
  "other": 399,
  "ID": 400,
  "paths": 401,
  "Python": 402,
  "width": 403,
  "exc": 404,
  "may": 405,
  "expr": 406,
  "ids": 407,
  "two": 408,
  "^": 409,
  "mapping": 410,
  "For": 411,
  "after": 412,
  "body": 413,
  "single": 414,
  "example": 415,
  "json": 416,
  "metadata": 417,
  "remove": 418,
  "z": 419,
  "do": 420,
  "location": 421,
  "up": 422,
  "entry": 423,
  "tree": 424,
  "next": 425,
  "full": 426,
  "continue": 427,
  "color": 428,
  "created": 429,
  "xml": 430,
  "language": 431,
  "fn": 432,
  "seq": 433,
  "decorator": 434,
  "option": 435,
  "empty": 436,
  "provided": 437,
  "handler": 438,
  "called": 439,
  "before": 440,
  "include": 441,
  "env": 442,
  "extra": 443,
  "domain": 444,
  "labels": 445,
  "e.g.": 446,
  "information": 447,
  "write": 448,
  "pos": 449,
  "expected": 450,
  "N": 451,
  ".get": 452,
  "attr": 453,
  "between": 454,
  "sample": 455,
  "also": 456,
  "TypeError": 457,
  "sorted": 458,
  "keyid": 459,
  "doc": 460,
  "hasattr": 461,
  "It": 462,
  "6": 463,
  "configuration": 464,
  "build": 465,
  "var": 466,
  "An": 467,
  "column": 468,
  "whether": 469,
  "description": 470,
  "database": 471,
  "title": 472,
  "container": 473,
  "copy": 474,
  "parts": 475,
  "namespace": 476,
  "part": 477,
  "volume": 478,
  "backend": 479,
  "ref": 480,
  "stdout": 481,
  "--": 482,
  "1.0": 483,
  "collection": 484,
  "show": 485,
  "point": 486,
  "network": 487,
  "handle": 488,
  "8": 489,
  "running": 490,
  "tests": 491,
  "timestamp": 492,
  "document": 493,
  "break": 494,
  "application": 495,
  "there": 496,
  "instead": 497,
  "bits": 498,
  "sum": 499,
  "ignore": 500,
  "$": 501,
  "locale": 502,
  "see": 503,
  "split": 504,
  "wrapper": 505,
  "&apos;Create": 506,
  "tags": 507,
  "either": 508,
  "ndarray": 509,
  "seconds": 510,
  "already": 511,
  "step": 512,
  "total": 513,
  "raw": 514,
  "init": 515,
  "admin": 516,
  "groups": 517,
  "sort": 518,
  "script": 519,
  "foo": 520,
  "err": 521,
  "mod": 522,
  "iterable": 523,
  "uri": 524,
  "expression": 525,
  "otherwise": 526,
  "word": 527,
  "idx": 528,
  "force": 529,
  "safe": 530,
  "contains": 531,
  "media": 532,
  "changes": 533,
  "repository": 534,
  "original": 535,
  "versionadded": 536,
  "uuid": 537,
  "datetime": 538,
  "convert": 539,
  "policy": 540,
  "job": 541,
  "conf": 542,
  "variables": 543,
  "src": 544,
  "exist": 545,
  "cluster": 546,
  "site": 547,
  "mask": 548,
  "some": 549,
  "K": 550,
  "API": 551,
  "shell": 552,
  "B": 553,
  "elements": 554,
  "based": 555,
  "installed": 556,
  "M": 557,
  "record": 558,
  "points": 559,
  "callback": 560,
  "flags": 561,
  "Note": 562,
  "been": 563,
  "attributes": 564,
  "parser": 565,
  "batch": 566,
  "users": 567,
  "plugin": 568,
  "samples": 569,
  "interface": 570,
  "callable": 571,
  "thread": 572,
  "unit": 573,
  "left": 574,
  "generate": 575,
  "spec": 576,
  "stderr": 577,
  "mean": 578,
  "weight": 579,
  "such": 580,
  "Error": 581,
  "link": 582,
  "7": 583,
  "parsed": 584,
  "role": 585,
  "stop": 586,
  "login": 587,
  ".&apos;": 588,
  "Name": 589,
  "enabled": 590,
  "over": 591,
  "binary": 592,
  "dataset": 593,
  "environment": 594,
  "&apos;Check": 595,
  "supported": 596,
  "modules": 597,
  "contents": 598,
  "store": 599,
  "hostname": 600,
  "pkg": 601,
  "zone": 602,
  "&apos;Convert": 603,
  "repo": 604,
  "verbose": 605,
  "install": 606,
  "https": 607,
  "images": 608,
  "defined": 609,
  "flag": 610,
  "vm": 611,
  "defaults": 612,
  "indices": 613,
  "setting": 614,
  "entity": 615,
  "usage": 616,
  "proxy": 617,
  ".split": 618,
  "Notes": 619,
  "py": 620,
  "libvlc": 621,
  "tensor": 622,
  "section": 623,
  "right": 624,
  "scope": 625,
  "remote": 626,
  "secret": 627,
  "keyword": 628,
  "save": 629,
  "invalid": 630,
  "property": 631,
  "Return": 632,
  "they": 633,
  "dev": 634,
  "characters": 635,
  "Y": 636,
  "boolean": 637,
  "equal": 638,
  "col": 639,
  "replace": 640,
  "loop": 641,
  "Arguments": 642,
  "o": 643,
  "schema": 644,
  "compute": 645,
  "being": 646,
  "provider": 647,
  "matches": 648,
  "features": 649,
  "scale": 650,
  "rows": 651,
  "account": 652,
  "Raises": 653,
  "classes": 654,
  "raises": 655,
  "protocol": 656,
  "iter": 657,
  "without": 658,
  "chunk": 659,
  "kw": 660,
  "deleted": 661,
  "extension": 662,
  "multiple": 663,
  "want": 664,
  "validate": 665,
  "functions": 666,
  "change": 667,
  "unique": 668,
  "fname": 669,
  "zip": 670,
  "tokens": 671,
  "etc": 672,
  "height": 673,
  "position": 674,
  "filters": 675,
  "utf-8": 676,
  "release": 677,
  "buffer": 678,
  "possible": 679,
  "Default": 680,
  "them": 681,
  "manager": 682,
  "allow": 683,
  "columns": 684,
  "missing": 685,
  "zero": 686,
  "existing": 687,
  "HTTP": 688,
  "diff": 689,
  "List": 690,
  "packages": 691,
  "channel": 692,
  "alpha": 693,
  "both": 694,
  "main": 695,
  "0.0": 696,
  "In": 697,
  "added": 698,
  "rule": 699,
  "public": 700,
  "properties": 701,
  "folder": 702,
  "queue": 703,
  "following": 704,
  "category": 705,
  "window": 706,
  "second": 707,
  "need": 708,
  "n@@": 709,
  "S": 710,
  "named": 711,
  "KeyError": 712,
  "&apos;This": 713,
  "encoded": 714,
  "certificate": 715,
  "long": 716,
  "reverse": 717,
  "standard": 718,
  "Optional": 719,
  "just": 720,
  "present": 721,
  "instances": 722,
  "relative": 723,
  "redirect": 724,
  "stack": 725,
  "active": 726,
  "&apos;A": 727,
  "op": 728,
  "I": 729,
  "require": 730,
  "lower": 731,
  "R": 732,
  "suffix": 733,
  "corresponding": 734,
  "get@@": 735,
  "connect": 736,
  "payload": 737,
  "disk": 738,
  "weights": 739,
  "cert": 740,
  "deprecated": 741,
  "child": 742,
  "del": 743,
  "reference": 744,
  "attrs": 745,
  "distribution": 746,
  "display": 747,
  "factory": 748,
  "failed": 749,
  "methods": 750,
  "support": 751,
  "permission": 752,
  "success": 753,
  "product": 754,
  "byte": 755,
  "&apos;Given": 756,
  "now": 757,
  "--@@": 758,
  "send": 759,
  "wait": 760,
  "absolute": 761,
  "apply": 762,
  "char": 763,
  "pairs": 764,
  "render": 765,
  "kind": 766,
  "vector": 767,
  "df": 768,
  "bin": 769,
  "contain": 770,
  "real": 771,
  "different": 772,
  "master": 773,
  "library": 774,
  "yaml": 775,
  "doesn": 776,
  "signature": 777,
  "Also": 778,
  "top": 779,
  "enumerate": 780,
  "per": 781,
  "most": 782,
  "identifier": 783,
  "register": 784,
  "messages": 785,
  "tmp": 786,
  "generator": 787,
  "meta": 788,
  "debug": 789,
  "details": 790,
  "lists": 791,
  "math": 792,
  "matching": 793,
  "allowed": 794,
  "cannot": 795,
  "exclude": 796,
  "virtual": 797,
  "&apos;Test": 798,
  "encode": 799,
  "iterator": 800,
  "sub": 801,
  "their": 802,
  "H": 803,
  "uses": 804,
  "dirs": 805,
  "pool": 806,
  "retcode": 807,
  "representing": 808,
  "img": 809,
  "space": 810,
  "dest": 811,
  "addr": 812,
  "re": 813,
  "inputs": 814,
  "kernel": 815,
  "about": 816,
  "work": 817,
  "os.path.exists": 818,
  "score": 819,
  "removed": 820,
  "false": 821,
  "P": 822,
  "storage": 823,
  "style": 824,
  "dist": 825,
  "algorithm": 826,
  "words": 827,
  "pid": 828,
  "lang": 829,
  "alias": 830,
  "clean": 831,
  "post": 832,
  "specific": 833,
  "actual": 834,
  "commit": 835,
  "cookie": 836,
  "within": 837,
  "layer": 838,
  "socket": 839,
  "AttributeError": 840,
  "cmd.run": 841,
  "feature": 842,
  "bar": 843,
  "dim": 844,
  "16": 845,
  "0.5": 846,
  "simple": 847,
  "hosts": 848,
  "entries": 849,
  "fp": 850,
  "runas": 851,
  "common": 852,
  "edge": 853,
  "decode": 854,
  "i.e.": 855,
  "registry": 856,
  "T": 857,
  "wrapped": 858,
  "summary": 859,
  "ext": 860,
  "setup": 861,
  "finally": 862,
  "operation": 863,
  "representation": 864,
  "snapshot": 865,
  "git": 866,
  "uid": 867,
  ".replace": 868,
  "dt": 869,
  "topic": 870,
  "year": 871,
  "myminion": 872,
  "generated": 873,
  "fd": 874,
  "scheme": 875,
  "100": 876,
  "components": 877,
  "exp": 878,
  "frame": 879,
  "bucket": 880,
  "times": 881,
  "DEFAULT": 882,
  "np.array": 883,
  "extract": 884,
  "edges": 885,
  "maximum": 886,
  "join": 887,
  "via": 888,
  "s@@": 889,
  "raised": 890,
  "IP": 891,
  "scalar": 892,
  "transform": 893,
  "tuples": 894,
  "your": 895,
  "private": 896,
  "seed": 897,
  "chunks": 898,
  "close": 899,
  "children": 900,
  "since": 901,
  "abs": 902,
  "character": 903,
  "ensure": 904,
  "quote": 905,
  "os": 906,
  "JSON": 907,
  "Use": 908,
  "arrays": 909,
  "updated": 910,
  "vars": 911,
  "select": 912,
  "changed": 913,
  "regex": 914,
  "rate": 915,
  "datastore": 916,
  "distance": 917,
  "numpy": 918,
  "could": 919,
  "custom": 920,
  "req": 921,
  "versions": 922,
  "ImportError": 923,
  "&apos;.join": 924,
  "ZZ": 925,
  "strip": 926,
  "No": 927,
  "because": 928,
  "im": 929,
  "endpoint": 930,
  "pair": 931,
  "signal": 932,
  "would": 933,
  "fail": 934,
  "always": 935,
  "requires": 936,
  "degree": 937,
  "&apos;Set": 938,
  "sparse": 939,
  "patch": 940,
  "modified": 941,
  "escape": 942,
  "warning": 943,
  "needed": 944,
  "head": 945,
  "HTML": 946,
  "exit": 947,
  "interval": 948,
  "loaded": 949,
  "axes": 950,
  ".strip": 951,
  "credentials": 952,
  "series": 953,
  "associated": 954,
  "lookup": 955,
  "subject": 956,
  "what": 957,
  "keep": 958,
  "logging": 959,
  "boto": 960,
  "download": 961,
  "lock": 962,
  "lib": 963,
  "resp": 964,
  "symbol": 965,
  "through": 966,
  "memory": 967,
  "clear": 968,
  "ignored": 969,
  "factor": 970,
  "events": 971,
  "indent": 972,
  "Invalid": 973,
  "stats": 974,
  "takes": 975,
  ".lower": 976,
  "9": 977,
  "sys": 978,
  "NAME": 979,
  "targets": 980,
  "slice": 981,
  "don": 982,
  "structure": 983,
  "blob": 984,
  "cached": 985,
  "term": 986,
  "Path": 987,
  "minion": 988,
  "temp": 989,
  "verify": 990,
  "hook": 991,
  "calls": 992,
  "skip": 993,
  "known": 994,
  "constant": 995,
  "partition": 996,
  "Windows": 997,
  "steps": 998,
  "tool": 999,
  "commands": 1000,
  "repr": 1001,
  "done": 1002,
  "2@@": 1003,
  "exploration": 1004,
  "rv": 1005,
  "descriptor": 1006,
  "converted": 1007,
  "You": 1008,
  "permissions": 1009,
  "home": 1010,
  "my": 1011,
  "append": 1012,
  "logger": 1013,
  "F": 1014,
  "depth": 1015,
  "execute": 1016,
  "32": 1017,
  "normalize": 1018,
  "complete": 1019,
  "log.debug": 1020,
  "trace": 1021,
  "retry": 1022,
  "environ": 1023,
  "fileName": 1024,
  "s.@@": 1025,
  "member": 1026,
  "back": 1027,
  ".append": 1028,
  "normal": 1029,
  "re.sub": 1030,
  "XML.SubElement": 1031,
  "OSError": 1032,
  "colors": 1033,
  "To": 1034,
  "family": 1035,
  "slug": 1036,
  "dependencies": 1037,
  "these": 1038,
  "un@@": 1039,
  "Number": 1040,
  "sep": 1041,
  "plot": 1042,
  "delta": 1043,
  "20": 1044,
  "norm": 1045,
  "upper": 1046,
  "pre": 1047,
  "requests": 1048,
  "stored": 1049,
  "help": 1050,
  "opt": 1051,
  "Otherwise": 1052,
  "s&apos;": 1053,
  "additional": 1054,
  "dst": 1055,
  "under": 1056,
  "along": 1057,
  "control": 1058,
  "&apos;Add": 1059,
  "IOError": 1060,
  "User": 1061,
  "currently": 1062,
  "filepath": 1063,
  "numbers": 1064,
  "previous": 1065,
  "&apos;Compute": 1066,
  "rules": 1067,
  "until": 1068,
  "prop": 1069,
  "rest": 1070,
  "&apos;Helper": 1071,
  "video": 1072,
  "s.append": 1073,
  "&apos;Converts": 1074,
  "here": 1075,
  "arr": 1076,
  "destination": 1077,
  "String": 1078,
  "failure": 1079,
  "klass": 1080,
  "whose": 1081,
  "orig": 1082,
  "inside": 1083,
  "xrange": 1084,
  "12": 1085,
  "When": 1086,
  "models": 1087,
  "channels": 1088,
  "enable": 1089,
  "File": 1090,
  "none": 1091,
  "sure": 1092,
  "2.0": 1093,
  "shared": 1094,
  "``True``": 1095,
  "day": 1096,
  "ssl": 1097,
  "docstring": 1098,
  "&apos;Parse": 1099,
  "D": 1100,
  "means": 1101,
  "static": 1102,
  "References": 1103,
  "initial": 1104,
  "strict": 1105,
  "digest": 1106,
  "ascii": 1107,
  "core": 1108,
  "best": 1109,
  "operator": 1110,
  "correct": 1111,
  "driver": 1112,
  "chain": 1113,
  "identity": 1114,
  "cur": 1115,
  "s3": 1116,
  "condition": 1117,
  "resources": 1118,
  "branch": 1119,
  "-&apos;": 1120,
  "cwd": 1121,
  "aws": 1122,
  "kwargs.get": 1123,
  "desired": 1124,
  "fs": 1125,
  "PATH": 1126,
  "useful": 1127,
  "component": 1128,
  "x@@": 1129,
  "inner": 1130,
  "ndim": 1131,
  "note": 1132,
  "&apos;Checks": 1133,
  "included": 1134,
  "supplied": 1135,
  "reactor": 1136,
  "basestring": 1137,
  "ctx": 1138,
  "configured": 1139,
  "formatted": 1140,
  "sent": 1141,
  "services": 1142,
  "ring": 1143,
  "dirname": 1144,
  "Only": 1145,
  "pillar": 1146,
  "plugins": 1147,
  "&apos;Creates": 1148,
  "report": 1149,
  "wrap": 1150,
  "blocks": 1151,
  "shift": 1152,
  "counts": 1153,
  "owner": 1154,
  "normalized": 1155,
  "threshold": 1156,
  "Z": 1157,
  "log.error": 1158,
  "least": 1159,
  "merge": 1160,
  "We": 1161,
  "were": 1162,
  "implementation": 1163,
  "sign": 1164,
  "against": 1165,
  "requested": 1166,
  "those": 1167,
  "helper": 1168,
  "reset": 1169,
  "timezone": 1170,
  "dimension": 1171,
  "&apos;Generate": 1172,
  "controller": 1173,
  "pad": 1174,
  "chars": 1175,
  "sets": 1176,
  "complex": 1177,
  "dmp": 1178,
  "buf": 1179,
  "checks": 1180,
  "addresses": 1181,
  "final": 1182,
  "security": 1183,
  "every": 1184,
  "Defaults": 1185,
  "platform": 1186,
  "figure": 1187,
  "power": 1188,
  "links": 1189,
  "dot": 1190,
  "marker": 1191,
  "short": 1192,
  "XML": 1193,
  "p@@": 1194,
  "month": 1195,
  "student": 1196,
  "d@@": 1197,
  "agent": 1198,
  "refresh": 1199,
  "s`": 1200,
  "hex": 1201,
  "disable": 1202,
  "filenames": 1203,
  "c@@": 1204,
  "revision": 1205,
  "many": 1206,
  "&apos;t": 1207,
  "radius": 1208,
  "1.@@": 1209,
  "b@@": 1210,
  "os.path.dirname": 1211,
  "precision": 1212,
  "jobs": 1213,
  "units": 1214,
  "directories": 1215,
  "expand": 1216,
  "sqrt": 1217,
  "Input": 1218,
  "net": 1219,
  "np.zeros": 1220,
  "days": 1221,
  "way": 1222,
  "player": 1223,
  "dicts": 1224,
  "loss": 1225,
  "f@@": 1226,
  "desc": 1227,
  "self.@@": 1228,
  "sequences": 1229,
  "padding": 1230,
  "Set": 1231,
  "pk": 1232,
  "another": 1233,
  "how": 1234,
  "sympy": 1235,
  "appropriate": 1236,
  "reason": 1237,
  "patterns": 1238,
  "registered": 1239,
  "needs": 1240,
  "specs": 1241,
  "eval": 1242,
  "specify": 1243,
  "directly": 1244,
  "override": 1245,
  "vals": 1246,
  "ind": 1247,
  "take": 1248,
  "org": 1249,
  "Key": 1250,
  "fill": 1251,
  "nobs": 1252,
  "off": 1253,
  "upload": 1254,
  "0.@@": 1255,
  "engine": 1256,
  "positive": 1257,
  "calling": 1258,
  "statement": 1259,
  "dimensions": 1260,
  "origin": 1261,
  "GET": 1262,
  "low": 1263,
  "DCTB": 1264,
  "ratio": 1265,
  "warnings": 1266,
  "W": 1267,
  "activity": 1268,
  "latest": 1269,
  "average": 1270,
  "determine": 1271,
  "something": 1272,
  "machine": 1273,
  "&apos;Remove": 1274,
  "sender": 1275,
  "translation": 1276,
  "definition": 1277,
  "match.group": 1278,
  "whitespace": 1279,
  "problem": 1280,
  "minimum": 1281,
  "By": 1282,
  "exceptions": 1283,
  "re@@": 1284,
  "cols": 1285,
  "individual": 1286,
  "Value": 1287,
  "devices": 1288,
  "connected": 1289,
  "ts": 1290,
  "POST": 1291,
  "bit": 1292,
  "records": 1293,
  "even": 1294,
  "accept": 1295,
  "archive": 1296,
  "ctypes.c": 1297,
  "disabled": 1298,
  "Whether": 1299,
  "-2": 1300,
  "Each": 1301,
  "loc": 1302,
  "tz": 1303,
  "necessary": 1304,
  "linear": 1305,
  "ch": 1306,
  "dup": 1307,
  "basic": 1308,
  "&apos;Make": 1309,
  "15": 1310,
  "once": 1311,
  "-f": 1312,
  "updates": 1313,
  "beta": 1314,
  "mat": 1315,
  "bound": 1316,
  "ord": 1317,
  "partial": 1318,
  "RuntimeError": 1319,
  "fixed": 1320,
  "C@@": 1321,
  "Can": 1322,
  "Type": 1323,
  "charset": 1324,
  "polynomial": 1325,
  "saltenv": 1326,
  "os.environ": 1327,
  "states": 1328,
  "&apos;Find": 1329,
  "returning": 1330,
  "prompt": 1331,
  "fmt": 1332,
  "according": 1333,
  "60": 1334,
  "executable": 1335,
  "future": 1336,
  "pred": 1337,
  "works": 1338,
  "1&apos;": 1339,
  "less": 1340,
  "track": 1341,
  "ax": 1342,
  "includes": 1343,
  "Get@@": 1344,
  "docs": 1345,
  "fit": 1346,
  "roles": 1347,
  "U": 1348,
  "builder": 1349,
  "codes": 1350,
  "metric": 1351,
  "Failed": 1352,
  "extensions": 1353,
  "os.path.isdir": 1354,
  "css": 1355,
  "unknown": 1356,
  "re.compile": 1357,
  "locals": 1358,
  "outputs": 1359,
  "mock": 1360,
  "64": 1361,
  "Q": 1362,
  "ns": 1363,
  "pack": 1364,
  "handlers": 1365,
  "counter": 1366,
  "constructor": 1367,
  "center": 1368,
  "tasks": 1369,
  "&apos;Decorator": 1370,
  "l@@": 1371,
  "high": 1372,
  "compile": 1373,
  "warn": 1374,
  "rel": 1375,
  "sub@@": 1376,
  "sql": 1377,
  "elementNode": 1378,
  "freq": 1379,
  "CommandExecutionError": 1380,
  "free": 1381,
  "starting": 1382,
  "non": 1383,
  "globals": 1384,
  "amount": 1385,
  "period": 1386,
  "elem": 1387,
  "around": 1388,
  "tenant": 1389,
  "down": 1390,
  "r@@": 1391,
  "time.time": 1392,
  "insert": 1393,
  "train": 1394,
  "able": 1395,
  "fails": 1396,
  "negative": 1397,
  "bad": 1398,
  "Function": 1399,
  "rank": 1400,
  "primary": 1401,
  "special": 1402,
  "eq": 1403,
  "np.asarray": 1404,
  "provide": 1405,
  "mac": 1406,
  "segment": 1407,
  "sync": 1408,
  "gen": 1409,
  "side": 1410,
  "symbols": 1411,
  "non-@@": 1412,
  "prev": 1413,
  "including": 1414,
  "django": 1415,
  "loader": 1416,
  "feed": 1417,
  "decorated": 1418,
  ".py": 1419,
  "&apos;The": 1420,
  "00": 1421,
  "settings.@@": 1422,
  "testing": 1423,
  "equivalent": 1424,
  "zeros": 1425,
  "execution": 1426,
  "Django": 1427,
  "e@@": 1428,
  "ssh": 1429,
  "nested": 1430,
  "i@@": 1431,
  "selected": 1432,
  "overwrite": 1433,
  "internal": 1434,
  "x1": 1435,
  "&apos;Run": 1436,
  "2.@@": 1437,
  "well": 1438,
  "tables": 1439,
  "urls": 1440,
  "auto": 1441,
  "sources": 1442,
  "trigger": 1443,
  "All": 1444,
  "`&apos;": 1445,
  "cli": 1446,
  "signed": 1447,
  "iface": 1448,
  "KEY": 1449,
  "too": 1450,
  "put": 1451,
  "got": 1452,
  "actions": 1453,
  "resolve": 1454,
  "related": 1455,
  "URI": 1456,
  "log.info": 1457,
  "wraps": 1458,
  "sock": 1459,
  "leading": 1460,
  "direction": 1461,
  "fetch": 1462,
  "v@@": 1463,
  "m@@": 1464,
  "transaction": 1465,
  "place": 1466,
  "program": 1467,
  "dump": 1468,
  "stdin": 1469,
  "recursive": 1470,
  "queryset": 1471,
  ".text": 1472,
  "avoid": 1473,
  "applied": 1474,
  "validator": 1475,
  "ing": 1476,
  "recent": 1477,
  "documentation": 1478,
  "&apos;List": 1479,
  "fun": 1480,
  "members": 1481,
  "Any": 1482,
  "is@@": 1483,
  "epoch": 1484,
  "pi": 1485,
  "fake": 1486,
  "Node": 1487,
  "blank": 1488,
  "P@@": 1489,
  "DIR": 1490,
  "sigma": 1491,
  "frequency": 1492,
  "x00": 1493,
  "setattr": 1494,
  "keywords": 1495,
  "sin": 1496,
  "a@@": 1497,
  "s1": 1498,
  "array-like": 1499,
  "threads": 1500,
  "cleanup": 1501,
  "look": 1502,
  "exec": 1503,
  "win": 1504,
  "null": 1505,
  "rpc": 1506,
  "B@@": 1507,
  "os.path.abspath": 1508,
  "obj.@@": 1509,
  "v1": 1510,
  "progress": 1511,
  "seen": 1512,
  "automatically": 1513,
  "retVal": 1514,
  "worker": 1515,
  "audio": 1516,
  "priority": 1517,
  "flow": 1518,
  "regular": 1519,
  "Not": 1520,
  "0&apos;": 1521,
  "thing": 1522,
  "cursor": 1523,
  "t@@": 1524,
  "filesystem": 1525,
  "integers": 1526,
  "retrieve": 1527,
  "QQ": 1528,
  "delay": 1529,
  "doctest": 1530,
  "kwargs.pop": 1531,
  "notification": 1532,
  "temporary": 1533,
  "Plugin": 1534,
  "entities": 1535,
  "255": 1536,
  "lineno": 1537,
  "web": 1538,
  "gf": 1539,
  "sudo": 1540,
  "compare": 1541,
  "saved": 1542,
  "g@@": 1543,
  "50": 1544,
  "config.@@": 1545,
  "templates": 1546,
  "nt": 1547,
  "mi": 1548,
  "sig": 1549,
  ".encode": 1550,
  "written": 1551,
  "perm": 1552,
  "ordering": 1553,
  "txt": 1554,
  "dictionaries": 1555,
  "mu": 1556,
  "exact": 1557,
  "requirements": 1558,
  "spaces": 1559,
  "sys.argv": 1560,
  "comments": 1561,
  "rb": 1562,
  "reader": 1563,
  "assumed": 1564,
  "backup": 1565,
  "during": 1566,
  "double": 1567,
  "square": 1568,
  "Used": 1569,
  "fasta": 1570,
  "resulting": 1571,
  "directed": 1572,
  "S@@": 1573,
  "proc": 1574,
  "candidate": 1575,
  "fix": 1576,
  "particular": 1577,
  "``None``": 1578,
  "itself": 1579,
  "fragment": 1580,
  "s``": 1581,
  "parallel": 1582,
  "roots": 1583,
  "terms": 1584,
  "tail": 1585,
  "above": 1586,
  "lst": 1587,
  "in@@": 1588,
  "A@@": 1589,
  "vectors": 1590,
  "suitable": 1591,
  "mark": 1592,
  "checked": 1593,
  "std": 1594,
  "bins": 1595,
  "utf8": 1596,
  "numeric": 1597,
  "duration": 1598,
  "True&apos;": 1599,
  "allows": 1600,
  "re.match": 1601,
  "digits": 1602,
  "result.append": 1603,
  "indicating": 1604,
  "1@@": 1605,
  "data.get": 1606,
  "suite": 1607,
  "working": 1608,
  "caller": 1609,
  "logs": 1610,
  "tab": 1611,
  "json.loads": 1612,
  "stub": 1613,
  "gid": 1614,
  "ok": 1615,
  "1000": 1616,
  "k@@": 1617,
  "ordered": 1618,
  "grains": 1619,
  "OS": 1620,
  "30": 1621,
  "multi": 1622,
  "remaining": 1623,
  "theme": 1624,
  "ports": 1625,
  "addon": 1626,
  "ex": 1627,
  "div": 1628,
  "Usage": 1629,
  "11": 1630,
  "locations": 1631,
  "model.@@": 1632,
  "&apos;Read": 1633,
  "js": 1634,
  "creation": 1635,
  "parsing": 1636,
  "indexes": 1637,
  "restart": 1638,
  "Output": 1639,
  "rgb": 1640,
  "logical": 1641,
  "en": 1642,
  "h@@": 1643,
  "config.get": 1644,
  "quality": 1645,
  "c.@@": 1646,
  "pkgs": 1647,
  "country": 1648,
  "os.path.isfile": 1649,
  "move": 1650,
  "servers": 1651,
  "24": 1652,
  "monitor": 1653,
  "retries": 1654,
  "s2": 1655,
  "fid": 1656,
  "y@@": 1657,
  "comps": 1658,
  "cos": 1659,
  "sleep": 1660,
  "mul": 1661,
  "validation": 1662,
  "NotImplementedError": 1663,
  "creating": 1664,
  "de@@": 1665,
  "replacement": 1666,
  "might": 1667,
  "subnet": 1668,
  "training": 1669,
  "windows": 1670,
  "sizes": 1671,
  "external": 1672,
  "unless": 1673,
  "pipeline": 1674,
  "pages": 1675,
  "cell": 1676,
  "conversion": 1677,
  "indexer": 1678,
  "cc": 1679,
  "cases": 1680,
  "examples": 1681,
  "minutes": 1682,
  "json.dumps": 1683,
  "md": 1684,
  "DB": 1685,
  "our": 1686,
  "successful": 1687,
  "&apos;Load": 1688,
  "Data": 1689,
  "utils.@@": 1690,
  "``False``": 1691,
  "clip": 1692,
  "authentication": 1693,
  "VERSION": 1694,
  "large": 1695,
  "request.user": 1696,
  "&apos;Delete": 1697,
  "TYPE": 1698,
  "levels": 1699,
  "jid": 1700,
  "string&apos;": 1701,
  "inst": 1702,
  "computed": 1703,
  "404": 1704,
  "flatten": 1705,
  "E@@": 1706,
  "subclass": 1707,
  "&apos;Gets": 1708,
  "t.@@": 1709,
  "browser": 1710,
  "fig": 1711,
  "flavor": 1712,
  "isn": 1713,
  "warnings.warn": 1714,
  "io": 1715,
  "formats": 1716,
  "s.get": 1717,
  "ds": 1718,
  "&apos;Determine": 1719,
  "re.search": 1720,
  "extend": 1721,
  "href": 1722,
  "considered": 1723,
  "attempt": 1724,
  "inverse": 1725,
  "console": 1726,
  "wiki": 1727,
  "Must": 1728,
  "oauth": 1729,
  "history": 1730,
  "choice": 1731,
  "separator": 1732,
  "quotes": 1733,
  "theta": 1734,
  "sentence": 1735,
  "I@@": 1736,
  "Array": 1737,
  "versionchanged": 1738,
  "cov": 1739,
  "clone": 1740,
  "5@@": 1741,
  "matrices": 1742,
  "ca": 1743,
  "supports": 1744,
  "difference": 1745,
  "G@@": 1746,
  "1024": 1747,
  "Unable": 1748,
  "small": 1749,
  "Matrix": 1750,
  "object&apos;": 1751,
  "made": 1752,
  "E": 1753,
  "logged": 1754,
  "reduce": 1755,
  "dummy": 1756,
  "floating": 1757,
  "Request": 1758,
  "u@@": 1759,
  "proto": 1760,
  "stat": 1761,
  "4@@": 1762,
  "similar": 1763,
  "rc": 1764,
  "probability": 1765,
  "NetworkX": 1766,
  "projects": 1767,
  "trailing": 1768,
  "new@@": 1769,
  "USER": 1770,
  "connections": 1771,
  "escaped": 1772,
  "SIZE": 1773,
  "quoted": 1774,
  "curr": 1775,
  "OK": 1776,
  "200": 1777,
  "implemented": 1778,
  "csv": 1779,
  "D@@": 1780,
  "coeff": 1781,
  "behavior": 1782,
  "md5": 1783,
  "st": 1784,
  "route": 1785,
  "layout": 1786,
  "detail": 1787,
  "hour": 1788,
  "translate": 1789,
  "p1": 1790,
  "languages": 1791,
  "cost": 1792,
  "UTC": 1793,
  "issues": 1794,
  "writer": 1795,
  "perform": 1796,
  "x.@@": 1797,
  "issue": 1798,
  "box": 1799,
  "CONFIG": 1800,
  "N@@": 1801,
  "three": 1802,
  "z@@": 1803,
  "typ": 1804,
  "file-like": 1805,
  "V": 1806,
  "closed": 1807,
  "categories": 1808,
  "basename": 1809,
  "generic": 1810,
  "line.split": 1811,
  "scan": 1812,
  "node.@@": 1813,
  "0.1": 1814,
  "mount": 1815,
  "replaced": 1816,
  "later": 1817,
  "define": 1818,
  "Model": 1819,
  "below": 1820,
  "a.@@": 1821,
  "timedelta": 1822,
  "ips": 1823,
  "VM": 1824,
  "trans": 1825,
  "glob": 1826,
  "data.@@": 1827,
  "xmlElement": 1828,
  "xs": 1829,
  "traceback": 1830,
  "qs": 1831,
  "&apos;Only": 1832,
  "bind": 1833,
  "vertices": 1834,
  "meth": 1835,
  "pathname": 1836,
  "decoded": 1837,
  "SaltCloudSystemExit": 1838,
  "Response": 1839,
  "gens": 1840,
  "Index": 1841,
  "ver": 1842,
  "ones": 1843,
  "angle": 1844,
  "set@@": 1845,
  "base64": 1846,
  "Unknown": 1847,
  "filtered": 1848,
  "variance": 1849,
  "reversed": 1850,
  "ll": 1851,
  "review": 1852,
  "seqs": 1853,
  "cfg": 1854,
  "limits": 1855,
  "os.path.basename": 1856,
  "p.@@": 1857,
  "grad": 1858,
  "argv": 1859,
  "round": 1860,
  "doctype": 1861,
  "MAX": 1862,
  "greater": 1863,
  "Version": 1864,
  "None&apos;": 1865,
  "tb": 1866,
  "widget": 1867,
  "es": 1868,
  "eps": 1869,
  "six.string": 1870,
  "secure": 1871,
  "fraction": 1872,
  "regions": 1873,
  "salt-cloud": 1874,
  "T@@": 1875,
  "result.@@": 1876,
  "ERROR": 1877,
  "Unicode": 1878,
  "M@@": 1879,
  "H@@": 1880,
  "3@@": 1881,
  "datasets": 1882,
  "rec": 1883,
  "kwds": 1884,
  "gradient": 1885,
  "quota": 1886,
  "dependency": 1887,
  "fallback": 1888,
  "delimiter": 1889,
  "matched": 1890,
  "expressions": 1891,
  "fh": 1892,
  "Server": 1893,
  "staff": 1894,
  "str&apos;": 1895,
  "Image": 1896,
  "fixtures": 1897,
  "hours": 1898,
  "L@@": 1899,
  "selector": 1900,
  "prob": 1901,
  "py@@": 1902,
  "sys.modules": 1903,
  "correctly": 1904,
  ".startswith": 1905,
  "d.@@": 1906,
  "own": 1907,
  "gpu": 1908,
  "np.dot": 1909,
  "actually": 1910,
  "domains": 1911,
  "effect": 1912,
  "m.group": 1913,
  "enrollment": 1914,
  "literal": 1915,
  "StringIO": 1916,
  "coordinates": 1917,
  "runs": 1918,
  "request.@@": 1919,
  "question": 1920,
  "0@@": 1921,
  "el": 1922,
  "&apos;If": 1923,
  "gamma": 1924,
  "accepts": 1925,
  "age": 1926,
  "yet": 1927,
  "policies": 1928,
  "modify": 1929,
  "begin": 1930,
  "O": 1931,
  "taken": 1932,
  "coefficients": 1933,
  "segments": 1934,
  "Object": 1935,
  "overrides": 1936,
  "cloud": 1937,
  "Requires": 1938,
  "backends": 1939,
  "f.@@": 1940,
  "apps": 1941,
  "FILE": 1942,
  "f.read": 1943,
  "cat": 1944,
  "scores": 1945,
  "explicit": 1946,
  "reload": 1947,
  "``str``": 1948,
  "7@@": 1949,
  "HAS": 1950,
  "boundary": 1951,
  "8@@": 1952,
  "predicate": 1953,
  "w@@": 1954,
  "ranges": 1955,
  "1d": 1956,
  "answer": 1957,
  "epsilon": 1958,
  "&apos;Ensure": 1959,
  "specifying": 1960,
  "rendered": 1961,
  "&apos;Computes": 1962,
  "formatter": 1963,
  "still": 1964,
  "very": 1965,
  "passwd": 1966,
  "github.com": 1967,
  "Cfunction": 1968,
  "attach": 1969,
  "truncate": 1970,
  "Cfunctions.get": 1971,
  "theano": 1972,
  "rather": 1973,
  "`None`": 1974,
  "80": 1975,
  "depending": 1976,
  ".decode": 1977,
  "operations": 1978,
  "nothing": 1979,
  "pixel": 1980,
  "ar": 1981,
  "Traceback": 1982,
  "calculate": 1983,
  "started": 1984,
  ".filter": 1985,
  "fullname": 1986,
  "x2": 1987,
  "plus": 1988,
  "poly": 1989,
  "certain": 1990,
  "Time": 1991,
  "plain": 1992,
  "ptr": 1993,
  "9@@": 1994,
  "serialize": 1995,
  "pending": 1996,
  "`True`": 1997,
  "utils": 1998,
  "exactly": 1999,
  "rval": 2000,
  "repeat": 2001,
  "checking": 2002,
  "async": 2003,
  "serial": 2004,
  "Variable": 2005,
  "subset": 2006,
  "edit": 2007,
  ".read": 2008,
  "x.shape": 2009,
  "UTF-8": 2010,
  "&apos;Update": 2011,
  "enum": 2012,
  "choices": 2013,
  "reg": 2014,
  "episode": 2015,
  "IPv6": 2016,
  "mime": 2017,
  "&apos;Takes": 2018,
  "certificates": 2019,
  "chr": 2020,
  "np.arange": 2021,
  "dirpath": 2022,
  "tgt": 2023,
  "pointer": 2024,
  "aliases": 2025,
  "2d": 2026,
  "K@@": 2027,
  "F@@": 2028,
  "256": 2029,
  "shutdown": 2030,
  "os.listdir": 2031,
  "guess": 2032,
  "tries": 2033,
  "ii": 2034,
  "scopes": 2035,
  "upgrade": 2036,
  "runner": 2037,
  "attempts": 2038,
  "lazy": 2039,
  "palette": 2040,
  "unpack": 2041,
  "tzinfo": 2042,
  "my@@": 2043,
  "W@@": 2044,
  "flat": 2045,
  "noise": 2046,
  "assigned": 2047,
  "subs": 2048,
  "documents": 2049,
  "expect": 2050,
  "inv": 2051,
  "j@@": 2052,
  "cs": 2053,
  ".splitlines": 2054,
  "Id": 2055,
  "mappings": 2056,
  "o@@": 2057,
  "switch": 2058,
  "These": 2059,
  "R@@": 2060,
  "Test": 2061,
  "separated": 2062,
  "client.@@": 2063,
  "bases": 2064,
  "views": 2065,
  "stride": 2066,
  "&apos;Write": 2067,
  "accepted": 2068,
  "facts": 2069,
  "hello": 2070,
  "to@@": 2071,
  "Context": 2072,
  "Could": 2073,
  "On": 2074,
  "mapper": 2075,
  "prime": 2076,
  "never": 2077,
  "share": 2078,
  "v2": 2079,
  "etag": 2080,
  "receiver": 2081,
  "Module": 2082,
  "hidden": 2083,
  "processor": 2084,
  "Dictionary": 2085,
  "prefixes": 2086,
  "2015.8.0": 2087,
  "drop": 2088,
  "coords": 2089,
  "compatible": 2090,
  "cpu": 2091,
  "PEM": 2092,
  "creates": 2093,
  "q@@": 2094,
  "functools.wraps": 2095,
  "NOT": 2096,
  "price": 2097,
  "f.write": 2098,
  "depends": 2099,
  "received": 2100,
  "factors": 2101,
  "realm": 2102,
  "X@@": 2103,
  "2-D": 2104,
  "asset": 2105,
  "otu": 2106,
  "IndexError": 2107,
  "nan": 2108,
  "Deferred": 2109,
  "us": 2110,
  "follow": 2111,
  "dates": 2112,
  "describe": 2113,
  "boot": 2114,
  "Please": 2115,
  "authenticated": 2116,
  "strides": 2117,
  "localhost": 2118,
  "False&apos;": 2119,
  "cmp": 2120,
  "time.sleep": 2121,
  "grid": 2122,
  "np.sum": 2123,
  "pytest.fixture": 2124,
  "good": 2125,
  "utc": 2126,
  "ground": 2127,
  "strategy": 2128,
  "destroy": 2129,
  "provides": 2130,
  "native": 2131,
  "scenario": 2132,
  "estimator": 2133,
  "Message": 2134,
  "yes": 2135,
  "arbitrary": 2136,
  "&apos;Adds": 2137,
  "&apos;Retrieve": 2138,
  "coord": 2139,
  "kwarg": 2140,
  "th": 2141,
  "To@@": 2142,
  "list&apos;": 2143,
  "sid": 2144,
  "const": 2145,
  "tools": 2146,
  "vpc": 2147,
  "forward": 2148,
  "cast": 2149,
  "author": 2150,
  "export": 2151,
  "references": 2152,
  "passing": 2153,
  "wrong": 2154,
  "cipher": 2155,
  "authorization": 2156,
  "interfaces": 2157,
  "128": 2158,
  "quiet": 2159,
  "Group": 2160,
  "expires": 2161,
  "anything": 2162,
  "recipient": 2163,
  "netloc": 2164,
  "Given": 2165,
  "walk": 2166,
  "optionally": 2167,
  "decimal": 2168,
  "serialized": 2169,
  "list.append": 2170,
  "simply": 2171,
  "cmap": 2172,
  "x0": 2173,
  "tar": 2174,
  "physical": 2175,
  "np.sqrt": 2176,
  "Instance": 2177,
  ".update": 2178,
  "HttpResponse": 2179,
  "team": 2180,
  "binding": 2181,
  "indicates": 2182,
  "arch": 2183,
  "IDs": 2184,
  "Expected": 2185,
  "subprocess": 2186,
  "imported": 2187,
  "e.@@": 2188,
  "fast": 2189,
  "builtin": 2190,
  "deps": 2191,
  "Config": 2192,
  "usr": 2193,
  "cutoff": 2194,
  "mtime": 2195,
  "sh": 2196,
  "things": 2197,
  "AWS": 2198,
  "consul": 2199,
  "represents": 2200,
  "visible": 2201,
  "sha": 2202,
  "Q@@": 2203,
  "pixels": 2204,
  "logger.info": 2205,
  ".astype": 2206,
  "construct": 2207,
  "There": 2208,
  "red": 2209,
  "ed": 2210,
  "Will": 2211,
  "systems": 2212,
  "V@@": 2213,
  "&apos;Extract": 2214,
  "runtime": 2215,
  "file&apos;": 2216,
  "bootstrap": 2217,
  "magic": 2218,
  "Service": 2219,
  "outside": 2220,
  "inventory": 2221,
  "&apos;Parses": 2222,
  "solution": 2223,
  "longer": 2224,
  "25": 2225,
  "qual": 2226,
  "os.environ.get": 2227,
  "adding": 2228,
  "sys.stderr": 2229,
  "alphabet": 2230,
  "six.text": 2231,
  "`.": 2232,
  "pull": 2233,
  "pip": 2234,
  "preferred": 2235,
  "prepare": 2236,
  "pretty": 2237,
  "starts": 2238,
  "Re@@": 2239,
  "copied": 2240,
  "bbox": 2241,
  "syntax": 2242,
  "describing": 2243,
  "comparison": 2244,
  "jail": 2245,
  "processes": 2246,
  "managed": 2247,
  "mapped": 2248,
  "add@@": 2249,
  "test@@": 2250,
  "appear": 2251,
  "separate": 2252,
  "human": 2253,
  "topics": 2254,
  "converts": 2255,
  "db.@@": 2256,
  "listed": 2257,
  "distances": 2258,
  "WSGI": 2259,
  "s-@@": 2260,
  "handling": 2261,
  "newline": 2262,
  "weighted": 2263,
  "executed": 2264,
  "RFC": 2265,
  "DataFrame": 2266,
  "line.startswith": 2267,
  "literalinclude": 2268,
  "stripped": 2269,
  "due": 2270,
  "catalog": 2271,
  ".set": 2272,
  "subprocess.PIPE": 2273,
  "6@@": 2274,
  "state.@@": 2275,
  "graphs": 2276,
  "covariance": 2277,
  "Jenkins": 2278,
  "transport": 2279,
  "Should": 2280,
  "go": 2281,
  "sys.exc": 2282,
  "minor": 2283,
  "Y@@": 2284,
  "configure": 2285,
  "inline": 2286,
  "area": 2287,
  "scipy": 2288,
  "ipv4": 2289,
  "cause": 2290,
  "pop": 2291,
  "general": 2292,
  "changeset": 2293,
  "register.filter": 2294,
  "ys": 2295,
  "linenum": 2296,
  "absent": 2297,
  "rotation": 2298,
  "pb": 2299,
  "know": 2300,
  "bottom": 2301,
  "wb": 2302,
  "packet": 2303,
  "positional": 2304,
  "discovery": 2305,
  "www.@@": 2306,
  "rs": 2307,
  "reply": 2308,
  "mail": 2309,
  "frac": 2310,
  "restore": 2311,
  "br": 2312,
  "exog": 2313,
  "13": 2314,
  "UUID": 2315,
  "O@@": 2316,
  "median": 2317,
  "r.@@": 2318,
  "nodelist": 2319,
  "pat": 2320,
  "give": 2321,
  "symbolic": 2322,
  "SELECT": 2323,
  "attached": 2324,
  "organization": 2325,
  "ASCII": 2326,
  "tracks": 2327,
  "maps": 2328,
  "FROM": 2329,
  "completion": 2330,
  "10@@": 2331,
  "processed": 2332,
  "g.@@": 2333,
  "partitions": 2334,
  "merged": 2335,
  "name&apos;": 2336,
  "`x`": 2337,
  "IPv4": 2338,
  "phase": 2339,
  "six.iteritems": 2340,
  "followed": 2341,
  "regexp": 2342,
  "Class": 2343,
  ".items": 2344,
  "&apos;Build": 2345,
  "bc": 2346,
  "400": 2347,
  "major": 2348,
  "dims": 2349,
  "loglevel": 2350,
  "interactive": 2351,
  "util.@@": 2352,
  "Salt": 2353,
  "looks": 2354,
  "icon": 2355,
  "Template": 2356,
  "loops": 2357,
  "beginning": 2358,
  "registration": 2359,
  "diagonal": 2360,
  "SaltInvocationError": 2361,
  "properly": 2362,
  "bounds": 2363,
  "enc": 2364,
  "successfully": 2365,
  "layers": 2366,
  "t1": 2367,
  "readable": 2368,
  "os.makedirs": 2369,
  "neighbors": 2370,
  "&apos;Sets": 2371,
  "background": 2372,
  "datacenter": 2373,
  "resize": 2374,
  "key@@": 2375,
  "DATA": 2376,
  "refs": 2377,
  "percent": 2378,
  "draw": 2379,
  "TEST": 2380,
  "2&apos;": 2381,
  "plural": 2382,
  "PREFIX": 2383,
  "management": 2384,
  "sec": 2385,
  "ints": 2386,
  "compatibility": 2387,
  "translations": 2388,
  "pickle": 2389,
  "excluded": 2390,
  "cond": 2391,
  "rev": 2392,
  "represent": 2393,
  "evaluate": 2394,
  "Series": 2395,
  "xblock": 2396,
  "comp": 2397,
  "datetime.datetime": 2398,
  "unused": 2399,
  "entire": 2400,
  "`.@@": 2401,
  "possibly": 2402,
  "iterations": 2403,
  "processing": 2404,
  "sympy.abc": 2405,
  "coordinate": 2406,
  "align": 2407,
  "contextmanager": 2408,
  "cross": 2409,
  "ident": 2410,
  "pdf": 2411,
  "sys.path": 2412,
  "sections": 2413,
  "&apos;Generates": 2414,
  "sys.stdout": 2415,
  "no@@": 2416,
  "relation": 2417,
  "URLs": 2418,
  "season": 2419,
  "terminal": 2420,
  "mem": 2421,
  "equals": 2422,
  "Theano": 2423,
  "maybe": 2424,
  "tup": 2425,
  "INFO": 2426,
  "RGB": 2427,
  "nb": 2428,
  "as@@": 2429,
  "d1": 2430,
  "Info": 2431,
  "derivative": 2432,
  "degrees": 2433,
  "File@@": 2434,
  "fileobj": 2435,
  "iteration": 2436,
  "Either": 2437,
  "-a": 2438,
  "n1": 2439,
  "trees": 2440,
  "os.path.splitext": 2441,
  "makes": 2442,
  "socket.AF": 2443,
  "ls": 2444,
  "2016.3.0": 2445,
  "correlation": 2446,
  "context.@@": 2447,
  "Table": 2448,
  "migration": 2449,
  "album": 2450,
  "adds": 2451,
  "rename": 2452,
  "deviation": 2453,
  "props": 2454,
  "01": 2455,
  "Integer": 2456,
  "&apos;return": 2457,
  "sha1": 2458,
  "statistics": 2459,
  "higher": 2460,
  "alternative": 2461,
  "deployment": 2462,
  "finite": 2463,
  "salt-run": 2464,
  "collect": 2465,
  "d2": 2466,
  "2D": 2467,
  "represented": 2468,
  "40": 2469,
  "file@@": 2470,
  "letter": 2471,
  "bug": 2472,
  "nearest": 2473,
  "os.path.expanduser": 2474,
  "dry": 2475,
  "args.@@": 2476,
  "500": 2477,
  "Tensor": 2478,
  "sys.version": 2479,
  "calculated": 2480,
  "ready": 2481,
  "ancestor": 2482,
  "Tuple": 2483,
  "constants": 2484,
  "Text": 2485,
  ".sum": 2486,
  "incoming": 2487,
  "Add": 2488,
  "proper": 2489,
  "hooks": 2490,
  "profiles": 2491,
  "hi": 2492,
  "described": 2493,
  "iteritems": 2494,
  "numpy.@@": 2495,
  "folders": 2496,
  "zpool": 2497,
  "detect": 2498,
  "LOG.debug": 2499,
  "recommended": 2500,
  "minute": 2501,
  "42": 2502,
  "dep": 2503,
  "rng": 2504,
  "sys.exit": 2505,
  "determined": 2506,
  "dirty": 2507,
  "exe": 2508,
  "modes": 2509,
  "gcd": 2510,
  "serializer": 2511,
  "NO": 2512,
  "&apos;Removes": 2513,
  "getter": 2514,
  "b.@@": 2515,
  "individuals": 2516,
  "ec2": 2517,
  "&apos;yaml": 2518,
  "lengths": 2519,
  "prior": 2520,
  "file.@@": 2521,
  "retval": 2522,
  "cookies": 2523,
  "acl": 2524,
  "volumes": 2525,
  "positions": 2526,
  "dense": 2527,
  "assume": 2528,
  "FORMAT": 2529,
  ".add": 2530,
  "RE": 2531,
  "imports": 2532,
  "deg": 2533,
  "SQL": 2534,
  "containers": 2535,
  "chosen": 2536,
  "gateway": 2537,
  "capture": 2538,
  "parents": 2539,
  "tmpdir": 2540,
  "logger.debug": 2541,
  "usually": 2542,
  "minions": 2543,
  "m.@@": 2544,
  "tol": 2545,
  "preserve": 2546,
  "Linux": 2547,
  "&apos;S@@": 2548,
  "activation": 2549,
  "os.stat": 2550,
  "aggregate": 2551,
  ".T": 2552,
  "Py@@": 2553,
  "np.ndarray": 2554,
  "getNewRepository": 2555,
  "font": 2556,
  "TODO": 2557,
  "direct": 2558,
  "playlist": 2559,
  "issubclass": 2560,
  "app.@@": 2561,
  "info.@@": 2562,
  "gcode": 2563,
  "3.@@": 2564,
  "CACHE": 2565,
  "DeprecationWarning": 2566,
  "pre@@": 2567,
  "assign": 2568,
  "expanded": 2569,
  "initializer": 2570,
  "closing": 2571,
  "entropy": 2572,
  "whole": 2573,
  "Un@@": 2574,
  "J@@": 2575,
  "rm": 2576,
  "ix": 2577,
  "expire": 2578,
  "selem": 2579,
  "explicitly": 2580,
  "sr": 2581,
  "checksum": 2582,
  "skipped": 2583,
  "struct.unpack": 2584,
  "coefficient": 2585,
  "echo": 2586,
  "al": 2587,
  "log.warning": 2588,
  "sys.platform": 2589,
  "encrypted": 2590,
  "specification": 2591,
  "performed": 2592,
  "hist": 2593,
  "csrf": 2594,
  "api.@@": 2595,
  "Client": 2596,
  "SKIP": 2597,
  "undirected": 2598,
  "HOME": 2599,
  "virtualname": 2600,
  "Configuration": 2601,
  "t2": 2602,
  "nonce": 2603,
  "encryption": 2604,
  "seealso": 2605,
  "flush": 2606,
  "bulk": 2607,
  "initialized": 2608,
  "Google": 2609,
  "pow": 2610,
  "&apos;For": 2611,
  "np.ones": 2612,
  "f.close": 2613,
  "lag": 2614,
  "mimetype": 2615,
  "transfer": 2616,
  "push": 2617,
  "lowercase": 2618,
  "DNS": 2619,
  "migrate": 2620,
  "Boolean": 2621,
  "shed": 2622,
  "snapshots": 2623,
  "initialize": 2624,
  "matplotlib": 2625,
  "cval": 2626,
  "newlines": 2627,
  "leaf": 2628,
  "AssertionError": 2629,
  "vdi": 2630,
  "integration": 2631,
  "png": 2632,
  "fully": 2633,
  "maintenance": 2634,
  "Z@@": 2635,
  "perms": 2636,
  "constraint": 2637,
  "se@@": 2638,
  "&apos;Re@@": 2639,
  "funcs": 2640,
  "combine": 2641,
  "&apos;Print": 2642,
  "article": 2643,
  "shapes": 2644,
  "independent": 2645,
  "Keyword": 2646,
  "dn": 2647,
  "ALL": 2648,
  "&apos;Validate": 2649,
  "compiled": 2650,
  "abc": 2651,
  "TO": 2652,
  "line.strip": 2653,
  "receive": 2654,
  "unquote": 2655,
  "struct": 2656,
  "al@@": 2657,
  "ccx": 2658,
  "artist": 2659,
  "er@@": 2660,
  "bundle": 2661,
  "contained": 2662,
  "lat": 2663,
  "One": 2664,
  "LC": 2665,
  "subprocess.Popen": 2666,
  "assignment": 2667,
  "conditions": 2668,
  "produce": 2669,
  "STRING": 2670,
  "&apos;Calculate": 2671,
  "de": 2672,
  "y1": 2673,
  "solve": 2674,
  "models.@@": 2675,
  "typically": 2676,
  "providers": 2677,
  "several": 2678,
  "fingerprint": 2679,
  "statements": 2680,
  "Uses": 2681,
  "estimate": 2682,
  "FilePath": 2683,
  "ending": 2684,
  "predicted": 2685,
  "verification": 2686,
  "packed": 2687,
  "SSL": 2688,
  "Content-Type": 2689,
  "y.@@": 2690,
  "logging.info": 2691,
  "os.remove": 2692,
  "networks": 2693,
  "New": 2694,
  "startswith": 2695,
  "built": 2696,
  "completed": 2697,
  "os.path.split": 2698,
  "conv": 2699,
  "ps": 2700,
  "module.@@": 2701,
  "neg": 2702,
  "renderer": 2703,
  "compression": 2704,
  "conn.@@": 2705,
  "loads": 2706,
  "Application": 2707,
  "scene": 2708,
  "masked": 2709,
  "bias": 2710,
  "selection": 2711,
  "Size": 2712,
  "reading": 2713,
  "scaling": 2714,
  "ing@@": 2715,
  "queries": 2716,
  "3.0": 2717,
  "egg": 2718,
  "ms": 2719,
  "clock": 2720,
  "adapter": 2721,
  "java": 2722,
  "14": 2723,
  "white": 2724,
  "vocabulary": 2725,
  "dynamic": 2726,
  "1-@@": 2727,
  "&apos;Send": 2728,
  "modname": 2729,
  "parse@@": 2730,
  "kill": 2731,
  "certs": 2732,
  "pause": 2733,
  "floats": 2734,
  "dict.get": 2735,
  "grant": 2736,
  "router": 2737,
  "notify": 2738,
  "correction": 2739,
  "attachment": 2740,
  "scripts": 2741,
  "context.get": 2742,
  "test.@@": 2743,
  "smaller": 2744,
  "hide": 2745,
  "much": 2746,
  "combination": 2747,
  "Okay": 2748,
  "22": 2749,
  "translated": 2750,
  "Access": 2751,
  "enough": 2752,
  "Warning": 2753,
  "again": 2754,
  "20@@": 2755,
  "In@@": 2756,
  "reboot": 2757,
  "design": 2758,
  "Check": 2759,
  "anchor": 2760,
  "pandas": 2761,
  "slices": 2762,
  "ValidationError": 2763,
  ".&apos;.join": 2764,
  "First": 2765,
  "learning": 2766,
  "cleaned": 2767,
  "ipv6": 2768,
  "HEAD": 2769,
  "Result": 2770,
  "StopIteration": 2771,
  "np": 2772,
  "canonical": 2773,
  "cut": 2774,
  "screen": 2775,
  "remainder": 2776,
  "firewall": 2777,
  "max@@": 2778,
  "31": 2779,
  "front": 2780,
  "chainer.Variable": 2781,
  "jenkins-wiki": 2782,
  "follows": 2783,
  "instance.@@": 2784,
  "intended": 2785,
  "ct": 2786,
  "metrics": 2787,
  "Useful": 2788,
  "border": 2789,
  "``f``": 2790,
  "smart": 2791,
  "proj": 2792,
  "User@@": 2793,
  "AND": 2794,
  "inplace": 2795,
  "ruby": 2796,
  "projection": 2797,
  "arn": 2798,
  "choose": 2799,
  "utility": 2800,
  "np.@@": 2801,
  "19@@": 2802,
  "directive": 2803,
  "cp": 2804,
  "fixture": 2805,
  "However": 2806,
  "expiration": 2807,
  "generation": 2808,
  "finder": 2809,
  "Dict": 2810,
  "outfile": 2811,
  "observation": 2812,
  "formatting": 2813,
  "Graph": 2814,
  "extracted": 2815,
  "repos": 2816,
  "book": 2817,
  "dns": 2818,
  "item.@@": 2819,
  "Cannot": 2820,
  "broadcast": 2821,
  "prevent": 2822,
  "union": 2823,
  "vec": 2824,
  "tokenize": 2825,
  "U@@": 2826,
  "12@@": 2827,
  "YAML": 2828,
  "inc": 2829,
  "dtypes": 2830,
  "symmetric": 2831,
  "csr": 2832,
  "sentences": 2833,
  "combined": 2834,
  "together": 2835,
  "writing": 2836,
  "basis": 2837,
  "undefined": 2838,
  "np.abs": 2839,
  ".hexdigest": 2840,
  "pytest.raises": 2841,
  "everything": 2842,
  "user.@@": 2843,
  "having": 2844,
  "example.com": 2845,
  "SERVER": 2846,
  "s.split": 2847,
  "variant": 2848,
  "contact": 2849,
  "watch": 2850,
  "name.startswith": 2851,
  "qos": 2852,
  "dsk": 2853,
  "observations": 2854,
  "editor": 2855,
  "gt": 2856,
  "dc": 2857,
  "defines": 2858,
  "meaning": 2859,
  "dashboard": 2860,
  "core.@@": 2861,
  "cmd.append": 2862,
  "discussion": 2863,
  "&apos;Display": 2864,
  "p2": 2865,
  "equation": 2866,
  "com": 2867,
  "authorized": 2868,
  "installation": 2869,
  "Status": 2870,
  "inf": 2871,
  "inspect": 2872,
  "ty": 2873,
  "comma": 2874,
  "an@@": 2875,
  "os.name": 2876,
  "markdown": 2877,
  "removes": 2878,
  "respectively": 2879,
  "conditional": 2880,
  "17": 2881,
  "yields": 2882,
  "libraries": 2883,
  "gives": 2884,
  "Symbol": 2885,
  "filled": 2886,
  ".keys": 2887,
  "--function": 2888,
  "rep": 2889,
  "outer": 2890,
  "regression": 2891,
  "inject": 2892,
  "swap": 2893,
  "submit": 2894,
  "Options": 2895,
  "relationship": 2896,
  "gets": 2897,
  "speed": 2898,
  "&apos;Format": 2899,
  "pieces": 2900,
  "salt.utils.fopen": 2901,
  "courses": 2902,
  "passphrase": 2903,
  "request.method": 2904,
  "downloaded": 2905,
  "1-D": 2906,
  "gcodeText": 2907,
  "16@@": 2908,
  "snippet": 2909,
  "requirement": 2910,
  "NOTE": 2911,
  "campaign": 2912,
  "value.@@": 2913,
  "server.@@": 2914,
  "127.0.0.1": 2915,
  "big": 2916,
  "0-9": 2917,
  "placeholder": 2918,
  "emails": 2919,
  "qualified": 2920,
  "glance": 2921,
  "compat": 2922,
  "replication": 2923,
  ".values": 2924,
  "giving": 2925,
  "please": 2926,
  "legacy": 2927,
  "measure": 2928,
  "rand": 2929,
  "primitive": 2930,
  "statistic": 2931,
  "derivation": 2932,
  "decorate": 2933,
  "float32": 2934,
  "across": 2935,
  "ation": 2936,
  "s.items": 2937,
  ".upper": 2938,
  ".shape": 2939,
  "mp": 2940,
  "-3": 2941,
  "bio": 2942,
  "me": 2943,
  "struct.pack": 2944,
  "tensors": 2945,
  "node.inputs": 2946,
  "ate": 2947,
  "appname": 2948,
  "ends": 2949,
  "&apos;Register": 2950,
  "letters": 2951,
  "appended": 2952,
  "table.@@": 2953,
  "CONF": 2954,
  "Unix": 2955,
  "&apos;Perform": 2956,
  "ROOT": 2957,
  "candidates": 2958,
  "drive": 2959,
  "From@@": 2960,
  "bus": 2961,
  "stacklevel": 2962,
  "recipients": 2963,
  "os.walk": 2964,
  "prec": 2965,
  "dx": 2966,
  "id@@": 2967,
  "potential": 2968,
  ".name": 2969,
  "objs": 2970,
  "compiler": 2971,
  "squared": 2972,
  "cycle": 2973,
  "cd": 2974,
  "half": 2975,
  "er": 2976,
  "Handler": 2977,
  "performance": 2978,
  "dialog": 2979,
  "3&apos;": 2980,
  "er.@@": 2981,
  "asarray": 2982,
  "immediately": 2983,
  "joined": 2984,
  "on@@": 2985,
  "density": 2986,
  "yaml&apos;": 2987,
  "optimizer": 2988,
  "uniform": 2989,
  "OrderedDict": 2990,
  "cidr": 2991,
  "detected": 2992,
  "currency": 2993,
  "draft": 2994,
  "salt.utils.is": 2995,
  "predictions": 2996,
  "G.add": 2997,
  "TIME": 2998,
  "session.query": 2999,
  "px": 3000,
  "en.wikipedia.org": 3001,
  "obtain": 3002,
  "extended": 3003,
  "Currently": 3004,
  "ss": 3005,
  "anonymous": 3006,
  "Connection": 3007,
  "cmd.retcode": 3008,
  "routine": 3009,
  "00@@": 3010,
  "poll": 3011,
  "&apos;utf-8": 3012,
  "ClientError": 3013,
  "padded": 3014,
  "cart": 3015,
  "loading": 3016,
  "creator": 3017,
  "relevant": 3018,
  "&apos;Try": 3019,
  "cupy.ndarray": 3020,
  "out@@": 3021,
  "`n`": 3022,
  "enter": 3023,
  "pick": 3024,
  "intersection": 3025,
  "grade": 3026,
  "limited": 3027,
  "configs": 3028,
  "flattened": 3029,
  "tok": 3030,
  "pub": 3031,
  "lt": 3032,
  "hass": 3033,
  "opened": 3034,
  "log@@": 3035,
  "frames": 3036,
  "inclusive": 3037,
  "cohort": 3038,
  "xy": 3039,
  "products": 3040,
  "recursively": 3041,
  "compressed": 3042,
  "And": 3043,
  "li": 3044,
  "moment": 3045,
  "eg": 3046,
  "NotFound": 3047,
  "si": 3048,
  "response.status": 3049,
  "credit": 3050,
  "co@@": 3051,
  "Manager": 3052,
  "dict&apos;": 3053,
  "random.choice": 3054,
  "Field": 3055,
  "pem": 3056,
  "diag": 3057,
  "checker": 3058,
  "subclasses": 3059,
  "trim": 3060,
  "abort": 3061,
  "shortest": 3062,
  "clause": 3063,
  "Parser": 3064,
  "truncated": 3065,
  "Set@@": 3066,
  "indicate": 3067,
  "virtualenv": 3068,
  "problems": 3069,
  "Base": 3070,
  "displayed": 3071,
  "ops": 3072,
  "datetime.timedelta": 3073,
  "docker": 3074,
  "evaluated": 3075,
  "prod": 3076,
  "encrypt": 3077,
  "dispatch": 3078,
  "specifies": 3079,
  "Values": 3080,
  "mods": 3081,
  "ttl": 3082,
  "reserved": 3083,
  "getting": 3084,
  "As": 3085,
  "world": 3086,
  "digit": 3087,
  "ch@@": 3088,
  "histogram": 3089,
  "shop": 3090,
  "credential": 3091,
  "conf.@@": 3092,
  "Required": 3093,
  "omitted": 3094,
  "ret.append": 3095,
  "various": 3096,
  "psz": 3097,
  "sa": 3098,
  "IPython": 3099,
  "stopped": 3100,
  "Basic": 3101,
  "menu": 3102,
  "`G`": 3103,
  "win32": 3104,
  "clusters": 3105,
  "endpoints": 3106,
  "fft": 3107,
  "endog": 3108,
  "singular": 3109,
  "discrete": 3110,
  "No@@": 3111,
  "resolver": 3112,
  "Location": 3113,
  "doing": 3114,
  "expired": 3115,
  "previously": 3116,
  "nonzero": 3117,
  "verified": 3118,
  "hold": 3119,
  "listing": 3120,
  "So": 3121,
  "uninstall": 3122,
  "manual": 3123,
  "1.5": 3124,
  "X.shape": 3125,
  "cr": 3126,
  "removing": 3127,
  "fact": 3128,
  "definitions": 3129,
  "Optionally": 3130,
  "void": 3131,
  "der": 3132,
  ".is": 3133,
  "overlap": 3134,
  "inp": 3135,
  "pr": 3136,
  "instructor": 3137,
  "num@@": 3138,
  "Valid": 3139,
  "2-tuple": 3140,
  "collections": 3141,
  "treated": 3142,
  "Bucket": 3143,
  "span": 3144,
  "subdir": 3145,
  "impl": 3146,
  "TemplateSyntaxError": 3147,
  "assumes": 3148,
  "IN": 3149,
  "offsets": 3150,
  "LENGTH": 3151,
  "&apos;Split": 3152,
  "tcp": 3153,
  "redis": 3154,
  "Document": 3155,
  "restApiId": 3156,
  "structuring": 3157,
  "applications": 3158,
  "odd": 3159,
  "signing": 3160,
  "transformed": 3161,
  "ly": 3162,
  "callbacks": 3163,
  ".first": 3164,
  "jinja": 3165,
  "Directory": 3166,
  "workers": 3167,
  "Do": 3168,
  "manager.@@": 3169,
  "DE": 3170,
  "kargs": 3171,
  "G.": 3172,
  "stat.S": 3173,
  "milestone": 3174,
  "Hello": 3175,
  "&apos;Use": 3176,
  "os.getcwd": 3177,
  "Method": 3178,
  "symlinks": 3179,
  "room": 3180,
  "accuracy": 3181,
  "publish": 3182,
  "re-@@": 3183,
  "globs": 3184,
  "c1": 3185,
  "turn": 3186,
  "assets": 3187,
  "linux": 3188,
  "rhs": 3189,
  "pidfile": 3190,
  "activate": 3191,
  "Item": 3192,
  "``&apos;": 3193,
  "polynomials": 3194,
  "converter": 3195,
  "orders": 3196,
  "subscriptions": 3197,
  "ar@@": 3198,
  "ad": 3199,
  "person": 3200,
  "ISO": 3201,
  "123": 3202,
  "ipython": 3203,
  "sympy.polys": 3204,
  "bridge": 3205,
  "aware": 3206,
  "NULL": 3207,
  "Format": 3208,
  "generating": 3209,
  "crypto": 3210,
  "microseconds": 3211,
  "becomes": 3212,
  "belongs": 3213,
  "allocated": 3214,
  "Create@@": 3215,
  "cuda": 3216,
  "MAP": 3217,
  "compress": 3218,
  "alert": 3219,
  "&apos;Construct": 3220,
  "barcode": 3221,
  "printed": 3222,
  "st@@": 3223,
  "np.empty": 3224,
  "dotted": 3225,
  "larger": 3226,
  "&apos;C@@": 3227,
  "infile": 3228,
  "computes": 3229,
  "&apos;Wrapper": 3230,
  "live": 3231,
  "allocation": 3232,
  "normalization": 3233,
  "Code": 3234,
  "gs": 3235,
  "softmax": 3236,
  "descriptors": 3237,
  "epochs": 3238,
  "slave": 3239,
  "four": 3240,
  "avg": 3241,
  "throw": 3242,
  "embedded": 3243,
  "name.lower": 3244,
  "sensor": 3245,
  "passes": 3246,
  "silently": 3247,
  "td": 3248,
  "stmt": 3249,
  "nx.@@": 3250,
  "finished": 3251,
  "Http404": 3252,
  "pipe": 3253,
  "os.sep": 3254,
  "subtype": 3255,
  "crop": 3256,
  "s.replace": 3257,
  ".write": 3258,
  "specifier": 3259,
  "forms": 3260,
  "Session": 3261,
  "locales": 3262,
  "duplicate": 3263,
  "middleware": 3264,
  "tabs": 3265,
  "making": 3266,
  "capacity": 3267,
  "atomic": 3268,
  "defaultdict": 3269,
  "-o": 3270,
  "15@@": 3271,
  "authenticate": 3272,
  "rr": 3273,
  "basedir": 3274,
  "clients": 3275,
  "subscription": 3276,
  "deferred": 3277,
  "logits": 3278,
  "dec": 3279,
  "Run": 3280,
  "Repository": 3281,
  "sys.stderr.write": 3282,
  "largest": 3283,
  "challenge": 3284,
  "en@@": 3285,
  "copy.deepcopy": 3286,
  "18@@": 3287,
  "similarity": 3288,
  "manifest": 3289,
  "criteria": 3290,
  "accessed": 3291,
  "ul": 3292,
  "Address": 3293,
  "subjects": 3294,
  "secs": 3295,
  "listen": 3296,
  "posix": 3297,
  "Element": 3298,
  "indentation": 3299,
  "Invalid@@": 3300,
  "`False`": 3301,
  ".rstrip": 3302,
  "adjust": 3303,
  "handles": 3304,
  "underlying": 3305,
  "&apos;Apply": 3306,
  "21": 3307,
  "s.add": 3308,
  "Test@@": 3309,
  "Your": 3310,
  "bindings": 3311,
  "sel": 3312,
  "located": 3313,
  "patches": 3314,
  "os.path.normpath": 3315,
  "concat": 3316,
  "vif": 3317,
  "grouped": 3318,
  "Check@@": 3319,
  "tested": 3320,
  "unchanged": 3321,
  "who": 3322,
  "failures": 3323,
  "probably": 3324,
  "codec": 3325,
  ".reshape": 3326,
  "writeOutput": 3327,
  "encoder": 3328,
  "rollback": 3329,
  "baz": 3330,
  "uppercase": 3331,
  "matcher": 3332,
  "accounts": 3333,
  "Read": 3334,
  "logging.debug": 3335,
  "np.log": 3336,
  "consumer": 3337,
  "make@@": 3338,
  "readline": 3339,
  "systemd": 3340,
  "cover": 3341,
  "decrypt": 3342,
  "debugging": 3343,
  "l2": 3344,
  "dumps": 3345,
  "l1": 3346,
  "interpreted": 3347,
  "platforms": 3348,
  "Length": 3349,
  "hub": 3350,
  "inserted": 3351,
  "writes": 3352,
  "unexpected": 3353,
  "Base@@": 3354,
  "Description": 3355,
  "bg": 3356,
  "-c": 3357,
  "lb": 3358,
  "ab": 3359,
  "register.tag": 3360,
  "hashed": 3361,
  "14@@": 3362,
  "further": 3363,
  "correspond": 3364,
  "Specify": 3365,
  "notifications": 3366,
  "won": 3367,
  "derived": 3368,
  "identical": 3369,
  "hierarchy": 3370,
  "bool&apos;": 3371,
  "Maximum": 3372,
  "plaintext": 3373,
  "endian": 3374,
  "verbosity": 3375,
  "artifact": 3376,
  "looking": 3377,
  "reshape": 3378,
  "keepdims": 3379,
  "parser.parse": 3380,
  "occurs": 3381,
  "continuous": 3382,
  "retrieved": 3383,
  "middle": 3384,
  "30@@": 3385,
  "25@@": 3386,
  "locked": 3387,
  "Library": 3388,
  "rsa": 3389,
  "button": 3390,
  "Query": 3391,
  "avail": 3392,
  "Sequence": 3393,
  "consider": 3394,
  "expects": 3395,
  "&apos;Verify": 3396,
  "checkout": 3397,
  "np.pi": 3398,
  "cancel": 3399,
  "PORT": 3400,
  "ed@@": 3401,
  "J": 3402,
  "osquery": 3403,
  "options.@@": 3404,
  "redirects": 3405,
  "&apos;Retrieves": 3406,
  "1`": 3407,
  "E.g.": 3408,
  "cliques": 3409,
  "&apos;Tests": 3410,
  "sym": 3411,
  "NumPy": 3412,
  "LOG": 3413,
  "invoked": 3414,
  "compared": 3415,
  "strong": 3416,
  "desktop": 3417,
  "releases": 3418,
  "multi@@": 3419,
  "did": 3420,
  "randomly": 3421,
  "constraints": 3422,
  "4.@@": 3423,
  "hg": 3424,
  "af": 3425,
  "seek": 3426,
  "ff": 3427,
  "percentage": 3428,
  "circuit": 3429,
  "uint8": 3430,
  "plan": 3431,
  "inclusion": 3432,
  "schedule": 3433,
  "nova": 3434,
  "str@@": 3435,
  "Argument": 3436,
  "64@@": 3437,
  "suggestion": 3438,
  "rho": 3439,
  "ma": 3440,
  "deep": 3441,
  ".id": 3442,
  "CPU": 3443,
  "Command": 3444,
  "sensitive": 3445,
  "repeated": 3446,
  "&apos;Function": 3447,
  "Source": 3448,
  "Column": 3449,
  "RE@@": 3450,
  "logic": 3451,
  "cmdline": 3452,
  "marked": 3453,
  "likely": 3454,
  "corrected": 3455,
  "curve": 3456,
  "LooseVersion": 3457,
  "evoked": 3458,
  "vol": 3459,
  "CRUD": 3460,
  "parser.@@": 3461,
  "numobj": 3462,
  "Mul": 3463,
  "responses": 3464,
  "spam": 3465,
  "WARNING": 3466,
  "ws": 3467,
  "why": 3468,
  "Cache": 3469,
  "do@@": 3470,
  "26": 3471,
  "path.split": 3472,
  "monomial": 3473,
  "alternate": 3474,
  "fieldname": 3475,
  "trying": 3476,
  "tolerance": 3477,
  "cb": 3478,
  "traceback.format": 3479,
  "urlparse": 3480,
  "implement": 3481,
  "respect": 3482,
  "closest": 3483,
  "markup": 3484,
  "m2": 3485,
  "non-zero": 3486,
  "si@@": 3487,
  "composite": 3488,
  "li@@": 3489,
  "pkey": 3490,
  "17@@": 3491,
  "Form": 3492,
  "stage": 3493,
  "y0": 3494,
  "&apos;Like": 3495,
  "res.@@": 3496,
  "Does": 3497,
  "PID": 3498,
  "sanitize": 3499,
  "response.@@": 3500,
  "conn.get": 3501,
  "listener": 3502,
  "kinds": 3503,
  "gzip": 3504,
  "tarball": 3505,
  "questions": 3506,
  "Dataset": 3507,
  "WRITEME": 3508,
  "hint": 3509,
  "Event": 3510,
  "alignment": 3511,
  "di@@": 3512,
  "markers": 3513,
  "stuff": 3514,
  "obtained": 3515,
  "Order": 3516,
  "sending": 3517,
  "thumbnail": 3518,
  ".copy": 3519,
  "x-@@": 3520,
  "event.@@": 3521,
  "That": 3522,
  "prepend": 3523,
  "&apos;Replace": 3524,
  "v.@@": 3525,
  "TYPES": 3526,
  "image.@@": 3527,
  "jar": 3528,
  "corresponds": 3529,
  "s.extend": 3530,
  "duplicates": 3531,
  "statuses": 3532,
  "queues": 3533,
  "whitelist": 3534,
  "bipartite": 3535,
  "S3": 3536,
  "Then": 3537,
  "TIMEOUT": 3538,
  "builds": 3539,
  "min@@": 3540,
  "places": 3541,
  "wsgi": 3542,
  "ad@@": 3543,
  "denom": 3544,
  "0.2": 3545,
  "picks": 3546,
  "1D": 3547,
  "unix": 3548,
  "generates": 3549,
  "acceptable": 3550,
  "&apos;Change": 3551,
  "18": 3552,
  "List@@": 3553,
  "meter": 3554,
  "ticket": 3555,
  "urlencode": 3556,
  "np.newaxis": 3557,
  "Found": 3558,
  "phone": 3559,
  "annotation": 3560,
  "builtins": 3561,
  "Host": 3562,
  "opener": 3563,
  "better": 3564,
  "upon": 3565,
  "numpy.array": 3566,
  "23": 3567,
  ".endswith": 3568,
  "CODE": 3569,
  "MediaPlayer": 3570,
  "symlink": 3571,
  "resolved": 3572,
  "&apos;Makes": 3573,
  "den": 3574,
  "t-@@": 3575,
  "request.GET.get": 3576,
  "&apos;Show": 3577,
  "simplify": 3578,
  "streams": 3579,
  "agg": 3580,
  "chroot": 3581,
  "grafana": 3582,
  "exam": 3583,
  "slash": 3584,
  "name.split": 3585,
  "Image@@": 3586,
  "rating": 3587,
  "decoder": 3588,
  "rights": 3589,
  "ep": 3590,
  "abstract": 3591,
  "base.@@": 3592,
  "m-": 3593,
  "preprocess": 3594,
  "Tag": 3595,
  "Storage": 3596,
  "formula": 3597,
  "grads": 3598,
  "32@@": 3599,
  "US": 3600,
  "multiplier": 3601,
  "objects.@@": 3602,
  "`a`": 3603,
  "apiproxy": 3604,
  "i.@@": 3605,
  "end@@": 3606,
  "gain": 3607,
  "&apos;Sends": 3608,
  "Resource": 3609,
  "logging.error": 3610,
  "feedback": 3611,
  "user.id": 3612,
  "referenced": 3613,
  "unsigned": 3614,
  "buff": 3615,
  "carrier": 3616,
  "amp": 3617,
  "todo": 3618,
  "zones": 3619,
  "&apos;Take": 3620,
  "interpolation": 3621,
  "HTTPError": 3622,
  "OR": 3623,
  "dct": 3624,
  "coerce": 3625,
  "functionality": 3626,
  "taking": 3627,
  "DELETE": 3628,
  "centrality": 3629,
  "t&apos;": 3630,
  "identify": 3631,
  "acc": 3632,
  "inds": 3633,
  "appears": 3634,
  "ip@@": 3635,
  "keyed": 3636,
  "decoding": 3637,
  "nice": 3638,
  "DEBUG": 3639,
  "deadline": 3640,
  "modulestore": 3641,
  "lib@@": 3642,
  "Decimal": 3643,
  "computation": 3644,
  "2000": 3645,
  "objects.get": 3646,
  "Using": 3647,
  "commits": 3648,
  "mutable": 3649,
  "``K": 3650,
  "arg@@": 3651,
  "exception.@@": 3652,
  "leave": 3653,
  "PIPE": 3654,
  "minus": 3655,
  "older": 3656,
  "&apos;Runs": 3657,
  "logout": 3658,
  "randfunc": 3659,
  ".digest": 3660,
  "multipart": 3661,
  "&apos;Start": 3662,
  "probabilities": 3663,
  "bytestring": 3664,
  "week": 3665,
  "EMAIL": 3666,
  "intervals": 3667,
  "integral": 3668,
  "Profile": 3669,
  "applies": 3670,
  "github": 3671,
  "vector3": 3672,
  "int32": 3673,
  "vocab": 3674,
  "shown": 3675,
  ".as": 3676,
  "opening": 3677,
  "darwin": 3678,
  "stable": 3679,
  "AUTH": 3680,
  "cont": 3681,
  "im@@": 3682,
  "programs": 3683,
  "pwd": 3684,
  "May": 3685,
  "f1": 3686,
  "session.@@": 3687,
  "sympy.polys.domains": 3688,
  "accessing": 3689,
  "catch": 3690,
  "metaclass": 3691,
  "le@@": 3692,
  "implements": 3693,
  "manually": 3694,
  "msg.format": 3695,
  "boto.exception.BotoServerError": 3696,
  "geometryOutput": 3697,
  "transformation": 3698,
  "INET": 3699,
  "generators": 3700,
  "&apos;Install": 3701,
  "path@@": 3702,
  "namespaces": 3703,
  "1.1": 3704,
  "&apos;RESTful": 3705,
  "ent": 3706,
  "RSA": 3707,
  "separators": 3708,
  "setter": 3709,
  "Parameter": 3710,
  "ge@@": 3711,
  "resolution": 3712,
  "raising": 3713,
  "a1": 3714,
  "vtor.check": 3715,
  "Since": 3716,
  "gate": 3717,
  "Action": 3718,
  "run@@": 3719,
  "300": 3720,
  "entry.@@": 3721,
  "addition": 3722,
  "convenience": 3723,
  "calendar": 3724,
  "FILETYPE": 3725,
  "field.@@": 3726,
  "syslog": 3727,
  "setuptools": 3728,
  "c2": 3729,
  "pp": 3730,
  "ddof": 3731,
  "mpl": 3732,
  "time@@": 3733,
  "Y-": 3734,
  "y2": 3735,
  "permanent": 3736,
  "play": 3737,
  "sp@@": 3738,
  "bb": 3739,
  "increment": 3740,
  "unsupported": 3741,
  "Gaussian": 3742,
  "index.@@": 3743,
  "infer": 3744,
  "dy": 3745,
  "0.9": 3746,
  "importer": 3747,
  "finish": 3748,
  "smallest": 3749,
  "leaves": 3750,
  "really": 3751,
  "MB": 3752,
  ".value": 3753,
  "hashes": 3754,
  "ation@@": 3755,
  "10.@@": 3756,
  "salt.utils.mac": 3757,
  "REQUEST": 3758,
  "l.@@": 3759,
  "sd": 3760,
  "ac@@": 3761,
  "Create": 3762,
  "though": 3763,
  "orientation": 3764,
  "util": 3765,
  "routes": 3766,
  "hit": 3767,
  "f2": 3768,
  "decay": 3769,
  "invoke": 3770,
  "s.keys": 3771,
  "ask": 3772,
  "sampling": 3773,
  "WHERE": 3774,
  "Get": 3775,
  "linked": 3776,
  "SSH": 3777,
  "UnicodeDecodeError": 3778,
  "MySQL": 3779,
  "TCP": 3780,
  "XDG": 3781,
  "le": 3782,
  "care": 3783,
  "group@@": 3784,
  "faces": 3785,
  "args.append": 3786,
  "trail": 3787,
  "dom": 3788,
  "random.randint": 3789,
  "validators": 3790,
  "read@@": 3791,
  "DOMAIN": 3792,
  "reads": 3793,
  "3D": 3794,
  "encountered": 3795,
  "validated": 3796,
  "abspath": 3797,
  "Property": 3798,
  "&apos;Determines": 3799,
  "profiler": 3800,
  "lc": 3801,
  "salt.utils.boto3.get": 3802,
  "se": 3803,
  "traffic": 3804,
  "xx": 3805,
  "Here": 3806,
  "flocker": 3807,
  "counters": 3808,
  "keyfile": 3809,
  "subsequent": 3810,
  "State": 3811,
  "scaled": 3812,
  "keyname": 3813,
  "2.5": 3814,
  "subtitles": 3815,
  "View": 3816,
  "trust": 3817,
  "Handle": 3818,
  "Filename": 3819,
  "db@@": 3820,
  "function&apos;": 3821,
  "11@@": 3822,
  "tr": 3823,
  "auto@@": 3824,
  "chunksize": 3825,
  "path.startswith": 3826,
  "operators": 3827,
  "file.write": 3828,
  "types.@@": 3829,
  "rem": 3830,
  "memoize": 3831,
  "v3": 3832,
  "linkage": 3833,
  "dpi": 3834,
  "De@@": 3835,
  "np.float64": 3836,
  "notebook": 3837,
  "For@@": 3838,
  "np.concatenate": 3839,
  "Missing": 3840,
  "boto3": 3841,
  "Sample": 3842,
  "permutation": 3843,
  "&apos;Execute": 3844,
  "alt": 3845,
  "stats.@@": 3846,
  "hard": 3847,
  "portion": 3848,
  "periodic": 3849,
  "broken": 3850,
  "nbits": 3851,
  "geometry": 3852,
  "faster": 3853,
  "``dict``": 3854,
  "lo": 3855,
  "astropy": 3856,
  "cmd.extend": 3857,
  "multivariate": 3858,
  "identified": 3859,
  "deploy": 3860,
  "0x@@": 3861,
  "black": 3862,
  "serve": 3863,
  "analysis": 3864,
  "BASE": 3865,
  "happen": 3866,
  "40@@": 3867,
  "Process": 3868,
  "naive": 3869,
  "Fraction": 3870,
  "logfile": 3871,
  "logging.getLogger": 3872,
  "results.append": 3873,
  "esxi": 3874,
  "HOST": 3875,
  "critical": 3876,
  "sympify": 3877,
  "chan": 3878,
  "5&apos;": 3879,
  "milestones": 3880,
  "Sub@@": 3881,
  "excludes": 3882,
  "autoescape": 3883,
  "Task": 3884,
  "bears": 3885,
  "gen@@": 3886,
  "periods": 3887,
  "performs": 3888,
  "Add@@": 3889,
  "comma-separated": 3890,
  "path.@@": 3891,
  ".get@@": 3892,
  "的@@": 3893,
  "Filter": 3894,
  "&apos;Loads": 3895,
  "bem": 3896,
  "doc@@": 3897,
  "Is@@": 3898,
  "s.": 3899,
  "it@@": 3900,
  "zabbix": 3901,
  "Point": 3902,
  "man": 3903,
  "errno": 3904,
  ".html": 3905,
  "notation": 3906,
  "dhcp": 3907,
  "startup": 3908,
  "ti@@": 3909,
  "unescape": 3910,
  "n.@@": 3911,
  "endswith": 3912,
  "denominator": 3913,
  "exponent": 3914,
  "circular": 3915,
  "Loader": 3916,
  "CSV": 3917,
  "19": 3918,
  "&apos;Simple": 3919,
  "-r": 3920,
  "SEED": 3921,
  "message.@@": 3922,
  "bigip": 3923,
  "pprint": 3924,
  "local@@": 3925,
  "lon": 3926,
  "Failure": 3927,
  "Start": 3928,
  "nn": 3929,
  "audit": 3930,
  "pl": 3931,
  "-x": 3932,
  "xyz": 3933,
  "`numpy.ndarray`": 3934,
  "pts": 3935,
  "canvas": 3936,
  "tax": 3937,
  "purge": 3938,
  "pkg.list": 3939,
  "script.pip": 3940,
  "aspect": 3941,
  "mysql": 3942,
  "Full": 3943,
  "python-@@": 3944,
  "i18n": 3945,
  "Not@@": 3946,
  "others": 3947,
  "increasing": 3948,
  "cdf": 3949,
  "cachedir": 3950,
  "neighborhood": 3951,
  "&apos;Require": 3952,
  "activities": 3953,
  "suppress": 3954,
  "spatial": 3955,
  "distributions": 3956,
  "titles": 3957,
  "embed": 3958,
  "From": 3959,
  "temperature": 3960,
  "rst": 3961,
  "frozenset": 3962,
  "quadratic": 3963,
  "percentile": 3964,
  "pointIndex": 3965,
  "stores": 3966,
  "transpose": 3967,
  "finds": 3968,
  "Container": 3969,
  "sqlite": 3970,
  "guid": 3971,
  "quantity": 3972,
  "green": 3973,
  "f.name": 3974,
  "students": 3975,
  "hypothesis": 3976,
  "ers": 3977,
  "J.": 3978,
  "&apos;Copy": 3979,
  "wheel": 3980,
  "grammar": 3981,
  "SystemExit": 3982,
  "memcache": 3983,
  "postfix": 3984,
  "mixed": 3985,
  "normally": 3986,
  "effective": 3987,
  "contextlib.contextmanager": 3988,
  "Settings": 3989,
  "ob": 3990,
  "divmod": 3991,
  "unable": 3992,
  "int64": 3993,
  "dirnames": 3994,
  "shutil.rmtree": 3995,
  "bot": 3996,
  "FIELD": 3997,
  "Key@@": 3998,
  "&apos;Deletes": 3999,
  "`x": 4000,
  "dir@@": 4001,
  "DoesNotExist": 4002,
  "d&apos;": 4003,
  "token.@@": 4004,
  "u.@@": 4005,
  "m1": 4006,
  "bs": 4007,
  "Additional": 4008,
  "demo": 4009,
  "&apos;Encode": 4010,
  "r1": 4011,
  "skeinforge": 4012,
  "numerical": 4013,
  "searched": 4014,
  "conda": 4015,
  "at@@": 4016,
  "computing": 4017,
  "nlags": 4018,
  "eta": 4019,
  "Poly": 4020,
  "important": 4021,
  "preference": 4022,
  "Date": 4023,
  "Token": 4024,
  "paste": 4025,
  "replay": 4026,
  "fabtools": 4027,
  "ie": 4028,
  "Popen": 4029,
  "LANGUAGE": 4030,
  "infos": 4031,
  "Engine": 4032,
  "floor": 4033,
  "sigmoid": 4034,
  "root.@@": 4035,
  "declaration": 4036,
  "el@@": 4037,
  "occurred": 4038,
  "Raise": 4039,
  "moved": 4040,
  "primer": 4041,
  "summaries": 4042,
  "prefixed": 4043,
  "salt.utils.which": 4044,
  "REST": 4045,
  "ab@@": 4046,
  "query.@@": 4047,
  "SERVICE": 4048,
  "splits": 4049,
  "Search": 4050,
  "&apos;Utility": 4051,
  "host@@": 4052,
  "&apos;Recursively": 4053,
  "tf.@@": 4054,
  "little": 4055,
  "cls.@@": 4056,
  "am": 4057,
  "y-@@": 4058,
  "colormap": 4059,
  "Call": 4060,
  "allclose": 4061,
  "2-@@": 4062,
  "shuffle": 4063,
  "os.access": 4064,
  "ex@@": 4065,
  "`f": 4066,
  "&apos;get": 4067,
  "RND": 4068,
  "5.@@": 4069,
  "rendering": 4070,
  "super": 4071,
  "writable": 4072,
  "kept": 4073,
  "behave": 4074,
  "1``": 4075,
  "With": 4076,
  "PUT": 4077,
  "privileges": 4078,
  "l10n": 4079,
  "Other": 4080,
  "app@@": 4081,
  "underscore": 4082,
  "o.@@": 4083,
  "create@@": 4084,
  "ins": 4085,
  "&apos;Call": 4086,
  "q.@@": 4087,
  "discard": 4088,
  "Iterable": 4089,
  "removal": 4090,
  "visit": 4091,
  "moving": 4092,
  "log.@@": 4093,
  "Callback": 4094,
  "cores": 4095,
  "Some": 4096,
  "purposes": 4097,
  "chapter": 4098,
  "How": 4099,
  "delim": 4100,
  "urlopen": 4101,
  "proxies": 4102,
  "Axis": 4103,
  "vt": 4104,
  "s.pop": 4105,
  "handled": 4106,
  "22@@": 4107,
  "iterables": 4108,
  "principal": 4109,
  "non@@": 4110,
  "expansion": 4111,
  "scheduler": 4112,
  "distributed": 4113,
  "frozen": 4114,
  "pci": 4115,
  "reqs": 4116,
  "name@@": 4117,
  "col@@": 4118,
  "tp": 4119,
  "Database": 4120,
  "spline": 4121,
  "pw": 4122,
  "customer": 4123,
  "swift": 4124,
  "n2": 4125,
  "pooling": 4126,
  "iterate": 4127,
  "sites": 4128,
  "Consul": 4129,
  "np.all": 4130,
  "89@@": 4131,
  "reps": 4132,
  "surface": 4133,
  "foreign": 4134,
  "Name@@": 4135,
  "keystone": 4136,
  "ensures": 4137,
  "expressed": 4138,
  "objects.filter": 4139,
  "re.split": 4140,
  "inference": 4141,
  "sockets": 4142,
  "service.@@": 4143,
  "&apos;Process": 4144,
  "67@@": 4145,
  "&apos;When": 4146,
  "trunc": 4147,
  "th@@": 4148,
  "adjusted": 4149,
  "production": 4150,
  "Remove": 4151,
  "req.@@": 4152,
  "protected": 4153,
  "sys.stdout.write": 4154,
  "datetime.date": 4155,
  "query.filter": 4156,
  "aren": 4157,
  "locate": 4158,
  "DE.t": 4159,
  "me@@": 4160,
  "fitness": 4161,
  "debugger": 4162,
  "command-line": 4163,
  "System": 4164,
  "path&apos;": 4165,
  "sp": 4166,
  "np.linspace": 4167,
  "all@@": 4168,
  "hdr": 4169,
  "dbname": 4170,
  "occur": 4171,
  "superuser": 4172,
  "sdm": 4173,
  "info.get": 4174,
  "foobar": 4175,
  "name`": 4176,
  "published": 4177,
  "bytearray": 4178,
  "&apos;Convenience": 4179,
  "subdomain": 4180,
  "vote": 4181,
  "OAuth": 4182,
  "6.@@": 4183,
  "Factory": 4184,
  ".pop": 4185,
  "36": 4186,
  "user@@": 4187,
  "gap": 4188,
  "Reader": 4189,
  "corpus": 4190,
  "p0": 4191,
  "neither": 4192,
  "chart": 4193,
  "Files": 4194,
  "uploaded": 4195,
  "disks": 4196,
  "committer": 4197,
  "24@@": 4198,
  "dd": 4199,
  "RPC": 4200,
  "newer": 4201,
  "Tests": 4202,
  "gui": 4203,
  "linode": 4204,
  "mm": 4205,
  "energy": 4206,
  "name.endswith": 4207,
  "ted": 4208,
  "atol": 4209,
  "framework": 4210,
  "d-@@": 4211,
  "weak": 4212,
  "buckets": 4213,
  "lib.@@": 4214,
  "architecture": 4215,
  "`name`": 4216,
  "pt": 4217,
  "&apos;Un@@": 4218,
  "ro@@": 4219,
  "403": 4220,
  "ast": 4221,
  "h.@@": 4222,
  "friendly": 4223,
  "inet": 4224,
  "``.": 4225,
  "PIL": 4226,
  "wire": 4227,
  "stackoverflow.com": 4228,
  "t`": 4229,
  "subprocess.check": 4230,
  "lexer": 4231,
  "Keys": 4232,
  "panel": 4233,
  "3d": 4234,
  "authority": 4235,
  "Takes": 4236,
  "NS": 4237,
  "broadcastable": 4238,
  "os.chdir": 4239,
  "light": 4240,
  "rewrite": 4241,
  "name``": 4242,
  "ans": 4243,
  "repl": 4244,
  "HEADER": 4245,
  "nick": 4246,
  "pe": 4247,
  "dependent": 4248,
  "tell": 4249,
  "cron": 4250,
  ".pyc": 4251,
  "addons": 4252,
  "mro": 4253,
  "gaussian": 4254,
  "svc": 4255,
  "atom": 4256,
  "-4": 4257,
  "Data@@": 4258,
  "coverage": 4259,
  "ctx.@@": 4260,
  "e.errno": 4261,
  "ind1": 4262,
  "ind2": 4263,
  "workflow": 4264,
  "oo": 4265,
  "timestamps": 4266,
  "key.@@": 4267,
  "rational": 4268,
  "lines.append": 4269,
  "sides": 4270,
  "national": 4271,
  "socket.error": 4272,
  "ENCODING": 4273,
  "App": 4274,
  "Reference": 4275,
  "10000": 4276,
  "software": 4277,
  "blocksize": 4278,
  "blue": 4279,
  "topology": 4280,
  "enforce": 4281,
  "predict": 4282,
  "produces": 4283,
  "name.replace": 4284,
  "0.01": 4285,
  "Media": 4286,
  "row@@": 4287,
  "Attribute": 4288,
  "convolution": 4289,
  "colon": 4290,
  "consistent": 4291,
  "pd.DataFrame": 4292,
  "90": 4293,
  "cql": 4294,
  "Support": 4295,
  "url@@": 4296,
  "SCRIPT": 4297,
  "Feed": 4298,
  "&apos;Save": 4299,
  "line@@": 4300,
  "indptr": 4301,
  "ceph": 4302,
  "et": 4303,
  "detailed": 4304,
  "reduction": 4305,
  "determines": 4306,
  "END": 4307,
  "mlp": 4308,
  "non-negative": 4309,
  "associate": 4310,
  "INET6": 4311,
  "prints": 4312,
  "daemon": 4313,
  "JsonResponse": 4314,
  "singleton": 4315,
  "finding": 4316,
  "ping": 4317,
  "blog": 4318,
  "At": 4319,
  "USE": 4320,
  "val@@": 4321,
  "op@@": 4322,
  "from@@": 4323,
  "Interface": 4324,
  "s.update": 4325,
  "notes": 4326,
  "s-": 4327,
  "tf": 4328,
  "operating": 4329,
  "find@@": 4330,
  "vlan": 4331,
  "preview": 4332,
  "Setting": 4333,
  "mathbf": 4334,
  "peer": 4335,
  "logger.log": 4336,
  "&apos;Same": 4337,
  "iv": 4338,
  "sh@@": 4339,
  "180": 4340,
  "After": 4341,
  "&apos;Render": 4342,
  "threading": 4343,
  "connecting": 4344,
  "value&apos;": 4345,
  "pytest.mark.parametrize": 4346,
  "base@@": 4347,
  "monom": 4348,
  "Collection": 4349,
  "patched": 4350,
  "rounded": 4351,
  "SQLAlchemy": 4352,
  "&apos;Stop": 4353,
  "63": 4354,
  "hits": 4355,
  "javascript": 4356,
  ".all": 4357,
  "connectivity": 4358,
  "omega": 4359,
  "categorical": 4360,
  "styles": 4361,
  "Port": 4362,
  "TestCase": 4363,
  "RequestContext": 4364,
  "traverse": 4365,
  "shard": 4366,
  "classifier": 4367,
  "Local": 4368,
  "Queue": 4369,
  "easy": 4370,
  "1.2": 4371,
  "old@@": 4372,
  "t.get": 4373,
  "xmodule": 4374,
  "quo": 4375,
  "`str`": 4376,
  "ations": 4377,
  "transparent": 4378,
  "newly": 4379,
  "differences": 4380,
  "otherwise&apos;": 4381,
  "37@@": 4382,
  "backwards": 4383,
  "True``": 4384,
  "&apos;Calculates": 4385,
  "CA": 4386,
  "protobuf": 4387,
  "providing": 4388,
  "frappe.get": 4389,
  "zoom": 4390,
  "environ.get": 4391,
  "assuming": 4392,
  "inherit": 4393,
  "Extra": 4394,
  "truth": 4395,
  "approximation": 4396,
  "intercept": 4397,
  "Mapping": 4398,
  "dists": 4399,
  "lxc": 4400,
  "po@@": 4401,
  "os.path.sep": 4402,
  "monkeypatch": 4403,
  "Type@@": 4404,
  "MIME": 4405,
  "errback": 4406,
  "prog": 4407,
  "&apos;Builds": 4408,
  "Expr": 4409,
  "monic": 4410,
  "Build@@": 4411,
  "tensor.@@": 4412,
  "ini": 4413,
  "pval": 4414,
  "ec": 4415,
  "PAGE": 4416,
  "&apos;Updates": 4417,
  "MD5": 4418,
  "&apos;returns": 4419,
  "confidence": 4420,
  "highest": 4421,
  "cfg.@@": 4422,
  "keyspace": 4423,
  "output@@": 4424,
  "membership": 4425,
  "na": 4426,
  "sense": 4427,
  "&apos;P@@": 4428,
  "footer": 4429,
  "comes": 4430,
  "signals": 4431,
  "requesting": 4432,
  "spectral": 4433,
  "collapse": 4434,
  "rtol": 4435,
  "input@@": 4436,
  "multigraph": 4437,
  "gem": 4438,
  "funcname": 4439,
  "fg": 4440,
  "Network": 4441,
  "or@@": 4442,
  "had": 4443,
  "config.option": 4444,
  "T.@@": 4445,
  "con@@": 4446,
  "GLOBAL": 4447,
  "populate": 4448,
  "launch": 4449,
  "lin": 4450,
  "outcome": 4451,
  "however": 4452,
  "co": 4453,
  "Update": 4454,
  "-5": 4455,
  "re.findall": 4456,
  "Or": 4457,
  "80@@": 4458,
  "Make": 4459,
  "IN@@": 4460,
  "np.mean": 4461,
  "02d": 4462,
  "1234": 4463,
  "np.float32": 4464,
  "sqf": 4465,
  "ACL": 4466,
  "entrance": 4467,
  "fpath": 4468,
  "exchange": 4469,
  "env.@@": 4470,
  "pids": 4471,
  "numpy.ndarray": 4472,
  "h1": 4473,
  "New@@": 4474,
  "shortcut": 4475,
  "vendor": 4476,
  "Open@@": 4477,
  "cache.@@": 4478,
  "waiting": 4479,
  "x.ndim": 4480,
  "momentum": 4481,
  "restricted": 4482,
  "torrent": 4483,
  "STREAM": 4484,
  "os.path.isabs": 4485,
  "incorrect": 4486,
  "CONF.@@": 4487,
  "request.user.is": 4488,
  "My@@": 4489,
  "Log@@": 4490,
  "eeg": 4491,
  "spherical": 4492,
  "manage": 4493,
  "&apos;Transform": 4494,
  "TABLE": 4495,
  "-p": 4496,
  "datetime.now": 4497,
  "game": 4498,
  "&apos;Decode": 4499,
  "locator": 4500,
  "build@@": 4501,
  "eye": 4502,
  "disconnect": 4503,
  "int&apos;": 4504,
  "hat": 4505,
  "accessible": 4506,
  "99@@": 4507,
  "barcodes": 4508,
  "song": 4509,
  "supply": 4510,
  "STATUS": 4511,
  ".delete": 4512,
  "&apos;Assert": 4513,
  "prep": 4514,
  "Foo": 4515,
  "internally": 4516,
  "macro": 4517,
  "elapsed": 4518,
  "LibVLC": 4519,
  "ascending": 4520,
  "quadrature": 4521,
  "computer": 4522,
  "tf.reduce": 4523,
  "Build": 4524,
  "xff": 4525,
  "2016.11.0": 4526,
  "sm": 4527,
  "-d": 4528,
  "getitem": 4529,
  "mechanism": 4530,
  "ver@@": 4531,
  "APP": 4532,
  "virt": 4533,
  "code@@": 4534,
  "request.session": 4535,
  "user.is": 4536,
  "Device": 4537,
  "polys": 4538,
  "module&apos;": 4539,
  "node@@": 4540,
  "be@@": 4541,
  "nth": 4542,
  "corr": 4543,
  "tagged": 4544,
  "visited": 4545,
  "Mode": 4546,
  "openid": 4547,
  "e.args": 4548,
  "sha256": 4549,
  "closure": 4550,
  "Created": 4551,
  "`Tensor`": 4552,
  "drivers": 4553,
  "replaces": 4554,
  ".st": 4555,
  "S.@@": 4556,
  "nbytes": 4557,
  "xi": 4558,
  "msgs": 4559,
  "&apos;B@@": 4560,
  "machines": 4561,
  "ra@@": 4562,
  "obs": 4563,
  "produced": 4564,
  "pytest": 4565,
  "pricing": 4566,
  "escaping": 4567,
  "batches": 4568,
  "central": 4569,
  "boundaries": 4570,
  "mpstate": 4571,
  "connection.@@": 4572,
  "CSS": 4573,
  "holds": 4574,
  "ek": 4575,
  "google": 4576,
  "up@@": 4577,
  "dr": 4578,
  "slot": 4579,
  "App@@": 4580,
  "caching": 4581,
  "0.001": 4582,
  "trusted": 4583,
  "filtering": 4584,
  "click": 4585,
  "pb.@@": 4586,
  "&apos;Enable": 4587,
  "cgi": 4588,
  "third": 4589,
  "meant": 4590,
  "value2": 4591,
  ".find": 4592,
  "effects": 4593,
  "client.get": 4594,
  "interpreter": 4595,
  "TEMPLATE": 4596,
  "Thread": 4597,
  "win@@": 4598,
  "editable": 4599,
  "y&apos;": 4600,
  "idle": 4601,
  "reports": 4602,
  "Multiple": 4603,
  "branches": 4604,
  "dfs": 4605,
  "36@@": 4606,
  "allowing": 4607,
  "ROS": 4608,
  "web@@": 4609,
  "phi": 4610,
  "0000": 4611,
  "ks": 4612,
  ".data": 4613,
  "combinations": 4614,
  "iso": 4615,
  "request.path": 4616,
  "overridden": 4617,
  "e-@@": 4618,
  "nums": 4619,
  "vertex": 4620,
  "cf": 4621,
  ".match": 4622,
  "34@@": 4623,
  "tamper": 4624,
  "become": 4625,
  "file.read": 4626,
  "replacing": 4627,
  "ri@@": 4628,
  "With@@": 4629,
  "equalizer": 4630,
  "ne@@": 4631,
  "emit": 4632,
  "teardown": 4633,
  "constructed": 4634,
  "mid": 4635,
  "subplot": 4636,
  "ignoring": 4637,
  "ter": 4638,
  "5.0": 4639,
  "LookupError": 4640,
  "&apos;Formats": 4641,
  "BytesIO": 4642,
  "ratings": 4643,
  "&apos;De@@": 4644,
  "milliseconds": 4645,
  "&apos;Used": 4646,
  "`get": 4647,
  "baseline": 4648,
  "2`": 4649,
  "HttpResponseRedirect": 4650,
  "inactive": 4651,
  "serialization": 4652,
  "r2": 4653,
  "Channel": 4654,
  "answers": 4655,
  "xmin": 4656,
  "codename": 4657,
  "wish": 4658,
  "ating": 4659,
  "tablename": 4660,
  "yielded": 4661,
  "timer": 4662,
  "unavailable": 4663,
  "Server@@": 4664,
  "residual": 4665,
  "returner": 4666,
  "Wrapper": 4667,
  "&apos;T@@": 4668,
  "coil": 4669,
  "sc@@": 4670,
  "bypass": 4671,
  "prefs": 4672,
  "ates": 4673,
  "alive": 4674,
  "calc": 4675,
  "transformer": 4676,
  "uptime": 4677,
  "compose": 4678,
  "np.nan": 4679,
  "exceptions.@@": 4680,
  "PDF": 4681,
  "fileno": 4682,
  "200@@": 4683,
  "float64": 4684,
  "assertion": 4685,
  "29@@": 4686,
  "pivot": 4687,
  "regardless": 4688,
  "np.exp": 4689,
  "mobile": 4690,
  "forum": 4691,
  "LE": 4692,
  "unittest": 4693,
  "sc": 4694,
  "4&apos;": 4695,
  "rpm": 4696,
  "Fake@@": 4697,
  "open@@": 4698,
  "ci": 4699,
  "mkdir": 4700,
  "cy": 4701,
  "x1b": 4702,
  "&apos;s": 4703,
  "slugify": 4704,
  "exponential": 4705,
  "3600": 4706,
  "utils.execute": 4707,
  "tbl": 4708,
  "often": 4709,
  "displays": 4710,
  "45": 4711,
  "am@@": 4712,
  "VALID": 4713,
  "Users": 4714,
  "vertexes": 4715,
  "stubs": 4716,
  "Header": 4717,
  "Entry": 4718,
  "func.@@": 4719,
  "ing&apos;": 4720,
  "packets": 4721,
  "argspec": 4722,
  "RE.match": 4723,
  "divisions": 4724,
  "&apos;Turn": 4725,
  "node.op": 4726,
  "renamed": 4727,
  "4.0": 4728,
  "ting": 4729,
  "frequencies": 4730,
  "nm": 4731,
  "printer": 4732,
  "migrations": 4733,
  "0.05": 4734,
  "&apos;Initialize": 4735,
  "holding": 4736,
  "&apos;F@@": 4737,
  "ve": 4738,
  "iter@@": 4739,
  "substitution": 4740,
  "-like": 4741,
  "belong": 4742,
  "ary": 4743,
  "oid": 4744,
  "initialization": 4745,
  "&apos;Open": 4746,
  "-l": 4747,
  "Line": 4748,
  "Request@@": 4749,
  "&apos;Finds": 4750,
  "More": 4751,
  "AST": 4752,
  "querystring": 4753,
  "35": 4754,
  "addrs": 4755,
  "&apos;Reads": 4756,
  "naming": 4757,
  "blacklist": 4758,
  "mo@@": 4759,
  "iff": 4760,
  "heap": 4761,
  "mult": 4762,
  "multiline": 4763,
  "con": 4764,
  "``a``": 4765,
  "string.split": 4766,
  "defining": 4767,
  "28": 4768,
  "contrast": 4769,
  "executing": 4770,
  "page.@@": 4771,
  "thrift": 4772,
  "87@@": 4773,
  "check@@": 4774,
  "Paths": 4775,
  "responder": 4776,
  "phrase": 4777,
  "SESSION": 4778,
  "os.getenv": 4779,
  "task.@@": 4780,
  "pathlist": 4781,
  "list@@": 4782,
  "ajax": 4783,
  "Password": 4784,
  "hashlib.md5": 4785,
  "IS": 4786,
  "etree": 4787,
  "mounted": 4788,
  "lease": 4789,
  "tile": 4790,
  "Volume": 4791,
  "instrument": 4792,
  "significant": 4793,
  "Available": 4794,
  "publishers": 4795,
  "colorize": 4796,
  "thresh": 4797,
  "GPU": 4798,
  "&apos;Wrap": 4799,
  "dig": 4800,
  "Range": 4801,
  "earlier": 4802,
  "ref@@": 4803,
  "recording": 4804,
  "venv": 4805,
  "tempdir": 4806,
  "match@@": 4807,
  "fragments": 4808,
  "55@@": 4809,
  "ctype": 4810,
  "source@@": 4811,
  "ce@@": 4812,
  "s.values": 4813,
  "vertical": 4814,
  "27": 4815,
  "mb": 4816,
  "token.split": 4817,
  "sg": 4818,
  "pv": 4819,
  "advanced": 4820,
  "ESXi": 4821,
  "httpd": 4822,
  "Target": 4823,
  "survey": 4824,
  "rgba": 4825,
  "lam": 4826,
  "triangle": 4827,
  "Bad": 4828,
  "reraise": 4829,
  "offline": 4830,
  "ec@@": 4831,
  "rotate": 4832,
  "freedom": 4833,
  "suffixes": 4834,
  "celery": 4835,
  "PRIVATE": 4836,
  "format@@": 4837,
  "Both": 4838,
  "purpose": 4839,
  "instance&apos;": 4840,
  "recurse": 4841,
  "controller&apos;": 4842,
  "io.@@": 4843,
  "tty": 4844,
  "SyntaxError": 4845,
  "tmp@@": 4846,
  "estimated": 4847,
  "usable": 4848,
  "flowgram": 4849,
  "&apos;Validates": 4850,
  "2015.5.0": 4851,
  "probs": 4852,
  "backing": 4853,
  "use@@": 4854,
  "confirmation": 4855,
  "VALUE": 4856,
  "OPTIONS": 4857,
  "pki": 4858,
  "importing": 4859,
  "salt.utils.@@": 4860,
  "os.unlink": 4861,
  "few": 4862,
  "doc.@@": 4863,
  "Log": 4864,
  "shouldn": 4865,
  "A.": 4866,
  "13@@": 4867,
  "uuids": 4868,
  "GMT": 4869,
  "LOG.error": 4870,
  "COOKIE": 4871,
  "EXISTS": 4872,
  "ON": 4873,
  "det": 4874,
  "socket.SOCK": 4875,
  "converting": 4876,
  "microsecond": 4877,
  "handler.@@": 4878,
  "27@@": 4879,
  "classification": 4880,
  "spec.@@": 4881,
  "``name``": 4882,
  "piece": 4883,
  "Normal": 4884,
  "labeled": 4885,
  "Empty": 4886,
  "safely": 4887,
  "annotations": 4888,
  "joint": 4889,
  "internet": 4890,
  "identifiers": 4891,
  "A.shape": 4892,
  "chassis": 4893,
  "2014.7.0": 4894,
  "Names": 4895,
  "Twisted": 4896,
  "applicable": 4897,
  "built-in": 4898,
  "ur@@": 4899,
  "come": 4900,
  "fastq": 4901,
  "LOCAL": 4902,
  "CSR": 4903,
  "tab@@": 4904,
  "wildcard": 4905,
  "socket.socket": 4906,
  "26@@": 4907,
  "Yields": 4908,
  "consumed": 4909,
  "Bad@@": 4910,
  "today": 4911,
  "coeffs": 4912,
  "aa": 4913,
  "msg.@@": 4914,
  "request.get": 4915,
  "VAR": 4916,
  "exc.@@": 4917,
  "lex": 4918,
  "secrets": 4919,
  "os.O": 4920,
  "pg": 4921,
  "token.contents.split": 4922,
  "-m": 4923,
  "scalars": 4924,
  "sed": 4925,
  "matlist": 4926,
  "searching": 4927,
  "plotly": 4928,
  "Assumes": 4929,
  "line.find": 4930,
  "DATE": 4931,
  "persist": 4932,
  "far": 4933,
  "instantiate": 4934,
  "cv": 4935,
  "&apos;Search": 4936,
  "Vector": 4937,
  "adjacency": 4938,
  "&apos;An": 4939,
  "fresh": 4940,
  "youtube": 4941,
  "65@@": 4942,
  "sorting": 4943,
  "ctxt": 4944,
  "Numpy": 4945,
  "filetype": 4946,
  "MAC": 4947,
  "Running": 4948,
  "type.@@": 4949,
  "indexing": 4950,
  "Window": 4951,
  "param@@": 4952,
  "applying": 4953,
  "capabilities": 4954,
  "caches": 4955,
  "Tree": 4956,
  "s.sort": 4957,
  "INDEX": 4958,
  "star": 4959,
  "generally": 4960,
  "job.@@": 4961,
  "mon": 4962,
  "Certificate": 4963,
  "nesting": 4964,
  "dropped": 4965,
  "lo@@": 4966,
  "divisor": 4967,
  "Generator": 4968,
  "indicator": 4969,
  "fc": 4970,
  "data.shape": 4971,
  "onto": 4972,
  "register.simple": 4973,
  "85@@": 4974,
  "0.3": 4975,
  "pro@@": 4976,
  "OP": 4977,
  "store.@@": 4978,
  "Package": 4979,
  "template.TemplateSyntaxError": 4980,
  "Parse@@": 4981,
  "months": 4982,
  "``x``": 4983,
  "building": 4984,
  "Based": 4985,
  "ic@@": 4986,
  "Page": 4987,
  "nameserver": 4988,
  "data&apos;": 4989,
  "expiry": 4990,
  "33": 4991,
  "losses": 4992,
  "latex": 4993,
  "&apos;Prints": 4994,
  "pre-@@": 4995,
  "`numpy.@@": 4996,
  "data@@": 4997,
  "options.get": 4998,
  "CLASS": 4999,
  "thus": 5000,
  "PY3": 5001,
  "horizontal": 5002,
  "flip": 5003,
  "dash": 5004,
  "unsafe": 5005,
  "deprecation": 5006,
  "contrib": 5007,
  "rect": 5008,
  "9.@@": 5009,
  "inset": 5010,
  "zipfile": 5011,
  "mountpoint": 5012,
  "reflect": 5013,
  "Convert": 5014,
  "``list``": 5015,
  "terminate": 5016,
  "msvs": 5017,
  "sound": 5018,
  "R.dup": 5019,
  "hardware": 5020,
  "notice": 5021,
  "mp@@": 5022,
  "databases": 5023,
  "50@@": 5024,
  "id``": 5025,
  "soft": 5026,
  "dog": 5027,
  "parser.compile": 5028,
  "46@@": 5029,
  "diffs": 5030,
  "cnt": 5031,
  "base64.b64encode": 5032,
  "pvalue": 5033,
  "&apos;Context": 5034,
  "Pass": 5035,
  "depend": 5036,
  "vlm": 5037,
  "tex": 5038,
  "company": 5039,
  "content-type": 5040,
  "tag@@": 5041,
  "pairwise": 5042,
  "descriptions": 5043,
  "calculation": 5044,
  "n-1": 5045,
  "99": 5046,
  "And@@": 5047,
  "rh": 5048,
  "127": 5049,
  "Protocol": 5050,
  "runlevel": 5051,
  "themes": 5052,
  "ub": 5053,
  "MSG": 5054,
  "version.@@": 5055,
  "0x": 5056,
  "rdata": 5057,
  "keychain": 5058,
  "quick": 5059,
  "classname": 5060,
  "ST@@": 5061,
  "ate@@": 5062,
  "code.co": 5063,
  "tree.@@": 5064,
  "libcloud": 5065,
  "-0.@@": 5066,
  ".size": 5067,
  "persistent": 5068,
  "evaluation": 5069,
  "ax.set": 5070,
  "48": 5071,
  "pth": 5072,
  "cache.get": 5073,
  "ASN1": 5074,
  "Functions": 5075,
  "errors.@@": 5076,
  "ff@@": 5077,
  "Mac": 5078,
  "almost": 5079,
  "unset": 5080,
  "Job": 5081,
  "UNIX": 5082,
  "Instead": 5083,
  "0-@@": 5084,
  "&apos;Setup": 5085,
  "human-readable": 5086,
  "Simple@@": 5087,
  "ing.@@": 5088,
  "contiguous": 5089,
  "numbering": 5090,
  "sol": 5091,
  "excluding": 5092,
  "reporter": 5093,
  "belonging": 5094,
  "sub-@@": 5095,
  "in6": 5096,
  "party": 5097,
  "therefore": 5098,
  "coding": 5099,
  "punctuation": 5100,
  "8080": 5101,
  "declared": 5102,
  "UnicodeError": 5103,
  "gc": 5104,
  "text.replace": 5105,
  "39@@": 5106,
  "rl": 5107,
  "recognized": 5108,
  "w.@@": 5109,
  "bads": 5110,
  "longest": 5111,
  "tracker": 5112,
  "people": 5113,
  "decomposition": 5114,
  "vs": 5115,
  "online": 5116,
  "ap@@": 5117,
  "ui": 5118,
  "top-level": 5119,
  "parent.@@": 5120,
  "cl": 5121,
  "retain": 5122,
  "F.@@": 5123,
  "var@@": 5124,
  "zfs": 5125,
  "let": 5126,
  "server@@": 5127,
  "system.@@": 5128,
  "group.@@": 5129,
  "kws": 5130,
  "reported": 5131,
  "version&apos;": 5132,
  "balancer": 5133,
  "443": 5134,
  "fuzzy": 5135,
  "URL@@": 5136,
  "logo": 5137,
  "image.shape": 5138,
  "backoff": 5139,
  "Config@@": 5140,
  "target.@@": 5141,
  "Timeout": 5142,
  "mongo": 5143,
  "requests.get": 5144,
  "convention": 5145,
  "frame.f": 5146,
  "vary": 5147,
  "integrate": 5148,
  "occurrences": 5149,
  "id`": 5150,
  "28@@": 5151,
  "optimization": 5152,
  "transition": 5153,
  "Text@@": 5154,
  "observer": 5155,
  "my-@@": 5156,
  "date@@": 5157,
  "lms": 5158,
  "association": 5159,
  "assumptions": 5160,
  "GitHub": 5161,
  "going": 5162,
  "os.path.realpath": 5163,
  "subtitle": 5164,
  "percentiles": 5165,
  "Markdown": 5166,
  "polar": 5167,
  "UnicodeEncodeError": 5168,
  "random.random": 5169,
  "plt": 5170,
  "maxlen": 5171,
  "100@@": 5172,
  "consecutive": 5173,
  "Delete": 5174,
  "&apos;Attempt": 5175,
  "LJ": 5176,
  "estimators": 5177,
  "a-@@": 5178,
  "a-z": 5179,
  "&apos;Is": 5180,
  "Amazon": 5181,
  "record.@@": 5182,
  "decorators": 5183,
  "implicit": 5184,
  "idxs": 5185,
  "hypervisor": 5186,
  "detach": 5187,
  "100.0": 5188,
  "trial": 5189,
  "vhost": 5190,
  "cells": 5191,
  "numpy.asarray": 5192,
  "html&apos;": 5193,
  "imp": 5194,
  "factorial": 5195,
  "insecure": 5196,
  "allocate": 5197,
  "0,1": 5198,
  "ter@@": 5199,
  "Sum": 5200,
  "`v`": 5201,
  "bufsize": 5202,
  "&apos;E@@": 5203,
  "project.@@": 5204,
  "makedirs": 5205,
  "collected": 5206,
  "fi@@": 5207,
  "MODE": 5208,
  "protocol.commands.add": 5209,
  "wide": 5210,
  "ir": 5211,
  "TP": 5212,
  "tt": 5213,
  "fileserver": 5214,
  "po": 5215,
  "invert": 5216,
  "directives": 5217,
  "overlay": 5218,
  ".count": 5219,
  "printing": 5220,
  "name.@@": 5221,
  "turned": 5222,
  "wt": 5223,
  "dg": 5224,
  "work@@": 5225,
  "fk": 5226,
  "musicpd.org": 5227,
  "tx": 5228,
  "indexed": 5229,
  "slow": 5230,
  "svn": 5231,
  "AreEqual": 5232,
  "nd": 5233,
  "pools": 5234,
  "latter": 5235,
  "attachments": 5236,
  "operate": 5237,
  "START": 5238,
  "Same": 5239,
  "population": 5240,
  "Layer": 5241,
  "vCenter": 5242,
  "DOM": 5243,
  "2``": 5244,
  "Transform": 5245,
  "ic": 5246,
  "METHOD": 5247,
  "twisted": 5248,
  "polygon": 5249,
  "found&apos;": 5250,
  "Writer": 5251,
  "pkt": 5252,
  "parts.append": 5253,
  "id&apos;": 5254,
  "quotas": 5255,
  "creds": 5256,
  "widgets": 5257,
  "Cloud": 5258,
  "ln": 5259,
  "values&apos;": 5260,
  "facility": 5261,
  "dat": 5262,
  "Cassandra": 5263,
  "te@@": 5264,
  "2001": 5265,
  "community": 5266,
  "etype": 5267,
  "file.close": 5268,
  "clustering": 5269,
  "thrown": 5270,
  "Secret": 5271,
  "value.split": 5272,
  "preferences": 5273,
  "prediction": 5274,
  "chains": 5275,
  "NaN": 5276,
  "s.remove": 5277,
  "performing": 5278,
  "SET": 5279,
  "Pattern": 5280,
  "hashable": 5281,
  "dots": 5282,
  "Co@@": 5283,
  "inter": 5284,
  "unregister": 5285,
  "lh": 5286,
  "resid": 5287,
  "lut": 5288,
  "substitute": 5289,
  "angles": 5290,
  "dask": 5291,
  "&apos;In@@": 5292,
  "X-@@": 5293,
  "profile.@@": 5294,
  "Count": 5295,
  "NONE": 5296,
  "PASSWORD": 5297,
  "Load": 5298,
  "shp": 5299,
  "&apos;Fetches": 5300,
  "locally": 5301,
  "-s": 5302,
  "explanation": 5303,
  "grain": 5304,
  "descr": 5305,
  "cl@@": 5306,
  "1,2": 5307,
  "caption": 5308,
  "`f`": 5309,
  "out.append": 5310,
  "lookups": 5311,
  "-i": 5312,
  "s.encode": 5313,
  "inter@@": 5314,
  "information&apos;": 5315,
  "Record": 5316,
  "mgr": 5317,
  "Specifies": 5318,
  "IP@@": 5319,
  "dataframe": 5320,
  "Results": 5321,
  "QUERY": 5322,
  "plist": 5323,
  "KeyboardInterrupt": 5324,
  "sessions": 5325,
  "Path@@": 5326,
  "divide": 5327,
  "lx": 5328,
  "operand": 5329,
  "act": 5330,
  "&apos;Wait": 5331,
  "sums": 5332,
  "pure": 5333,
  "register.inclusion": 5334,
  "pin": 5335,
  "changing": 5336,
  "print@@": 5337,
  "sequential": 5338,
  "asynchronous": 5339,
  "medium": 5340,
  "val1": 5341,
  "instantiated": 5342,
  "guest": 5343,
  "Sets": 5344,
  "metadata.@@": 5345,
  "schemas": 5346,
  "rot": 5347,
  "&apos;Replaces": 5348,
  "Syntax": 5349,
  "os.mkdir": 5350,
  "char@@": 5351,
  "installer": 5352,
  "spectrum": 5353,
  "conn.delete": 5354,
  "version@@": 5355,
  "mo": 5356,
  "frag": 5357,
  ".select": 5358,
  "vms": 5359,
  "6&apos;": 5360,
  "urn": 5361,
  "iters": 5362,
  "clauses": 5363,
  "notifier": 5364,
  "Con@@": 5365,
  "Label": 5366,
  "retention": 5367,
  "MIN": 5368,
  "JavaScript": 5369,
  "fire": 5370,
  "shows": 5371,
  "35@@": 5372,
  "int@@": 5373,
  "traversal": 5374,
  "John": 5375,
  "Timestamp": 5376,
  "localize": 5377,
  "ation.@@": 5378,
  "denied": 5379,
  "gender": 5380,
  "path`": 5381,
  "-n": 5382,
  "&apos;Import": 5383,
  "ing-@@": 5384,
  "derivatives": 5385,
  "Random": 5386,
  "form.@@": 5387,
  "512": 5388,
  "postgres": 5389,
  "modification": 5390,
  "in-place": 5391,
  "iri": 5392,
  "cosine": 5393,
  "ACCESS": 5394,
  "hasher": 5395,
  "a.shape": 5396,
  "underscores": 5397,
  "sdk": 5398,
  "Cache@@": 5399,
  "extras": 5400,
  "q1": 5401,
  "APPS": 5402,
  "magnitude": 5403,
  "happens": 5404,
  "302": 5405,
  "sometimes": 5406,
  "universal": 5407,
  "&apos;name": 5408,
  "Is": 5409,
  "TOKEN": 5410,
  "permitted": 5411,
  "workspace": 5412,
  "shouldAnalyze": 5413,
  "social": 5414,
  "ENDIAN": 5415,
  "Checks": 5416,
  "backward": 5417,
  "bin@@": 5418,
  "pa@@": 5419,
  "service.get": 5420,
  "alarm": 5421,
  "nic": 5422,
  "msec": 5423,
  "concatenate": 5424,
  "locks": 5425,
  "diop": 5426,
  "delimiters": 5427,
  "Policy": 5428,
  "logger.warning": 5429,
  "ret.update": 5430,
  "pickled": 5431,
  "lhs": 5432,
  "hr": 5433,
  "prepared": 5434,
  "natural": 5435,
  "mathbb": 5436,
  "&apos;R@@": 5437,
  "np.random.RandomState": 5438,
  "p-value": 5439,
  "33@@": 5440,
  "numerator": 5441,
  "Index@@": 5442,
  "intermediate": 5443,
  "deltas": 5444,
  "years": 5445,
  "urlparse.urlparse": 5446,
  "nc": 5447,
  "widths": 5448,
  "imag": 5449,
  "clique": 5450,
  "02": 5451,
  "ci@@": 5452,
  "csc": 5453,
  "cleared": 5454,
  "LIST": 5455,
  "n`": 5456,
  "M.": 5457,
  "ticks": 5458,
  "39": 5459,
  "Service@@": 5460,
  "cs.@@": 5461,
  "elems": 5462,
  "RandomState": 5463,
  "text@@": 5464,
  "NAMESPACE": 5465,
  "Content": 5466,
  "&apos;Raise": 5467,
  "algorithms": 5468,
  "bold": 5469,
  ".execute": 5470,
  "IV": 5471,
  "AL@@": 5472,
  "id.@@": 5473,
  "intensity": 5474,
  "UID": 5475,
  "cycles": 5476,
  "disp": 5477,
  "mod@@": 5478,
  "MODULE": 5479,
  "Meta": 5480,
  "bi@@": 5481,
  "params.get": 5482,
  "deletion": 5483,
  "minimal": 5484,
  "maxsize": 5485,
  "delayed": 5486,
  "modulo": 5487,
  "，": 5488,
  "&apos;Performs": 5489,
  "X.@@": 5490,
  "publisher": 5491,
  "Proxy": 5492,
  "names.append": 5493,
  "&apos;H@@": 5494,
  "completions": 5495,
  "x86": 5496,
  "0.25": 5497,
  "six.PY3": 5498,
  "fork": 5499,
  "tpl": 5500,
  "A.@@": 5501,
  "UN@@": 5502,
  "tried": 5503,
  "whatever": 5504,
  "differ": 5505,
  "freeze": 5506,
  "presence": 5507,
  "GB": 5508,
  "ancestors": 5509,
  "consisting": 5510,
  "sourcecode": 5511,
  "re.escape": 5512,
  "margin": 5513,
  "gettext": 5514,
  ".lstrip": 5515,
  "processors": 5516,
  "uniq": 5517,
  "inheritance": 5518,
  "exclusive": 5519,
  "referrer": 5520,
  "formset": 5521,
  "DB@@": 5522,
  "deleting": 5523,
  "tools.ietf.org": 5524,
  "discover": 5525,
  "Environment": 5526,
  "health": 5527,
  "np.asanyarray": 5528,
  "userid": 5529,
  "wants": 5530,
  "d.addCallback": 5531,
  "Relative": 5532,
  "locs": 5533,
  "neighbor": 5534,
  "sz": 5535,
  "optimal": 5536,
  "availability": 5537,
  "transforms": 5538,
  "paragraph": 5539,
  "opcode": 5540,
  "detection": 5541,
  "distinct": 5542,
  "sys.@@": 5543,
  "MESSAGE": 5544,
  "configurations": 5545,
  "ufunc": 5546,
  "cmds": 5547,
  "CHAR": 5548,
  "artifacts": 5549,
  "boto.@@": 5550,
  "placed": 5551,
  "filename.endswith": 5552,
  "xem": 5553,
  "&apos;No": 5554,
  "blocking": 5555,
  "contributors": 5556,
  "localized": 5557,
  "Show": 5558,
  "Items": 5559,
  "dis@@": 5560,
  "Language": 5561,
  "ALIAS": 5562,
  "serializers": 5563,
  "texts": 5564,
  "R.dmp": 5565,
  "start@@": 5566,
  "strongly": 5567,
  "primes": 5568,
  "tk": 5569,
  "LOG.warning": 5570,
  "Eq": 5571,
  "reduced": 5572,
  "weeks": 5573,
  "centers": 5574,
  "tan": 5575,
  "list.@@": 5576,
  "secondary": 5577,
  "urllib.quote": 5578,
  "ac": 5579,
  "mod.@@": 5580,
  "nodes.@@": 5581,
  "plane": 5582,
  "spider": 5583,
  "frontend": 5584,
  "Cookie": 5585,
  "Stream": 5586,
  "resp.status": 5587,
  "hash@@": 5588,
  "ONLY": 5589,
  "ated": 5590,
  "Python@@": 5591,
  "PER": 5592,
  "confirm": 5593,
  "hostnames": 5594,
  "approximate": 5595,
  "Default@@": 5596,
  "meta.@@": 5597,
  "VPC": 5598,
  "squares": 5599,
  "brand": 5600,
  "mismatch": 5601,
  "sitemap": 5602,
  "nx.NetworkXError": 5603,
  "updating": 5604,
  "document.@@": 5605,
  "Expression": 5606,
  "dimensional": 5607,
  "ceil": 5608,
  "bounding": 5609,
  "intent": 5610,
  "captured": 5611,
  "a2": 5612,
  "K.@@": 5613,
  "&apos;Download": 5614,
  "corner": 5615,
  "b1": 5616,
  "sqlalchemy": 5617,
  "user.username": 5618,
  "Added": 5619,
  "efficient": 5620,
  "seg": 5621,
  "Iterator": 5622,
  "bo@@": 5623,
  "lp": 5624,
  "sids": 5625,
  ".close": 5626,
  "rx": 5627,
  "-1.0": 5628,
  "past": 5629,
  "CREATE": 5630,
  "hmac": 5631,
  "compact": 5632,
  "LIMIT": 5633,
  "detrend": 5634,
  "bear": 5635,
  "scanner": 5636,
  "mapreduce": 5637,
  "division": 5638,
  "posts": 5639,
  "escapes": 5640,
  "rounding": 5641,
  "bit@@": 5642,
  "snap": 5643,
  "StringIO.StringIO": 5644,
  "unit@@": 5645,
  "PYTHON": 5646,
  "parses": 5647,
  "nor": 5648,
  "keyring": 5649,
  "sys.executable": 5650,
  "Error`": 5651,
  "python@@": 5652,
  "PNG": 5653,
  "subnets": 5654,
  "itemsize": 5655,
  "glob.glob": 5656,
  "scratch": 5657,
  "tau": 5658,
  "Str": 5659,
  "license": 5660,
  "ability": 5661,
  "throttle": 5662,
  "action.@@": 5663,
  "reasons": 5664,
  "STATE": 5665,
  "face": 5666,
  "Zone": 5667,
  "datetime.datetime.now": 5668,
  "8.@@": 5669,
  "descending": 5670,
  "ldap": 5671,
  "succeeded": 5672,
  "development": 5673,
  "df@@": 5674,
  "orgname": 5675,
  "marks": 5676,
  "default@@": 5677,
  "rstrip": 5678,
  "expression&apos;": 5679,
  "-0.5": 5680,
  "scales": 5681,
  "photo": 5682,
  "Or@@": 5683,
  "AppName": 5684,
  "55": 5685,
  "preprocessing": 5686,
  "Pre@@": 5687,
  "memoized": 5688,
  "twice": 5689,
  "subsection": 5690,
  "ms@@": 5691,
  "waiter": 5692,
  "SITE": 5693,
  "isscalar": 5694,
  "one@@": 5695,
  "builders": 5696,
  "b64encode": 5697,
  "urlconf": 5698,
  "65535": 5699,
  "hive": 5700,
  "alter": 5701,
  "Variables": 5702,
  "timeseries": 5703,
  "SkipTest": 5704,
  "wd": 5705,
  "thumbprint": 5706,
  "response.headers": 5707,
  "groupby": 5708,
  "Distribution": 5709,
  "ctl": 5710,
  "nx.path": 5711,
  "PROTOCOL": 5712,
  "k.@@": 5713,
  "Compute": 5714,
  "Unsupported": 5715,
  "remotes": 5716,
  "attempting": 5717,
  "rd": 5718,
  "dilation": 5719,
  "hadoop": 5720,
  "um": 5721,
  "bw": 5722,
  "KB": 5723,
  "graph.@@": 5724,
  "DETAILS": 5725,
  "os.@@": 5726,
  "reuse": 5727,
  "Decorator": 5728,
  "interpolate": 5729,
  "wrt": 5730,
  "indx": 5731,
  "logger.error": 5732,
  "m.update": 5733,
  "remain": 5734,
  "slots": 5735,
  "conjugate": 5736,
  "showing": 5737,
  "sbin": 5738,
  "propagate": 5739,
  "ATTR": 5740,
  "able@@": 5741,
  "mi@@": 5742,
  "Url": 5743,
  "CONTENT": 5744,
  "tr@@": 5745,
  "re.IGNORECASE": 5746,
  "val2": 5747,
  "quot": 5748,
  "mandatory": 5749,
  "HTTPS": 5750,
  "hue": 5751,
  "By@@": 5752,
  "t0": 5753,
  "mag": 5754,
  "multiplication": 5755,
  "facet": 5756,
  "respective": 5757,
  "networkx": 5758,
  "&apos;Compare": 5759,
  "Don": 5760,
  "hudson.plugins.@@": 5761,
  "BLOCK": 5762,
  "silent": 5763,
  "easier": 5764,
  "enrolled": 5765,
  "tracking": 5766,
  "DE@@": 5767,
  "preserving": 5768,
  "fe@@": 5769,
  "controls": 5770,
  "3-@@": 5771,
  "ID@@": 5772,
  "declarator": 5773,
  "1st": 5774,
  "concatenated": 5775,
  "field.name": 5776,
  "Multi@@": 5777,
  "write@@": 5778,
  "-t": 5779,
  "Fs": 5780,
  "bond": 5781,
  "&apos;Clear": 5782,
  "logging.warning": 5783,
  "`section": 5784,
  "1,@@": 5785,
  "pagination": 5786,
  "metadef": 5787,
  "0`": 5788,
  "ImproperlyConfigured": 5789,
  "CURRENT": 5790,
  "ram": 5791,
  "view@@": 5792,
  "44@@": 5793,
  "setdefault": 5794,
  "kwargs.items": 5795,
  "L2": 5796,
  "ipaddr": 5797,
  "45@@": 5798,
  "multiply": 5799,
  "Authorization": 5800,
  "memberships": 5801,
  "ap": 5802,
  "os.pathsep": 5803,
  "Node@@": 5804,
  "managers": 5805,
  "multi-@@": 5806,
  "fa@@": 5807,
  "Builder": 5808,
  "np.inf": 5809,
  "sampled": 5810,
  "openssl": 5811,
  "RGBA": 5812,
  "vim": 5813,
  "freqs": 5814,
  "2002": 5815,
  "constants.@@": 5816,
  "hexadecimal": 5817,
  "Process@@": 5818,
  "net.@@": 5819,
  "docstrings": 5820,
  "es@@": 5821,
  "versioned": 5822,
  "np.unique": 5823,
  "log.exception": 5824,
  "receipt": 5825,
  "meg": 5826,
  "np.uint8": 5827,
  "OpenSSL": 5828,
  "solutions": 5829,
  "IMAGE": 5830,
  "7.@@": 5831,
  "A-Z": 5832,
  "String@@": 5833,
  "scorer": 5834,
  "ftp": 5835,
  "listening": 5836,
  "NameError": 5837,
  "86@@": 5838,
  "guaranteed": 5839,
  "modpath": 5840,
  "Creates": 5841,
  "Its": 5842,
  "expr.@@": 5843,
  "copies": 5844,
  "subsample": 5845,
  "ffi.NULL": 5846,
  "fires": 5847,
  "annotate": 5848,
  "articles": 5849,
  "seems": 5850,
  "away": 5851,
  "pubkey": 5852,
  "tokenizer": 5853,
  "rdtype": 5854,
  "lr": 5855,
  "Errors": 5856,
  "ca@@": 5857,
  "World": 5858,
  "diff@@": 5859,
  "salt-call": 5860,
  "maximal": 5861,
  "greenlet": 5862,
  "`y`": 5863,
  "`data`": 5864,
  "FS": 5865,
  "LinOp": 5866,
  "utils.get": 5867,
  "st.@@": 5868,
  "tip": 5869,
  "&apos;D@@": 5870,
  "designed": 5871,
  "request.GET": 5872,
  "viewer": 5873,
  "v0": 5874,
  "auth.@@": 5875,
  "domain.@@": 5876,
  "git@@": 5877,
  "tutorial": 5878,
  "logging.DEBUG": 5879,
  "goes": 5880,
  "Module@@": 5881,
  "&apos;Provides": 5882,
  ".group": 5883,
  "installed&apos;": 5884,
  "error&apos;": 5885,
  "load@@": 5886,
  "filter@@": 5887,
  "Group@@": 5888,
  "&apos;Internal": 5889,
  "xapi": 5890,
  "synset": 5891,
  "mirror": 5892,
  "consists": 5893,
  "C.": 5894,
  "optimize": 5895,
  "&apos;Tries": 5896,
  "fo": 5897,
  "website": 5898,
  "remove@@": 5899,
  "type&apos;": 5900,
  "CourseKey": 5901,
  "Loop": 5902,
  "Error@@": 5903,
  "quaternion": 5904,
  "positives": 5905,
  "globally": 5906,
  "x509": 5907,
  "Bytes": 5908,
  "memo": 5909,
  "saml": 5910,
  "site-packages": 5911,
  "ha": 5912,
  "hook.command": 5913,
  "penalty": 5914,
  "2.4": 5915,
  "actor": 5916,
  "cpus": 5917,
  "JPEG": 5918,
  "skipping": 5919,
  "uuid.uuid4": 5920,
  "Rational": 5921,
  "inferred": 5922,
  "Map": 5923,
  "Message@@": 5924,
  "data.append": 5925,
  "color@@": 5926,
  "coroutine": 5927,
  "boxes": 5928,
  "endfor": 5929,
  "equality": 5930,
  "grouping": 5931,
  "Like": 5932,
  "object.@@": 5933,
  "badge": 5934,
  "Schema": 5935,
  "suggested": 5936,
  "Absolute": 5937,
  "sls": 5938,
  "err@@": 5939,
  "composer": 5940,
  "peak": 5941,
  "dict1": 5942,
  "&apos;Connect": 5943,
  "04@@": 5944,
  "executor": 5945,
  "&apos;Extracts": 5946,
  "Level": 5947,
  "path.endswith": 5948,
  "benchmark": 5949,
  "Section": 5950,
  "encodings": 5951,
  "netmask": 5952,
  "Value@@": 5953,
  "spacing": 5954,
  "vi@@": 5955,
  "Minimum": 5956,
  "Format@@": 5957,
  "Domain": 5958,
  "&apos;Disable": 5959,
  "profiling": 5960,
  "bare": 5961,
  "47@@": 5962,
  "Helper": 5963,
  "cm": 5964,
  "elt": 5965,
  "printable": 5966,
  "06@@": 5967,
  "segmentation": 5968,
  "gr": 5969,
  "sends": 5970,
  "cumulative": 5971,
  "per@@": 5972,
  "occurrence": 5973,
  "FLAGS": 5974,
  "line.rstrip": 5975,
  "breaks": 5976,
  "ways": 5977,
  "&apos;Log": 5978,
  "ev@@": 5979,
  "outfile.write": 5980,
  "easily": 5981,
  "likelihood": 5982,
  "organisation": 5983,
  "fall": 5984,
  "prefer": 5985,
  "authn": 5986,
  "`u`": 5987,
  "show@@": 5988,
  "error.@@": 5989,
  "conflict": 5990,
  "generate@@": 5991,
  "potentially": 5992,
  "C.@@": 5993,
  "0.8": 5994,
  "---": 5995,
  "contributor": 5996,
  "results.@@": 5997,
  "app.route": 5998,
  "OverflowError": 5999,
  "np.sin": 6000,
  "theano.function": 6001,
  "votes": 6002,
  "infinite": 6003,
  "facebook": 6004,
  "newpath": 6005,
  "est": 6006,
  "x&apos;": 6007,
  "&apos;Writes": 6008,
  "Color": 6009,
  "prs": 6010,
  "objects.create": 6011,
  "dispatcher": 6012,
  "MUST": 6013,
  "-name": 6014,
  "sl": 6015,
  "verifier": 6016,
  ".com": 6017,
  "cms": 6018,
  "paging": 6019,
  "lens": 6020,
  "emitted": 6021,
  "nx": 6022,
  "Link": 6023,
  "frappe.@@": 6024,
  "sink": 6025,
  "sess": 6026,
  "indented": 6027,
  "bytecode": 6028,
  "ast.@@": 6029,
  "timed": 6030,
  "Run@@": 6031,
  "&apos;Do": 6032,
  "triangular": 6033,
  "pc": 6034,
  "usernames": 6035,
  "verts": 6036,
  "2.1": 6037,
  "attrname": 6038,
  "Web@@": 6039,
  "Two": 6040,
  "table@@": 6041,
  "replacements": 6042,
  "stream.write": 6043,
  "&apos;Escape": 6044,
  "kwargs.setdefault": 6045,
  "cx": 6046,
  "ret@@": 6047,
  "sizing": 6048,
  "``path``": 6049,
  "randint": 6050,
  "cibfile": 6051,
  "lng": 6052,
  "map@@": 6053,
  "structured": 6054,
  "Course@@": 6055,
  "stock": 6056,
  "As@@": 6057,
  "gb": 6058,
  "RESOURCE": 6059,
  "NetworkXError": 6060,
  "Option": 6061,
  "Object@@": 6062,
  "&apos;W@@": 6063,
  "np.max": 6064,
  "34": 6065,
  "ent@@": 6066,
  "5-@@": 6067,
  "Which": 6068,
  "Unexpected": 6069,
  "re.I": 6070,
  "29": 6071,
  "settings.USE": 6072,
  "nitro": 6073,
  "hot": 6074,
  "mute": 6075,
  "dictionary&apos;": 6076,
  "spawn": 6077,
  "imread": 6078,
  "some@@": 6079,
  "kb": 6080,
  "Code@@": 6081,
  "course.@@": 6082,
  "wrappers": 6083,
  "gi@@": 6084,
  "der@@": 6085,
  "omit": 6086,
  "temporarily": 6087,
  "errno.EEXIST": 6088,
  "inherited": 6089,
  "attr@@": 6090,
  "End": 6091,
  "wrapping": 6092,
  "trash": 6093,
  "Event@@": 6094,
  "HTTP@@": 6095,
  "legal": 6096,
  "75": 6097,
  "Fourier": 6098,
  "so@@": 6099,
  "upstart": 6100,
  "fds": 6101,
  "request.META.get": 6102,
  "Dir": 6103,
  "ES": 6104,
  "getvalue": 6105,
  "mostly": 6106,
  "compound": 6107,
  "craft.writeChainTextWithNounMessage": 6108,
  "IMPL.volume": 6109,
  "56@@": 6110,
  "par@@": 6111,
  "w3af": 6112,
  "red@@": 6113,
  "`path`": 6114,
  "&apos;a": 6115,
  "criterion": 6116,
  "request.POST": 6117,
  "reached": 6118,
  "datasource": 6119,
  ".create": 6120,
  "uint": 6121,
  "dl": 6122,
  "Word": 6123,
  "ZZ.map": 6124,
  "rt": 6125,
  "namedtuple": 6126,
  "behaviour": 6127,
  ".max": 6128,
  "loopback": 6129,
  "populated": 6130,
  "func@@": 6131,
  "demultiplex": 6132,
  "IO": 6133,
  "Task@@": 6134,
  "falls": 6135,
  "filesize": 6136,
  "Because": 6137,
  "failing": 6138,
  "smtp": 6139,
  "Make@@": 6140,
  "city": 6141,
  "&apos;Normalize": 6142,
  "variants": 6143,
  "the@@": 6144,
  "imap": 6145,
  "band": 6146,
  "lot": 6147,
  "quantile": 6148,
  "rcParams": 6149,
  "Standard": 6150,
  "edited": 6151,
  "html@@": 6152,
  "course.id": 6153,
  "Folder": 6154,
  "authors": 6155,
  "skips": 6156,
  "x01": 6157,
  "experiment": 6158,
  "tl": 6159,
  "``x": 6160,
  "test-@@": 6161,
  "FOUND": 6162,
  "drawn": 6163,
  "&apos;Expected": 6164,
  "friends": 6165,
  "bn": 6166,
  "priv": 6167,
  "interpret": 6168,
  "sysctl": 6169,
  "ANSI": 6170,
  "matplotlib.pyplot": 6171,
  "random.seed": 6172,
  "TS": 6173,
  "insensitive": 6174,
  "nbsp": 6175,
  "unlimited": 6176,
  "formfield": 6177,
  "&apos;Wraps": 6178,
  "issued": 6179,
  "Unit": 6180,
  "Types": 6181,
  "observed": 6182,
  "`obj`": 6183,
  ".order": 6184,
  "os.error": 6185,
  "met": 6186,
  "Read@@": 6187,
  "typename": 6188,
  "calculates": 6189,
  "sff": 6190,
  "-based": 6191,
  "converters": 6192,
  "avatar": 6193,
  "adjacent": 6194,
  "ation&apos;": 6195,
  "rectangle": 6196,
  "rbenv": 6197,
  "stddev": 6198,
  "pr@@": 6199,
  "standalone": 6200,
  "os.chmod": 6201,
  "cpp": 6202,
  "invalidate": 6203,
  "&apos;Serialize": 6204,
  "files.append": 6205,
  "CalledProcessError": 6206,
  "grey": 6207,
  "urljoin": 6208,
  "schemes": 6209,
  "AES": 6210,
  "objective": 6211,
  "Typically": 6212,
  "-style": 6213,
  "ally": 6214,
  "serializable": 6215,
  "post-@@": 6216,
  "revert": 6217,
  "mx": 6218,
  "hashlib.sha1": 6219,
  "PermissionDenied": 6220,
  "follower": 6221,
  "byte@@": 6222,
  "counting": 6223,
  "fa": 6224,
  "set&apos;": 6225,
  "varargs": 6226,
  "Docker": 6227,
  "&apos;Decorate": 6228,
  "apps.get": 6229,
  "Search@@": 6230,
  "tied": 6231,
  "INPUT": 6232,
  "recall": 6233,
  "genome": 6234,
  ".f": 6235,
  "die": 6236,
  "tor": 6237,
  "jenkins": 6238,
  "Line@@": 6239,
  "pkg.@@": 6240,
  "norms": 6241,
  "centered": 6242,
  "ownership": 6243,
  "Open": 6244,
  "functools.partial": 6245,
  "Second": 6246,
  "GUI": 6247,
  "preserved": 6248,
  "originally": 6249,
  "Got": 6250,
  ".txt": 6251,
  "al.@@": 6252,
  "&apos;Renders": 6253,
  "cg": 6254,
  "django.conf": 6255,
  "revisions": 6256,
  "ambiguous": 6257,
  "ag@@": 6258,
  "nvars": 6259,
  "inspect.getargspec": 6260,
  "colour": 6261,
  "necessarily": 6262,
  "ansi": 6263,
  "argmax": 6264,
  "&apos;Filter": 6265,
  "string.replace": 6266,
  "block@@": 6267,
  "k2": 6268,
  "Controller": 6269,
  "appauthor": 6270,
  "precedence": 6271,
  "string.ascii": 6272,
  "protocols": 6273,
  "varname": 6274,
  "refer": 6275,
  "callables": 6276,
  "2.6": 6277,
  "pref": 6278,
  "linter": 6279,
  "An@@": 6280,
  "splitlines": 6281,
  "mc": 6282,
  "Starting": 6283,
  "05@@": 6284,
  "pos@@": 6285,
  "among": 6286,
  "descriptor.@@": 6287,
  "meters": 6288,
  "srs": 6289,
  "da@@": 6290,
  "Thus": 6291,
  "bookmark": 6292,
  "this@@": 6293,
  "ses": 6294,
  "match.groups": 6295,
  "vmadm": 6296,
  "platform.system": 6297,
  "tanh": 6298,
  "dedent": 6299,
  "weekday": 6300,
  "d.items": 6301,
  "approx": 6302,
  "SE@@": 6303,
  "child.@@": 6304,
  "deque": 6305,
  "routing": 6306,
  "cyclic": 6307,
  "TEXT": 6308,
  "LINE": 6309,
  "full@@": 6310,
  "Identifier": 6311,
  "plat": 6312,
  "row.@@": 6313,
  "ij": 6314,
  "1000.0": 6315,
  "BIG": 6316,
  "moments": 6317,
  "figsize": 6318,
  "path.replace": 6319,
  "loggers": 6320,
  "apiserver": 6321,
  "assignments": 6322,
  "ciphers": 6323,
  "consensus": 6324,
  "ier": 6325,
  "out.@@": 6326,
  "e.message": 6327,
  "reviewer": 6328,
  "ros": 6329,
  "grp": 6330,
  "content.@@": 6331,
  "NAMES": 6332,
  "07@@": 6333,
  "Permutation": 6334,
  "sass": 6335,
  "dropout": 6336,
  "Page@@": 6337,
  "ml": 6338,
  "bounded": 6339,
  "Authentication": 6340,
  "Bokeh": 6341,
  "AT@@": 6342,
  "Flask": 6343,
  "solr": 6344,
  "certfile": 6345,
  "arange": 6346,
  "splitLine": 6347,
  "Equivalent": 6348,
  "es.@@": 6349,
  "–": 6350,
  "&apos;Uses": 6351,
  "node1": 6352,
  "bunch": 6353,
  "crc": 6354,
  "status.@@": 6355,
  "quit": 6356,
  "ut@@": 6357,
  "en-us": 6358,
  "0.4": 6359,
  "acquire": 6360,
  "tf.name": 6361,
  "Auth": 6362,
  "XML@@": 6363,
  "site@@": 6364,
  "bp": 6365,
  "&apos;Yield": 6366,
  "chmod": 6367,
  "text.split": 6368,
  "rec@@": 6369,
  "acceptance": 6370,
  "recs": 6371,
  "Total": 6372,
  "Guide": 6373,
  "REMOTE": 6374,
  "They": 6375,
  "slashes": 6376,
  "001.yaml": 6377,
  "Templates": 6378,
  "&apos;Handle": 6379,
  "SS": 6380,
  "current.@@": 6381,
  "lead": 6382,
  "onerror": 6383,
  "continued": 6384,
  "returncode": 6385,
  "DIRECTORY": 6386,
  "-g": 6387,
  "implementations": 6388,
  "docker-compose": 6389,
  "Player": 6390,
  "IMPL.instance": 6391,
  "toplevel": 6392,
  "testdir": 6393,
  "FOO": 6394,
  "-y": 6395,
  "triggered": 6396,
  "CourseKey.from": 6397,
  "response.content": 6398,
  "expose": 6399,
  "L1": 6400,
  "line.@@": 6401,
  "bcs": 6402,
  "&apos;Ensures": 6403,
  "xp": 6404,
  "ger": 6405,
  "blobs": 6406,
  "tunnel": 6407,
  "math.sqrt": 6408,
  "bracket": 6409,
  "ts.@@": 6410,
  "xpath": 6411,
  "neutron": 6412,
  "themselves": 6413,
  "time.@@": 6414,
  "say": 6415,
  "POSIX": 6416,
  "sentinel": 6417,
  "fval": 6418,
  "ler": 6419,
  "convergence": 6420,
  "tion@@": 6421,
  "estimates": 6422,
  "class&apos;": 6423,
  "ctypes": 6424,
  "NoneType": 6425,
  "AF": 6426,
  "early": 6427,
  "json@@": 6428,
  "node.outputs": 6429,
  "severity": 6430,
  "watcher": 6431,
  "pylab": 6432,
  "OUTPUT": 6433,
  "bars": 6434,
  "Local@@": 6435,
  "np.atleast": 6436,
  "turns": 6437,
  "&apos;Fetch": 6438,
  "LDAP": 6439,
  "lxml": 6440,
  "conn.create": 6441,
  "deepcopy": 6442,
  "sl@@": 6443,
  "auth@@": 6444,
  "instructions": 6445,
  "tf.get": 6446,
  "re.@@": 6447,
  "-v": 6448,
  "1,2,3": 6449,
  "Filters": 6450,
  "implementing": 6451,
  "timing": 6452,
  "triangles": 6453,
  "if@@": 6454,
  "radians": 6455,
  "Auto@@": 6456,
  "authorize": 6457,
  "value1": 6458,
  "interact": 6459,
  "57@@": 6460,
  "libs": 6461,
  "field@@": 6462,
  "point@@": 6463,
  "val.@@": 6464,
  "expm": 6465,
  "d`": 6466,
  "mako": 6467,
  "BACKEND": 6468,
  "s.strip": 6469,
  "sys.stdin": 6470,
  "``n``": 6471,
  "ment": 6472,
  "dict.items": 6473,
  "wcs": 6474,
  "ol@@": 6475,
  "icons": 6476,
  "G.is": 6477,
  "0.6": 6478,
  "xml@@": 6479,
  "distribute": 6480,
  "tion": 6481,
  "element.@@": 6482,
  "buffered": 6483,
  "ba@@": 6484,
  "summary.@@": 6485,
  "argtypes": 6486,
  "throws": 6487,
  "fault": 6488,
  "pagerduty": 6489,
  "subtask": 6490,
  "nose": 6491,
  "post@@": 6492,
  "Handles": 6493,
  "3-D": 6494,
  "resized": 6495,
  "v4": 6496,
  "math.log": 6497,
  "K.zero": 6498,
  "h2": 6499,
  "setup.py": 6500,
  "ings": 6501,
  "VMs": 6502,
  "value.encode": 6503,
  "indicated": 6504,
  "np.cos": 6505,
  "monkey": 6506,
  "unary": 6507,
  "filelist": 6508,
  "decreasing": 6509,
  "installing": 6510,
  "trainable": 6511,
  "saving": 6512,
  "payment": 6513,
  "Where": 6514,
  "70": 6515,
  "foo.@@": 6516,
  "READ": 6517,
  "Region": 6518,
  "ENV": 6519,
  "Client@@": 6520,
  "95": 6521,
  "Special": 6522,
  "1996": 6523,
  "s0": 6524,
  "pd.@@": 6525,
  "exp@@": 6526,
  "tf.cast": 6527,
  "&apos;We": 6528,
  "powers": 6529,
  "sum@@": 6530,
  "slope": 6531,
  "negatives": 6532,
  "Login": 6533,
  "objects&apos;": 6534,
  "vae": 6535,
  "lxc.@@": 6536,
  "ELB": 6537,
  "tf.float32": 6538,
  "Buffer": 6539,
  "over@@": 6540,
  "objects.all": 6541,
  "evaluator": 6542,
  "six.PY2": 6543,
  "sharing": 6544,
  "les": 6545,
  "module.fail": 6546,
  "domain@@": 6547,
  "IPs": 6548,
  "On@@": 6549,
  "Cluster": 6550,
  "os.getpid": 6551,
  "tf.Tensor": 6552,
  "search@@": 6553,
  "caps": 6554,
  "hack": 6555,
  "Resource@@": 6556,
  "datetimes": 6557,
  "sts": 6558,
  "lineage": 6559,
  "scroll": 6560,
  "FOR": 6561,
  "quoting": 6562,
  "exits": 6563,
  "CLIENT": 6564,
  "fl": 6565,
  "paths.append": 6566,
  "factorization": 6567,
  "Success": 6568,
  "stim": 6569,
  "&apos;Fixture": 6570,
  "S.": 6571,
  "triple": 6572,
  "BY": 6573,
  "ded": 6574,
  "uni@@": 6575,
  "temp@@": 6576,
  "Auth@@": 6577,
  "encodes": 6578,
  ".rsplit": 6579,
  "optimized": 6580,
  "no-op": 6581,
  "py.@@": 6582,
  "cube": 6583,
  "highlight": 6584,
  "directory&apos;": 6585,
  "HMAC": 6586,
  "match.start": 6587,
  "os.close": 6588,
  "Target@@": 6589,
  "ldots": 6590,
  "nrows": 6591,
  "affinity": 6592,
  "split@@": 6593,
  "exempt": 6594,
  "ph@@": 6595,
  "Strings": 6596,
  "modifiers": 6597,
  "first@@": 6598,
  "shlex.split": 6599,
  "noop": 6600,
  "browse": 6601,
  "approved": 6602,
  "localtime": 6603,
  "ties": 6604,
  "settings.startMainLoopFromConstructor": 6605,
  "regex.match": 6606,
  "reject": 6607,
  "strs": 6608,
  "theano.config.floatX": 6609,
  "resource.@@": 6610,
  "Pool": 6611,
  "skimage": 6612,
  "SYSTEM": 6613,
  "caused": 6614,
  "submitted": 6615,
  "algo": 6616,
  "ordinal": 6617,
  "submission": 6618,
  "popen": 6619,
  "copying": 6620,
  "A1": 6621,
  "residuals": 6622,
  "s.iteritems": 6623,
  "request.POST.get": 6624,
  "ha1": 6625,
  "affected": 6626,
  "yielding": 6627,
  "float&apos;": 6628,
  "SDK": 6629,
  "cartesian": 6630,
  "device.@@": 6631,
  "LabJackException": 6632,
  "budget": 6633,
  "treeType": 6634,
  "url.@@": 6635,
  "tf.reshape": 6636,
  "03": 6637,
  "modifies": 6638,
  "jboss": 6639,
  "filepaths": 6640,
  "extraction": 6641,
  "Dummy": 6642,
  "Attributes": 6643,
  "emLen": 6644,
  "passwords": 6645,
  "Flag": 6646,
  "cluster.@@": 6647,
  "consume": 6648,
  "wmi": 6649,
  "topological": 6650,
  "traceback.print": 6651,
  "storing": 6652,
  "maxsplit": 6653,
  "Outputs": 6654,
  "collector": 6655,
  "res.append": 6656,
  "Course": 6657,
  "toc": 6658,
  "alloc": 6659,
  "Rule": 6660,
  "unquoted": 6661,
  "surf": 6662,
  "02@@": 6663,
  "toggle": 6664,
  "contribution": 6665,
  "k1": 6666,
  "overwritten": 6667,
  "u.deg": 6668,
  "Find@@": 6669,
  "XXX": 6670,
  "commas": 6671,
  "exts": 6672,
  "stat@@": 6673,
  "unlink": 6674,
  "gz": 6675,
  "MM": 6676,
  "hyper": 6677,
  "Tag@@": 6678,
  "collapsed": 6679,
  "IPv4Network": 6680,
  "determining": 6681,
  "string@@": 6682,
  "builder.@@": 6683,
  "smooth": 6684,
  "velocity": 6685,
  "submodule": 6686,
  "vmax": 6687,
  "findall": 6688,
  "Counter": 6689,
  "Connect": 6690,
  "2.7": 6691,
  "pootle": 6692,
  "un": 6693,
  "capability": 6694,
  "registry.@@": 6695,
  "res@@": 6696,
  "ld": 6697,
  "CSRF": 6698,
  "tips": 6699,
  "fractional": 6700,
  "s.decode": 6701,
  "increase": 6702,
  "&apos;Registers": 6703,
  "pton": 6704,
  "D.": 6705,
  "pooled": 6706,
  "tempfile": 6707,
  "ip.@@": 6708,
  "Base64": 6709,
  "77@@": 6710,
  "episodes": 6711,
  "&apos;Attempts": 6712,
  "cinder": 6713,
  "``unicode``": 6714,
  "rvm": 6715,
  "Seq": 6716,
  "&apos;Merge": 6717,
  "lcm": 6718,
  "PUBLIC": 6719,
  "descendants": 6720,
  ".0": 6721,
  "rule.@@": 6722,
  "circle": 6723,
  "parser.add": 6724,
  "causes": 6725,
  "spec@@": 6726,
  "terminated": 6727,
  "pd": 6728,
  "s.shape": 6729,
  "DN": 6730,
  "Publisher": 6731,
  "triggers": 6732,
  "procedure": 6733,
  "type@@": 6734,
  "&apos;test": 6735,
  "common.@@": 6736,
  "sfreq": 6737,
  "lags": 6738,
  "journal": 6739,
  "lorem": 6740,
  "surrounding": 6741,
  "auto-@@": 6742,
  "repositories": 6743,
  "umask": 6744,
  "fits": 6745,
  "dont": 6746,
  "xmax": 6747,
  "config@@": 6748,
  "warns": 6749,
  "socket.@@": 6750,
  "REQUIRED": 6751,
  "ma@@": 6752,
  "subdirectories": 6753,
  "template.@@": 6754,
  "FunctionName": 6755,
  "Float": 6756,
  "trials": 6757,
  "fitted": 6758,
  "opts.@@": 6759,
  "robust": 6760,
  "um@@": 6761,
  "comparable": 6762,
  "--version": 6763,
  "nl": 6764,
  "sr@@": 6765,
  "label@@": 6766,
  "ravel": 6767,
  "`int`": 6768,
  "permutations": 6769,
  "relpath": 6770,
  "fnmatch": 6771,
  "encoders": 6772,
  "concurrent": 6773,
  "receivers": 6774,
  "&apos;Method": 6775,
  "t``": 6776,
  "succeeds": 6777,
  "EC2": 6778,
  "tions": 6779,
  "app.config": 6780,
  "np.hstack": 6781,
  "sdist": 6782,
  "Computation": 6783,
  "AR@@": 6784,
  "150": 6785,
  "apis": 6786,
  "solver": 6787,
  "resultant": 6788,
  "residue": 6789,
  "gradients": 6790,
  "UI": 6791,
  "prepended": 6792,
  "Job@@": 6793,
  "GCE": 6794,
  "tap": 6795,
  "wanted": 6796,
  "numpy.allclose": 6797,
  ".parse": 6798,
  "marketing": 6799,
  "skew": 6800,
  "reasonable": 6801,
  "Instance@@": 6802,
  "Source@@": 6803,
  "kv": 6804,
  "&apos;Verifies": 6805,
  "numpy.zeros": 6806,
  "Points": 6807,
  "threaded": 6808,
  "init@@": 6809,
  "nbins": 6810,
  "automatic": 6811,
  "bandwidth": 6812,
  "Enabled": 6813,
  "em": 6814,
  "op.@@": 6815,
  "backslash": 6816,
  "ElementTree": 6817,
  "mesh": 6818,
  "ft": 6819,
  "suppressed": 6820,
  "formatters": 6821,
  "target@@": 6822,
  "wise": 6823,
  "hmac.new": 6824,
  "errno.ENOENT": 6825,
  "ce": 6826,
  "MNE": 6827,
  "interest": 6828,
  "stanza": 6829,
  "shallow": 6830,
  "AP@@": 6831,
  "sympy.polys.galoistools": 6832,
  "fabtools.@@": 6833,
  "greenlets": 6834,
  "Extension": 6835,
  "49@@": 6836,
  "brightness": 6837,
  "PATTERN": 6838,
  "np.isnan": 6839,
  "source.@@": 6840,
  "basepath": 6841,
  "subprocess.call": 6842,
  "Works": 6843,
  "slightly": 6844,
  "mixin": 6845,
  "mix": 6846,
  "Row": 6847,
  "trans@@": 6848,
  "urlsafe": 6849,
  "nt.assert": 6850,
  "errmsg": 6851,
  "Store": 6852,
  "value.lower": 6853,
  "xdg": 6854,
  "pp@@": 6855,
  "01@@": 6856,
  "outstr": 6857,
  "completely": 6858,
  "classify": 6859,
  "vmin": 6860,
  "comparing": 6861,
  "paired": 6862,
  "&apos;G@@": 6863,
  "devname": 6864,
  "leaving": 6865,
  "aligned": 6866,
  "ta@@": 6867,
  "restrictions": 6868,
  "Accepts": 6869,
  "errors.append": 6870,
  "Vary": 6871,
  "Match": 6872,
  "satisfy": 6873,
  "conn.list": 6874,
  "touch": 6875,
  "provider.@@": 6876,
  "zk": 6877,
  "62": 6878,
  "96": 6879,
  "ipaddress": 6880,
  "noverlap": 6881,
  "ciphertext": 6882,
  "np.r": 6883,
  "ER@@": 6884,
  "unspecified": 6885,
  "stylesheet": 6886,
  "substitutions": 6887,
  "dell": 6888,
  "dist@@": 6889,
  "Prefix": 6890,
  "Version@@": 6891,
  "infoblox": 6892,
  "minibatch": 6893,
  "generator.@@": 6894,
  "network.@@": 6895,
  "repo.@@": 6896,
  "resp.@@": 6897,
  "network@@": 6898,
  "available&apos;": 6899,
  "signs": 6900,
  "template.render": 6901,
  "redirected": 6902,
  "3.1": 6903,
  "Keras": 6904,
  "base64.b64decode": 6905,
  "plugin.@@": 6906,
  "2-tuples": 6907,
  "web.@@": 6908,
  "jn": 6909,
  "octet": 6910,
  "sysv": 6911,
  "il@@": 6912,
  "MEG": 6913,
  "expr.args": 6914,
  "u1": 6915,
  "termination": 6916,
  "Leaf": 6917,
  "sigma2": 6918,
  "rel@@": 6919,
  "unmodified": 6920,
  "1j": 6921,
  "nx.Graph": 6922,
  "UNICODE": 6923,
  "proportion": 6924,
  "roll": 6925,
  "IIS": 6926,
  "fr": 6927,
  "key-value": 6928,
  "SETTINGS": 6929,
  "revoke": 6930,
  "flash": 6931,
  "textual": 6932,
  "playback": 6933,
  "&apos;Turns": 6934,
  "&apos;Called": 6935,
  ".strftime": 6936,
  "crash": 6937,
  "38@@": 6938,
  "Computes": 6939,
  "workunit": 6940,
  "clipped": 6941,
  "&apos;Sort": 6942,
  "et@@": 6943,
  "invocation": 6944,
  "ignores": 6945,
  "cur@@": 6946,
  "ed&apos;": 6947,
  "refers": 6948,
  "tick": 6949,
  "&apos;M@@": 6950,
  "xmlns": 6951,
  "But": 6952,
  "lin@@": 6953,
  "consistency": 6954,
  "measurement": 6955,
  "Supported": 6956,
  "cp@@": 6957,
  "scheduled": 6958,
  "needle": 6959,
  "NO@@": 6960,
  "regularizer": 6961,
  "image@@": 6962,
  "fold": 6963,
  "os.rename": 6964,
  "seen.add": 6965,
  "orthogonal": 6966,
  "Minimal": 6967,
  "openstack": 6968,
  "incomplete": 6969,
  "str.split": 6970,
  "tmpl": 6971,
  "for@@": 6972,
  "Site": 6973,
  "Unlike": 6974,
  "Pow": 6975,
  "201@@": 6976,
  "Passing": 6977,
  "SECRET": 6978,
  "learn": 6979,
  "38": 6980,
  "ngram": 6981,
  "regularization": 6982,
  "math.ceil": 6983,
  "token@@": 6984,
  "chance": 6985,
  "proposed": 6986,
  "contexts": 6987,
  "geo": 6988,
  "latitude": 6989,
  "blockdevice": 6990,
  "SCHEMA": 6991,
  "node2": 6992,
  "storage.@@": 6993,
  "datetime.datetime.utcnow": 6994,
  "em@@": 6995,
  "activated": 6996,
  "conferences": 6997,
  "nginx": 6998,
  "cookiecutter": 6999,
  "Function@@": 7000,
  "Out": 7001,
  "np.where": 7002,
  "Step": 7003,
  "`User": 7004,
  "im2": 7005,
  "identifying": 7006,
  "JS": 7007,
  "Input@@": 7008,
  "decrypted": 7009,
  "block.@@": 7010,
  "&apos;Decodes": 7011,
  "port@@": 7012,
  "delimited": 7013,
  "rawtext": 7014,
  "84@@": 7015,
  "REDIRECT": 7016,
  "Include": 7017,
  "banner": 7018,
  "subgraph": 7019,
  "hsv": 7020,
  "copy@@": 7021,
  "rp": 7022,
  "56": 7023,
  "sys.platform.startswith": 7024,
  "fonts": 7025,
  "descendant": 7026,
  "exceeded": 7027,
  "stamp": 7028,
  "dimshuffle": 7029,
  "astype": 7030,
  "time.strftime": 7031,
  "101": 7032,
  "hashlib.sha256": 7033,
  "d-": 7034,
  "Model@@": 7035,
  "dm": 7036,
  "Possible": 7037,
  "ss@@": 7038,
  "loader.get": 7039,
  "header@@": 7040,
  "attempted": 7041,
  "vec1": 7042,
  "df.@@": 7043,
  "importlib.import": 7044,
  "docs.python.org": 7045,
  "reachable": 7046,
  "4-D": 7047,
  "request.set": 7048,
  "&apos;Iterate": 7049,
  "cm@@": 7050,
  "RO@@": 7051,
  "git.@@": 7052,
  "trivial": 7053,
  "Raw": 7054,
  "prototype": 7055,
  "dict2": 7056,
  "NUM": 7057,
  "Shift": 7058,
  "value.replace": 7059,
  "keypair": 7060,
  "rad": 7061,
  "focus": 7062,
  "output&apos;": 7063,
  "COURSE": 7064,
  "path.append": 7065,
  "poles": 7066,
  "--action": 7067,
  "Pro@@": 7068,
  "`k": 7069,
  "MODEL": 7070,
  "Operation": 7071,
  "dict@@": 7072,
  "``str``&apos;": 7073,
  "ctypes.byref": 7074,
  "sandbox": 7075,
  "output.write": 7076,
  "37": 7077,
  "attrib": 7078,
  "pytest.mark.django": 7079,
  "modifier": 7080,
  "coils": 7081,
  "y`": 7082,
  "401": 7083,
  "Non@@": 7084,
  "plotting": 7085,
  "Select": 7086,
  "S3@@": 7087,
  "camera": 7088,
  "pdb": 7089,
  "Headers": 7090,
  "Zhang": 7091,
  "divided": 7092,
  "device@@": 7093,
  "soup": 7094,
  "3.5": 7095,
  "synchronous": 7096,
  "np.dtype": 7097,
  "Time@@": 7098,
  ".to": 7099,
  "back@@": 7100,
  "sk@@": 7101,
  "as-is": 7102,
  "-e": 7103,
  "111": 7104,
  "forever": 7105,
  "os.curdir": 7106,
  "sympy.polys.densebasic": 7107,
  "Email": 7108,
  "key.startswith": 7109,
  "geom": 7110,
  "differs": 7111,
  "vb": 7112,
  "NUMBER": 7113,
  "dyad": 7114,
  "c3": 7115,
  "osquery.@@": 7116,
  "&apos;create": 7117,
  "y.shape": 7118,
  "illegal": 7119,
  "stringfilter": 7120,
  "dockerng.@@": 7121,
  "mri": 7122,
  "cursor.execute": 7123,
  "emr": 7124,
  "nav": 7125,
  "Microsoft": 7126,
  "datetime.@@": 7127,
  "Lists": 7128,
  "Allow": 7129,
  "sized": 7130,
  "Euclidean": 7131,
  "decimal.Decimal": 7132,
  "ave": 7133,
  "orm": 7134,
  "peers": 7135,
  "mn": 7136,
  "theano.tensor.@@": 7137,
  "getCraftedTextFromText": 7138,
  "hints": 7139,
  "webapp": 7140,
  "C1": 7141,
  "Objects": 7142,
  "st.st": 7143,
  "UNKNOWN": 7144,
  "m.groups": 7145,
  "logging.exception": 7146,
  "functional": 7147,
  "Title": 7148,
  "substring": 7149,
  "NB": 7150,
  "slaves": 7151,
  "clsid": 7152,
  "fi": 7153,
  "Display": 7154,
  "renewal": 7155,
  "succeed": 7156,
  "54": 7157,
  "fetched": 7158,
  "validity": 7159,
  "qsl": 7160,
  "Per": 7161,
  "set.@@": 7162,
  "rdclass": 7163,
  "vel": 7164,
  "tidy": 7165,
  "66@@": 7166,
  "Execute": 7167,
  "retained": 7168,
  "ADDRESS": 7169,
  "Flocker": 7170,
  "tool@@": 7171,
  "Token@@": 7172,
  "map.get": 7173,
  "os.urandom": 7174,
  "index.html": 7175,
  "extends": 7176,
  "ymax": 7177,
  "-1.@@": 7178,
  "distrib": 7179,
  "tf.add": 7180,
  "blocked": 7181,
  "edX": 7182,
  "os.system": 7183,
  "WRITEME&apos;": 7184,
  "oauth2": 7185,
  "grep": 7186,
  "fstype": 7187,
  "ER": 7188,
  "Journal": 7189,
  "divergence": 7190,
  "iControl": 7191,
  "&apos;Parameters": 7192,
  "gray": 7193,
  "gca": 7194,
  "courseware": 7195,
  "s.index": 7196,
  "Metadata": 7197,
  "ne": 7198,
  "Num": 7199,
  "0.75": 7200,
  "syspath": 7201,
  "tor@@": 7202,
  "user.email": 7203,
  "-u": 7204,
  "&apos;ascii": 7205,
  "pvals": 7206,
  "other@@": 7207,
  "vis": 7208,
  "crt": 7209,
  "strength": 7210,
  "rebuild": 7211,
  "BeautifulSoup": 7212,
  "&apos;set": 7213,
  "official": 7214,
  "Wiley": 7215,
  "Reactor": 7216,
  "privacy": 7217,
  "Logger": 7218,
  "view.@@": 7219,
  ".r@@": 7220,
  "ding": 7221,
  "FILENAME": 7222,
  "Current": 7223,
  "Tool@@": 7224,
  "super@@": 7225,
  "xxx": 7226,
  "v.": 7227,
  "dbs": 7228,
  "&apos;Look": 7229,
  "stem": 7230,
  "&apos;Executes": 7231,
  "frappe.whitelist": 7232,
  "rar": 7233,
  "dbref": 7234,
  "fac": 7235,
  "settings.DEBUG": 7236,
  "i1": 7237,
  "s.html": 7238,
  "matvec": 7239,
  "output.@@": 7240,
  "invoking": 7241,
  "ctr": 7242,
  "simplified": 7243,
  "TAG": 7244,
  "&apos;Attach": 7245,
  "fobj": 7246,
  "ret.@@": 7247,
  "08": 7248,
  "pn": 7249,
  "responsible": 7250,
  "link@@": 7251,
  "Couldn": 7252,
  "unify": 7253,
  "buffering": 7254,
  "OUT": 7255,
  "UserWarning": 7256,
  "arg1": 7257,
  "&apos;API": 7258,
  "svg": 7259,
  "sorts": 7260,
  "RFC@@": 7261,
  "&apos;Insert": 7262,
  "embedding": 7263,
  "process.@@": 7264,
  "discovered": 7265,
  "Comment": 7266,
  "urllib.urlencode": 7267,
  "deterministic": 7268,
  "im1": 7269,
  "interesting": 7270,
  "grayscale": 7271,
  "kernels": 7272,
  "pointing": 7273,
  "strftime": 7274,
  "ul@@": 7275,
  "cPickle.load": 7276,
  ".list": 7277,
  "reviews": 7278,
  "fromlist": 7279,
  "np.vstack": 7280,
  "limiting": 7281,
  "ve@@": 7282,
  "08@@": 7283,
  "shares": 7284,
  "Root": 7285,
  "arp": 7286,
  "quarter": 7287,
  "led": 7288,
  "coefs": 7289,
  "xor": 7290,
  "taxa": 7291,
  "reserve": 7292,
  "scatter": 7293,
  "Supports": 7294,
  "Bob": 7295,
  "ntp": 7296,
  "Offset": 7297,
  "thin": 7298,
  "privilege": 7299,
  "rounds": 7300,
  "client@@": 7301,
  "yellow": 7302,
  "keeps": 7303,
  "PY2": 7304,
  "sys@@": 7305,
  "displaying": 7306,
  "1.3": 7307,
  "joins": 7308,
  "05": 7309,
  "quad": 7310,
  "sec@@": 7311,
  "dp": 7312,
  "chunked": 7313,
  "pi@@": 7314,
  "EMPTY": 7315,
  "&apos;Select": 7316,
  "transformations": 7317,
  "stack@@": 7318,
  "extractor": 7319,
  "value.strip": 7320,
  "probe": 7321,
  "thread@@": 7322,
  "longitude": 7323,
  "has@@": 7324,
  "ENABLE": 7325,
  "violations": 7326,
  "NFFT": 7327,
  "blah": 7328,
  "multinomial": 7329,
  "vec2": 7330,
  "vg": 7331,
  "Width": 7332,
  "lti": 7333,
  "CMS": 7334,
  "000": 7335,
  "LOG.info": 7336,
  "signup": 7337,
  "service@@": 7338,
  "G.name": 7339,
  "lockfile": 7340,
  "closes": 7341,
  "dat@@": 7342,
  "DER": 7343,
  "interface.@@": 7344,
  "visibility": 7345,
  "&apos;Calls": 7346,
  "read-only": 7347,
  "keras": 7348,
  "developer": 7349,
  "job@@": 7350,
  "harmonic": 7351,
  "dark": 7352,
  "man@@": 7353,
  "stochastic": 7354,
  "Block": 7355,
  "kern": 7356,
  "1000000": 7357,
  "isdir": 7358,
  "to&apos;": 7359,
  "saves": 7360,
  "numpy.dot": 7361,
  "npm": 7362,
  "HTML@@": 7363,
  "secgroup": 7364,
  "np.allclose": 7365,
  "qry": 7366,
  "b2": 7367,
  "obj@@": 7368,
  "joining": 7369,
  "settings.LANGUAGE": 7370,
  "tetragrid": 7371,
  "recv": 7372,
  "card": 7373,
  "gce": 7374,
  "wi@@": 7375,
  "2013": 7376,
  "non-empty": 7377,
  "documented": 7378,
  "Username": 7379,
  "plugins.@@": 7380,
  "&apos;given": 7381,
  "oslo": 7382,
  "exiting": 7383,
  "crossover": 7384,
  "→": 7385,
  "fitting": 7386,
  "ify": 7387,
  "Type.@@": 7388,
  "movie": 7389,
  "es&apos;": 7390,
  "scoped": 7391,
  "SHA1": 7392,
  "100000": 7393,
  "dev@@": 7394,
  "quotient": 7395,
  "masks": 7396,
  "composed": 7397,
  "Once": 7398,
  "sig@@": 7399,
  "p`": 7400,
  "Additionally": 7401,
  "Effect": 7402,
  "restrict": 7403,
  "resets": 7404,
  "Evoked": 7405,
  ".mean": 7406,
  "7&apos;": 7407,
  "multiplied": 7408,
  "puts": 7409,
  "apt": 7410,
  "ni": 7411,
  "LOG.exception": 7412,
  ".ravel": 7413,
  "plt.figure": 7414,
  "relationships": 7415,
  "manner": 7416,
  "59": 7417,
  "AD@@": 7418,
  "name.strip": 7419,
  "：": 7420,
  "INVALID": 7421,
  "communicate": 7422,
  "signal.@@": 7423,
  "&apos;See": 7424,
  "tools.@@": 7425,
  "plots": 7426,
  "600": 7427,
  "y``": 7428,
  "aka": 7429,
  "sanity": 7430,
  "rescale": 7431,
  "flask": 7432,
  "independently": 7433,
  "api.get": 7434,
  "Parent": 7435,
  "simulate": 7436,
  "x.dtype": 7437,
  "settings.FEATURES.get": 7438,
  "&apos;Filters": 7439,
  "Style": 7440,
  "RESET": 7441,
  "yml": 7442,
  "syms": 7443,
  "statusContent": 7444,
  "unichr": 7445,
  "buffers": 7446,
  "sk": 7447,
  "srid": 7448,
  "songs": 7449,
  ".iteritems": 7450,
  ".git": 7451,
  "selections": 7452,
  "adjustment": 7453,
  "JID": 7454,
  "distname": 7455,
  "Labels": 7456,
  "HANDLER": 7457,
  "&apos;Generator": 7458,
  "map.@@": 7459,
  "LE@@": 7460,
  "kappa": 7461,
  "&apos;Default": 7462,
  "structures": 7463,
  "brackets": 7464,
  "69@@": 7465,
  "Table@@": 7466,
  "arg.@@": 7467,
  "Scale": 7468,
  "6.0": 7469,
  "Edge": 7470,
  "pty": 7471,
  "call@@": 7472,
  "yaml.safe": 7473,
  "last@@": 7474,
  "getnode": 7475,
  "gather": 7476,
  "rss": 7477,
  "videos": 7478,
  "col.@@": 7479,
  "time.gmtime": 7480,
  "Tk": 7481,
  "tld": 7482,
  "per-@@": 7483,
  "dashes": 7484,
  "mainly": 7485,
  "Loops": 7486,
  "usual": 7487,
  "debian": 7488,
  "us@@": 7489,
  "sys.stdout.flush": 7490,
  "P.": 7491,
  "accurate": 7492,
  "QUrl": 7493,
  "8.0": 7494,
  "0``": 7495,
  "index@@": 7496,
  "ymin": 7497,
  "EEG": 7498,
  ".type": 7499,
  "calculating": 7500,
  "Sons": 7501,
  "Matplotlib": 7502,
  "&apos;check": 7503,
  "Checker": 7504,
  "Filter@@": 7505,
  "AS": 7506,
  "portage": 7507,
  "cn": 7508,
  "10.0": 7509,
  "04": 7510,
  "er`": 7511,
  "da": 7512,
  "datastr": 7513,
  "kn": 7514,
  "injection": 7515,
  "shards": 7516,
  "p.communicate": 7517,
  "decide": 7518,
  "subtree": 7519,
  "LOCK": 7520,
  "contributions": 7521,
  "ness": 7522,
  "fig.add": 7523,
  "4096": 7524,
  "archive.getTextIfEmpty": 7525,
  "approval": 7526,
  ".exists": 7527,
  "rois": 7528,
  "&apos;Clean": 7529,
  "dir`": 7530,
  "io.open": 7531,
  "cargs": 7532,
  "owned": 7533,
  "Delete@@": 7534,
  "request.headers": 7535,
  "lemma": 7536,
  "&apos;Configure": 7537,
  "dll": 7538,
  "analyze": 7539,
  "getframe": 7540,
  "2016.3.4": 7541,
  "spaced": 7542,
  "entering": 7543,
  "class.@@": 7544,
  "cant": 7545,
  "english": 7546,
  "Derivation": 7547,
  "colordown": 7548,
  "scans": 7549,
  "socket.inet": 7550,
  "sion": 7551,
  "8&apos;": 7552,
  "rmtree": 7553,
  "colorup": 7554,
  "strictly": 7555,
  "Output@@": 7556,
  "salt.@@": 7557,
  "Derivative": 7558,
  "prop.@@": 7559,
  ".where": 7560,
  "newest": 7561,
  "Skipping": 7562,
  "Vector3": 7563,
  "K0": 7564,
  "ator": 7565,
  "forget": 7566,
  "mac@@": 7567,
  "variation": 7568,
  "e&apos;": 7569,
  "e.g": 7570,
  "redis.@@": 7571,
  "&apos;A@@": 7572,
  "lab": 7573,
  "chisquare": 7574,
  "fixup": 7575,
  "&apos;Displays": 7576,
  "tris": 7577,
  "array@@": 7578,
  "soon": 7579,
  "guard": 7580,
  "Network@@": 7581,
  "idea": 7582,
  "a.ndim": 7583,
  "music": 7584,
  "ct@@": 7585,
  "msbuild": 7586,
  "UPDATE": 7587,
  "AGENT": 7588,
  "nonnegative": 7589,
  "bugs": 7590,
  "rooms": 7591,
  "snmp": 7592,
  "unstable": 7593,
  ".render": 7594,
  "profilers": 7595,
  "`y": 7596,
  "submodules": 7597,
  "tweets": 7598,
  "Custom@@": 7599,
  "ge": 7600,
  "vm@@": 7601,
  "stack.append": 7602,
  "Usually": 7603,
  "Therefore": 7604,
  "module.params": 7605,
  "key1": 7606,
  "rdf": 7607,
  "X509": 7608,
  "tag.@@": 7609,
  "games": 7610,
  "referer": 7611,
  "datadir": 7612,
  "user&apos;": 7613,
  "usec": 7614,
  "aff4": 7615,
  "cr@@": 7616,
  ".run": 7617,
  "07": 7618,
  "model@@": 7619,
  "06": 7620,
  "jj": 7621,
  "53": 7622,
  "inrec": 7623,
  "requester": 7624,
  "`text`": 7625,
  "88@@": 7626,
  "ExtraArgs": 7627,
  "c-@@": 7628,
  "ator@@": 7629,
  "np.random.uniform": 7630,
  "CHUNK": 7631,
  "96@@": 7632,
  "stack.pop": 7633,
  "flowgrams": 7634,
  "artists": 7635,
  "Bessel": 7636,
  "raw@@": 7637,
  "OS@@": 7638,
  "package@@": 7639,
  "deal": 7640,
  "zipfile.ZipFile": 7641,
  "k.startswith": 7642,
  "class@@": 7643,
  "existence": 7644,
  "Be": 7645,
  "recently": 7646,
  "lv": 7647,
  "AC@@": 7648,
  "with@@": 7649,
  "BAD": 7650,
  "recorded": 7651,
  "12.@@": 7652,
  ".json": 7653,
  "dataset.@@": 7654,
  "host.@@": 7655,
  "Entity": 7656,
  "EN@@": 7657,
  "ensuring": 7658,
  "kurtosis": 7659,
  "Link@@": 7660,
  "deployer": 7661,
  "CUDA": 7662,
  "stacks": 7663,
  "DAY": 7664,
  "FreeBSD": 7665,
  "committed": 7666,
  "eventually": 7667,
  "generalized": 7668,
  "``GF": 7669,
  "09@@": 7670,
  "jd": 7671,
  "1e-08": 7672,
  "2015": 7673,
  ".extend": 7674,
  "Category": 7675,
  "Generate": 7676,
  "overriding": 7677,
  "&apos;In": 7678,
  "enroll": 7679,
  "snippets": 7680,
  "concurrency": 7681,
  "Similar": 7682,
  "parser.delete": 7683,
  "incr": 7684,
  "Gamma": 7685,
  "identifies": 7686,
  "ENABLED": 7687,
  "i`": 7688,
  "prerequisite": 7689,
  "`mne.verbose`": 7690,
  "beacons": 7691,
  "`Logging": 7692,
  "paragraphs": 7693,
  "`n": 7694,
  "redundant": 7695,
  "eigenvalue": 7696,
  "R.": 7697,
  "MyClass": 7698,
  "itervalues": 7699,
  "tut": 7700,
  "ids.append": 7701,
  "En@@": 7702,
  "concrete": 7703,
  "Plotly": 7704,
  "Analysis": 7705,
  "SymPy": 7706,
  "System.@@": 7707,
  "False``": 7708,
  "shadow": 7709,
  "return@@": 7710,
  "logger.@@": 7711,
  "entered": 7712,
  "Sh@@": 7713,
  "methodname": 7714,
  "evaluates": 7715,
  "ADMIN": 7716,
  "ine": 7717,
  "hp": 7718,
  "string1": 7719,
  "C3": 7720,
  "realtime": 7721,
  "i0": 7722,
  "decision": 7723,
  "Deleted": 7724,
  "BEM": 7725,
  "response.get": 7726,
  "hi@@": 7727,
  "Targets": 7728,
  "English": 7729,
  "Try": 7730,
  "admins": 7731,
  "fps": 7732,
  "ng": 7733,
  "appropriately": 7734,
  "AdWordsClient": 7735,
  "sibling": 7736,
  "p.returncode": 7737,
  "``obj``": 7738,
  "Op": 7739,
  "HH": 7740,
  "tot": 7741,
  "manager.get": 7742,
  "Content-Length": 7743,
  "binomial": 7744,
  "classpath": 7745,
  "pytest.mark.skipif": 7746,
  "auths": 7747,
  "key2": 7748,
  "ds.@@": 7749,
  "tells": 7750,
  "&apos;Mark": 7751,
  "regroup": 7752,
  "Information": 7753,
  "comp@@": 7754,
  "purchase": 7755,
  "us-east-1&apos;": 7756,
  "nu": 7757,
  "bd": 7758,
  "HttpRequest": 7759,
  "name2": 7760,
  "forced": 7761,
  "cmd.@@": 7762,
  "fs.@@": 7763,
  "directions": 7764,
  "exists&apos;": 7765,
  "helpers.@@": 7766,
  "Host@@": 7767,
  "Review": 7768,
  "user-@@": 7769,
  "dic": 7770,
  "summ": 7771,
  "string.encode": 7772,
  "Encode": 7773,
  "SEPARATOR": 7774,
  "pl@@": 7775,
  "checkpoints": 7776,
  "loc@@": 7777,
  "apple": 7778,
  "assoc": 7779,
  "queried": 7780,
  "2004": 7781,
  "deco": 7782,
  "wo": 7783,
  "C2": 7784,
  "&apos;http": 7785,
  "mycontainer": 7786,
  "http.@@": 7787,
  "envelope": 7788,
  "rid": 7789,
  "five": 7790,
  "PEP": 7791,
  "size`": 7792,
  "com.@@": 7793,
  "semantics": 7794,
  "crl": 7795,
  "refine": 7796,
  "yy": 7797,
  "COMMENT": 7798,
  "behaves": 7799,
  "Figure": 7800,
  "packs": 7801,
  "02x": 7802,
  "routines": 7803,
  "conflicts": 7804,
  "ascent": 7805,
  "recursion": 7806,
  "array.@@": 7807,
  "upgrades": 7808,
  "0.0@@": 7809,
  "backslashes": 7810,
  "Linear": 7811,
  "bust": 7812,
  "’": 7813,
  "returners": 7814,
  "DICT": 7815,
  "cherrypy.log": 7816,
  "jit": 7817,
  "analytics": 7818,
  "COM": 7819,
  "settings.get": 7820,
  "annotated": 7821,
  "sheet": 7822,
  "f.readline": 7823,
  "ELLIPSIS": 7824,
  ".index": 7825,
  "customization": 7826,
  "120": 7827,
  "preload": 7828,
  "ugettext": 7829,
  "Shanjie": 7830,
  "Jin": 7831,
  "Jianming": 7832,
  "sq": 7833,
  "HTTPConnection": 7834,
  "fix@@": 7835,
  "initiator": 7836,
  "caught": 7837,
  "wildcards": 7838,
  "2nd": 7839,
  "six.binary": 7840,
  "logger.addHandler": 7841,
  "ance": 7842,
  "earth": 7843,
  "api@@": 7844,
  "cohorted": 7845,
  "savepoint": 7846,
  "x.strip": 7847,
  "img.@@": 7848,
  "bilinear": 7849,
  "48@@": 7850,
  "PROJECT": 7851,
  "If@@": 7852,
  "fo@@": 7853,
  "unsubscribe": 7854,
  "numa": 7855,
  "useless": 7856,
  "Start@@": 7857,
  "email.@@": 7858,
  "coach": 7859,
  "ranks": 7860,
  "Per@@": 7861,
  "bookmarks": 7862,
  "openshift": 7863,
  "fin@@": 7864,
  "SZ": 7865,
  "seeds": 7866,
  "cloned": 7867,
  "json.load": 7868,
  "unlock": 7869,
  "Unknown@@": 7870,
  "string.digits": 7871,
  "acts": 7872,
  "constrained": 7873,
  "environments": 7874,
  "tempfile.NamedTemporaryFile": 7875,
  "maxiter": 7876,
  "tri@@": 7877,
  "disassociate": 7878,
  "type``": 7879,
  "mine": 7880,
  "guide": 7881,
  "Press": 7882,
  "refname": 7883,
  "virt.@@": 7884,
  "Be@@": 7885,
  "sents": 7886,
  "result.files": 7887,
  "yi": 7888,
  "rabbitmqctl": 7889,
  "randrange": 7890,
  "mat@@": 7891,
  "``n": 7892,
  "&apos;Splits": 7893,
  "deletes": 7894,
  "PY@@": 7895,
  "parts.pop": 7896,
  "saltutil.sync": 7897,
  "keyboard": 7898,
  "gyp": 7899,
  "rejected": 7900,
  "&apos;Accepts": 7901,
  "case-insensitive": 7902,
  "``b``": 7903,
  "traces": 7904,
  "requests.Response": 7905,
  "Ids": 7906,
  "mt": 7907,
  "construction": 7908,
  "ai": 7909,
  "renderers": 7910,
  "INSERT": 7911,
  "scenarios": 7912,
  "1e-05": 7913,
  "backlog": 7914,
  "redirection": 7915,
  "64-bit": 7916,
  "&apos;Does": 7917,
  "ROLE": 7918,
  "unsuccessful": 7919,
  "bench": 7920,
  "`k`": 7921,
  "ling": 7922,
  "outstream": 7923,
  "Site@@": 7924,
  "TensorFlow": 7925,
  "start.@@": 7926,
  "daily": 7927,
  "subdirectory": 7928,
  "rospack": 7929,
  "views.@@": 7930,
  "bu@@": 7931,
  "defer": 7932,
  "aux": 7933,
  "varkw": 7934,
  "swapped": 7935,
  "PS": 7936,
  "SEP": 7937,
  "fnames": 7938,
  "yum": 7939,
  "sympy.@@": 7940,
  "balancers": 7941,
  "pluralize": 7942,
  "restype": 7943,
  "Thread@@": 7944,
  "literals": 7945,
  "argname": 7946,
  "bytes&apos;": 7947,
  "f0": 7948,
  "bidding": 7949,
  "templatetags": 7950,
  "Axes": 7951,
  "EQUALS": 7952,
  "prune": 7953,
  "in-@@": 7954,
  "Pmf": 7955,
  "families": 7956,
  "COMMAND": 7957,
  "tck": 7958,
  "CHARS": 7959,
  "ev": 7960,
  "subprocess.CalledProcessError": 7961,
  "Force": 7962,
  "0.00@@": 7963,
  "stdlib": 7964,
  "bar@@": 7965,
  "autotest": 7966,
  "ize": 7967,
  "pyc": 7968,
  "JWT": 7969,
  "Max": 7970,
  "85": 7971,
  "Calls": 7972,
  "pe@@": 7973,
  "listdir": 7974,
  "beyond": 7975,
  "2007": 7976,
  "net@@": 7977,
  "Always": 7978,
  "mr": 7979,
  "macOS": 7980,
  "out.write": 7981,
  "similarities": 7982,
  "qemu": 7983,
  "splitted": 7984,
  "z1": 7985,
  "ig@@": 7986,
  "deserialize": 7987,
  "summarize": 7988,
  "peering": 7989,
  "approach": 7990,
  "sslContext": 7991,
  ".png": 7992,
  "&apos;Factory": 7993,
  "complement": 7994,
  "gpg": 7995,
  "hierarchical": 7996,
  "drain": 7997,
  "`iterable`": 7998,
  "getCraftedText": 7999,
  "88": 8000,
  "array&apos;": 8001,
  "futures": 8002,
  "wavelet": 8003,
  "2011": 8004,
  "hex@@": 8005,
  "&apos;Translate": 8006,
  "millis": 8007,
  "nv": 8008,
  "G.@@": 8009,
  "97@@": 8010,
  "0.17.0": 8011,
  "placement": 8012,
  "1000000.0": 8013,
  "treat": 8014,
  "def@@": 8015,
  ".has": 8016,
  "&apos;Con@@": 8017,
  "typed": 8018,
  "monkeypatch.setattr": 8019,
  "navigation": 8020,
  "su@@": 8021,
  "59@@": 8022,
  "Api@@": 8023,
  "mouse": 8024,
  "np.any": 8025,
  "0.0.0.0": 8026,
  "&apos;initialise": 8027,
  "geometric": 8028,
  "overflow": 8029,
  "Update@@": 8030,
  "stale": 8031,
  "PATCH": 8032,
  "ori": 8033,
  "calculations": 8034,
  "Validate@@": 8035,
  ".2f": 8036,
  "mounts": 8037,
  "u3Handle": 8038,
  "SOURCE": 8039,
  "topo": 8040,
  "go@@": 8041,
  "Connection`": 8042,
  "pmf": 8043,
  "cc@@": 8044,
  "Role": 8045,
  "inf@@": 8046,
  "jpeg": 8047,
  "stonith": 8048,
  "Hash": 8049,
  "0.7": 8050,
  "izip": 8051,
  "convenient": 8052,
  "text.@@": 8053,
  "weakly": 8054,
  "foo&apos;": 8055,
  "ylabel": 8056,
  "Load@@": 8057,
  "npy": 8058,
  "als": 8059,
  "Encoding": 8060,
  "obj.get": 8061,
  "Dis@@": 8062,
  "fieldset": 8063,
  "univariate": 8064,
  "Copy": 8065,
  "Has": 8066,
  ".remove": 8067,
  "Some@@": 8068,
  "os.path.normcase": 8069,
  "Action@@": 8070,
  "biom": 8071,
  "salt.modules.@@": 8072,
  "-b": 8073,
  "nat": 8074,
  "grab": 8075,
  "FFT": 8076,
  "Shape": 8077,
  "atleast": 8078,
  "logging.@@": 8079,
  "os@@": 8080,
  "helpers.get": 8081,
  "Ex": 8082,
  "Serializer": 8083,
  "Glance": 8084,
  "origin@@": 8085,
  "tornado": 8086,
  "TARGET": 8087,
  "ETag": 8088,
  ".is@@": 8089,
  "put@@": 8090,
  "langs": 8091,
  "&apos;convert": 8092,
  "uint16": 8093,
  "IC@@": 8094,
  "NODE": 8095,
  "qualities": 8096,
  "Problem": 8097,
  "DIRS": 8098,
  "numPatterns": 8099,
  "np.sort": 8100,
  "pil": 8101,
  "node.children": 8102,
  "immediate": 8103,
  "Specifically": 8104,
  "icinga2": 8105,
  "Creating": 8106,
  "clipboard": 8107,
  "filePath": 8108,
  "Script": 8109,
  "Destination": 8110,
  "octets": 8111,
  "dependents": 8112,
  "websocket": 8113,
  "OFF": 8114,
  "L.append": 8115,
  "np.int32": 8116,
  "intp": 8117,
  "reporting": 8118,
  "fh.write": 8119,
  "mode@@": 8120,
  "Write": 8121,
  "name.encode": 8122,
  "Properties": 8123,
  "All@@": 8124,
  "headers.get": 8125,
  "misc": 8126,
  "autospec": 8127,
  "messages.@@": 8128,
  "ENGINE": 8129,
  "UserRPC": 8130,
  ".exe": 8131,
  "d.get": 8132,
  "jin.ece.illinois.edu": 8133,
  "&apos;Reset": 8134,
  "Params": 8135,
  "ustr": 8136,
  "graded": 8137,
  "whenever": 8138,
  "Distance": 8139,
  "replies": 8140,
  "vi": 8141,
  "signatures": 8142,
  "matplotlib.@@": 8143,
  "memcached": 8144,
  "-id": 8145,
  "likes": 8146,
  "spans": 8147,
  "Cache-Control": 8148,
  "keeping": 8149,
  "header.@@": 8150,
  "garbage": 8151,
  "startIndex": 8152,
  "FileName": 8153,
  "&apos;Error": 8154,
  "Else": 8155,
  "process@@": 8156,
  "word@@": 8157,
  "urlpatterns": 8158,
  "honor": 8159,
  "envs": 8160,
  "&apos;default": 8161,
  "thread.start": 8162,
  "scope.@@": 8163,
  "cygwin": 8164,
  "fabmetheus": 8165,
  "infinity": 8166,
  "latin-1": 8167,
  "Frame": 8168,
  "build-@@": 8169,
  "fqdn": 8170,
  "0,@@": 8171,
  "Bar": 8172,
  "ever": 8173,
  "time.localtime": 8174,
  "VALUES": 8175,
  "sitedir": 8176,
  "ze": 8177,
  "CLASSES": 8178,
  "rater": 8179,
  "ia": 8180,
  ".set@@": 8181,
  "chs": 8182,
  "ParseError": 8183,
  "fourier": 8184,
  "INT": 8185,
  "factory.@@": 8186,
  "equations": 8187,
  "random.randrange": 8188,
  "batched": 8189,
  "present&apos;": 8190,
  "segs": 8191,
  "UTF8": 8192,
  "listeners": 8193,
  "Middleware": 8194,
  "repeats": 8195,
  "service&apos;": 8196,
  "request.headers.get": 8197,
  "Linode": 8198,
  "Ex@@": 8199,
  "nargs": 8200,
  "Inputs": 8201,
  "ref.@@": 8202,
  "log.warn": 8203,
  "np.logical": 8204,
  "``f": 8205,
  "inserting": 8206,
  "buildout": 8207,
  "recarray": 8208,
  "Initial": 8209,
  "viewname": 8210,
  "gemset": 8211,
  "zmq": 8212,
  "capitalize": 8213,
  "Algorithm": 8214,
  "CG@@": 8215,
  "SEARCH": 8216,
  "metavar": 8217,
  "STDOUT": 8218,
  "backend.@@": 8219,
  "76@@": 8220,
  "tid": 8221,
  "salt.utils.get": 8222,
  "ta": 8223,
  "www": 8224,
  "Find": 8225,
  "errScore": 8226,
  "setUp": 8227,
  "ra": 8228,
  "proto@@": 8229,
  "cancelled": 8230,
  "package1": 8231,
  "key&apos;": 8232,
  "total@@": 8233,
  "heads": 8234,
  "79@@": 8235,
  "Of@@": 8236,
  "cap": 8237,
  "&apos;Produce": 8238,
  "engines": 8239,
  "&apos;Evaluate": 8240,
  "current.db": 8241,
  "File.@@": 8242,
  "installs": 8243,
  "compilation": 8244,
  "stack.@@": 8245,
  ".gz": 8246,
  "asc": 8247,
  "php": 8248,
  "86": 8249,
  "relations": 8250,
  "tiles": 8251,
  "KEYS": 8252,
  "string.@@": 8253,
  "wx": 8254,
  "ho@@": 8255,
  "tuple&apos;": 8256,
  "pp.": 8257,
  "edge@@": 8258,
  "contextkey": 8259,
  "server&apos;": 8260,
  "mocks": 8261,
  "TLS": 8262,
  "expecting": 8263,
  "Field@@": 8264,
  "py&apos;": 8265,
  "endrec": 8266,
  "Account": 8267,
  "match.end": 8268,
  "&apos;View": 8269,
  "CN": 8270,
  "SMTP": 8271,
  "affect": 8272,
  "Original": 8273,
  "k-@@": 8274,
  "41": 8275,
  "stdev": 8276,
  "np.random.random": 8277,
  "d.append": 8278,
  "srv": 8279,
  "flows": 8280,
  "e2": 8281,
  "eol": 8282,
  "worst": 8283,
  "Updates": 8284,
  "32-bit": 8285,
  "Limit": 8286,
  "jinja2": 8287,
  "link.@@": 8288,
  "ST": 8289,
  "E.": 8290,
  "roaming": 8291,
  "&apos;Lists": 8292,
  "urllib.unquote": 8293,
  "blanks": 8294,
  "overload": 8295,
  "lru": 8296,
  "den@@": 8297,
  "ir@@": 8298,
  "4-@@": 8299,
  "Deprecated": 8300,
  "asked": 8301,
  "&apos;Move": 8302,
  "getaddrinfo": 8303,
  "succ": 8304,
  "er&apos;": 8305,
  "DiGraph": 8306,
  "32bit": 8307,
  "trimmed": 8308,
  "data.items": 8309,
  "sentiment": 8310,
  "ant": 8311,
  "eigenvalues": 8312,
  "Rec@@": 8313,
  "not&apos;": 8314,
  "Constant": 8315,
  "scrub": 8316,
  "testcase": 8317,
  "couldn": 8318,
  "fp.read": 8319,
  "ago": 8320,
  "zz": 8321,
  "LIB": 8322,
  "readlines": 8323,
  "overhead": 8324,
  "mne": 8325,
  "G.edges": 8326,
  "widget.@@": 8327,
  "taxes": 8328,
  "Hz": 8329,
  "Kwargs": 8330,
  "make.conf": 8331,
  "albums": 8332,
  "Alice": 8333,
  "studio": 8334,
  "alerts": 8335,
  "Lines": 8336,
  "Post": 8337,
  "betweenness": 8338,
  "Method@@": 8339,
  "specifically": 8340,
  "mass": 8341,
  "ative": 8342,
  "deny": 8343,
  "balanced": 8344,
  "cassandra": 8345,
  "cname": 8346,
  "n&apos;": 8347,
  "sld": 8348,
  "84": 8349,
  "fatal": 8350,
  "output.append": 8351,
  "sTo@@": 8352,
  "jump": 8353,
  "Nitrogen": 8354,
  "Storage@@": 8355,
  "fontext": 8356,
  "fp.write": 8357,
  "retrying": 8358,
  "feeds": 8359,
  "dead": 8360,
  "rootdir": 8361,
  "single-@@": 8362,
  "engine.@@": 8363,
  "crypt": 8364,
  "af@@": 8365,
  ".load": 8366,
  "DATETIME": 8367,
  "opts.get": 8368,
  "datetime.time": 8369,
  "task@@": 8370,
  "PRO@@": 8371,
  "cython.test": 8372,
  "efficiency": 8373,
  "unicodedata.normalize": 8374,
  "monit": 8375,
  "`systemd-run": 8376,
  "shipping": 8377,
  "ga": 8378,
  "conference": 8379,
  "hop": 8380,
  "`Request`": 8381,
  "targeted": 8382,
  "util.get": 8383,
  "Control": 8384,
  "n``": 8385,
  "`key`": 8386,
  "nofollow": 8387,
  "searches": 8388,
  "hashlib": 8389,
  "nbunch": 8390,
  "autocorrelation": 8391,
  "looked": 8392,
  "strings&apos;": 8393,
  "Th@@": 8394,
  "COLORS": 8395,
  "d``": 8396,
  "Provider": 8397,
  "parsers": 8398,
  "squeeze": 8399,
  "format&apos;": 8400,
  "httpMethod": 8401,
  "Profile@@": 8402,
  "cache@@": 8403,
  "API@@": 8404,
  "BYTES": 8405,
  "featured": 8406,
  "des": 8407,
  "DNA": 8408,
  "gof.local": 8409,
  "OpenID": 8410,
  "in.@@": 8411,
  "top@@": 8412,
  "OR@@": 8413,
  "distro": 8414,
  "helpful": 8415,
  "matter": 8416,
  ".conf": 8417,
  "q0": 8418,
  "`func`": 8419,
  "Template@@": 8420,
  "shorter": 8421,
  "earned": 8422,
  "WRITE": 8423,
  "Git": 8424,
  "newfunc": 8425,
  "x02": 8426,
  "provision": 8427,
  "euclidean": 8428,
  "f.seek": 8429,
  "tester": 8430,
  "cuDNN": 8431,
  "logistic": 8432,
  "polling": 8433,
  "buttons": 8434,
  ".isdigit": 8435,
  "mk@@": 8436,
  "instant": 8437,
  "-q": 8438,
  "HDN": 8439,
  "shear": 8440,
  "opt@@": 8441,
  "K1": 8442,
  "im.@@": 8443,
  "destroyed": 8444,
  "pdf&apos;": 8445,
  "incompatible": 8446,
  "User.objects.get": 8447,
  "os.X": 8448,
  "undo": 8449,
  "helpers": 8450,
  "PyCMSError": 8451,
  "el.@@": 8452,
  "event@@": 8453,
  "cookiejar": 8454,
  "Forward": 8455,
  "appinfo": 8456,
  "sy@@": 8457,
  "Email@@": 8458,
  "SCOPE": 8459,
  "options.append": 8460,
  "deserialized": 8461,
  "libc": 8462,
  "typical": 8463,
  "b64decode": 8464,
  "Mask": 8465,
  "cacert": 8466,
  "Apache": 8467,
  "fe": 8468,
  "eip": 8469,
  "index2": 8470,
  "LOGIN": 8471,
  "unit.@@": 8472,
  "Lo@@": 8473,
  "lift": 8474,
  "http@@": 8475,
  "separately": 8476,
  "convex": 8477,
  "Missing@@": 8478,
  "--quiet": 8479,
  "library.global": 8480,
  "proxied": 8481,
  "&apos;It": 8482,
  "tz@@": 8483,
  "released": 8484,
  "representations": 8485,
  "overlaps": 8486,
  "unitary": 8487,
  "sp.@@": 8488,
  "speech": 8489,
  "values.append": 8490,
  "commandline": 8491,
  "ob@@": 8492,
  "Mo@@": 8493,
  "he@@": 8494,
  "docker.@@": 8495,
  "proxy.@@": 8496,
  "ConfigurationError": 8497,
  "exported": 8498,
  "territory": 8499,
  "request.META": 8500,
  "referred": 8501,
  "readonly": 8502,
  "flist": 8503,
  "ies": 8504,
  "we@@": 8505,
  "&apos;helper": 8506,
  "ID&apos;": 8507,
  "pytree": 8508,
  "dep@@": 8509,
  "Java": 8510,
  "mis@@": 8511,
  "Feature": 8512,
  "Subversion": 8513,
  "params.append": 8514,
  "AN@@": 8515,
  "twisted.internet": 8516,
  "&apos;id": 8517,
  "paper": 8518,
  "&apos;Query": 8519,
  "bh": 8520,
  "definite": 8521,
  "Print": 8522,
  "crc32": 8523,
  "one-@@": 8524,
  "PROPERTY": 8525,
  "at.@@": 8526,
  "Volume@@": 8527,
  "text.strip": 8528,
  "Remove@@": 8529,
  "goal": 8530,
  "Null": 8531,
  "Out@@": 8532,
  "qu@@": 8533,
  "MS": 8534,
  "motion": 8535,
  "Win": 8536,
  "ohlc": 8537,
  "Descriptor": 8538,
  "LU": 8539,
  "code.@@": 8540,
  "DATASET": 8541,
  "ted&apos;": 8542,
  "mirrors": 8543,
  "resume": 8544,
  "&apos;Destroy": 8545,
  "Tags": 8546,
  "brew": 8547,
  "part.@@": 8548,
  "eventDict": 8549,
  "varnames": 8550,
  "suggest": 8551,
  "rooted": 8552,
  "ERS": 8553,
  "unpacked": 8554,
  "Future": 8555,
  "Qt": 8556,
  "&apos;Dump": 8557,
  "Ro@@": 8558,
  "sos": 8559,
  "Registry": 8560,
  "prereq": 8561,
  "datatype": 8562,
  "hashfunc": 8563,
  "amo.STATUS": 8564,
  "Single": 8565,
  "restarted": 8566,
  "synonyms": 8567,
  "display.@@": 8568,
  "blast": 8569,
  "zf": 8570,
  "nova.@@": 8571,
  "Namespace": 8572,
  "response.json": 8573,
  "distutils": 8574,
  "editing": 8575,
  "44": 8576,
  "gl": 8577,
  "maxval": 8578,
  "Net@@": 8579,
  "ru@@": 8580,
  "angular": 8581,
  "masquerade": 8582,
  "HASH": 8583,
  "devs": 8584,
  "LANGUAGES": 8585,
  "jsonify": 8586,
  "filename@@": 8587,
  "someone": 8588,
  "Attribute@@": 8589,
  "cal@@": 8590,
  "option@@": 8591,
  "52": 8592,
  "cff": 8593,
  "pseudo": 8594,
  "order.@@": 8595,
  "subtasks": 8596,
  "stream@@": 8597,
  "fl@@": 8598,
  "`value`": 8599,
  "subsets": 8600,
  "systemctl": 8601,
  "Pipeline": 8602,
  "-0@@": 8603,
  "request.args.get": 8604,
  "urllib": 8605,
  "``value``": 8606,
  "tempfile.mkdtemp": 8607,
  "RUN": 8608,
  "&apos;Skip": 8609,
  "``-@@": 8610,
  "layer.@@": 8611,
  "sshd": 8612,
  "gating": 8613,
  "-6": 8614,
  "src.@@": 8615,
  "fgraph": 8616,
  "conflicting": 8617,
  "rms": 8618,
  "dirs.append": 8619,
  "LW": 8620,
  "Right": 8621,
  "coro": 8622,
  "truthy": 8623,
  "mask@@": 8624,
  "cb@@": 8625,
  "affine": 8626,
  "quite": 8627,
  "Core": 8628,
  "image1": 8629,
  "deployments": 8630,
  "ation-@@": 8631,
  "typing": 8632,
  "PO@@": 8633,
  "cats": 8634,
  "form-data": 8635,
  "ser": 8636,
  "fuzzable": 8637,
  "NN": 8638,
  "``object": 8639,
  "1.2.3.4": 8640,
  "nrow": 8641,
  "Byte": 8642,
  "XBlock": 8643,
  "moves": 8644,
  "synced": 8645,
  "&apos;Constructs": 8646,
  "relu": 8647,
  "``p``": 8648,
  "&apos;Raises": 8649,
  "console.@@": 8650,
  "Plugin@@": 8651,
  "ARN": 8652,
  "pool.@@": 8653,
  "csm": 8654,
  "Project": 8655,
  "historical": 8656,
  "opaque": 8657,
  "fx": 8658,
  "pk@@": 8659,
  "2.3": 8660,
  "FUNCTION": 8661,
  "lu": 8662,
  "averages": 8663,
  "random.shuffle": 8664,
  "subproject": 8665,
  "elemwise": 8666,
  "Image.open": 8667,
  "seq@@": 8668,
  "Install": 8669,
  "searchPaths": 8670,
  "Tool": 8671,
  "pa": 8672,
  "layer1": 8673,
  "lbn": 8674,
  "Indices": 8675,
  "np.min": 8676,
  "Position": 8677,
  "especially": 8678,
  "addon.@@": 8679,
  "Virtual": 8680,
  "endif": 8681,
  "barDs": 8682,
  "trans.@@": 8683,
  "uniformly": 8684,
  "Raw@@": 8685,
  "FAILED": 8686,
  "LEN": 8687,
  "vault": 8688,
  "blade": 8689,
  "pd.Series": 8690,
  "pypi": 8691,
  "summed": 8692,
  "g1": 8693,
  "log.trace": 8694,
  "Ref": 8695,
  "eigvals": 8696,
  "on-@@": 8697,
  "Global": 8698,
  "strips": 8699,
  "&apos;Count": 8700,
  "astroid.@@": 8701,
  "exc.strerror": 8702,
  "Global@@": 8703,
  "&apos;Ex@@": 8704,
  "signum": 8705,
  "request.is": 8706,
  "Expires": 8707,
  "satisfied": 8708,
  "Ignored": 8709,
  "installReactor": 8710,
  "le-@@": 8711,
  "driver.@@": 8712,
  "nbr": 8713,
  "BACKENDS": 8714,
  "lim": 8715,
  "49": 8716,
  "sm@@": 8717,
  "ma.@@": 8718,
  "liveaction": 8719,
  "sql.@@": 8720,
  "vec@@": 8721,
  "no-@@": 8722,
  "cache.set": 8723,
  "2006": 8724,
  "booleans": 8725,
  "thread.@@": 8726,
  "Backend": 8727,
  "foreground": 8728,
  "unpickle": 8729,
  "enrollments": 8730,
  "argsort": 8731,
  "MusicBrainz": 8732,
  "Max@@": 8733,
  "jwt": 8734,
  "hosted": 8735,
  "django.@@": 8736,
  "safe@@": 8737,
  "search.@@": 8738,
  "ENTITY": 8739,
  "samp": 8740,
  "yp": 8741,
  "path.join": 8742,
  "--no-@@": 8743,
  "graph6": 8744,
  "euclidean.get@@": 8745,
  "ke": 8746,
  "AS@@": 8747,
  "aggressive": 8748,
  "FLAGS.@@": 8749,
  "files.@@": 8750,
  "Do@@": 8751,
  "getNewDerivation": 8752,
  "adgroup": 8753,
  "r.append": 8754,
  "os.path.relpath": 8755,
  "module.run": 8756,
  "FITS": 8757,
  "ali@@": 8758,
  "caffe": 8759,
  "MRI": 8760,
  "pkg2": 8761,
  "entity.@@": 8762,
  "MetaData": 8763,
  "item@@": 8764,
  "`ValueError`": 8765,
  "dynamically": 8766,
  "projected": 8767,
  "subsystem": 8768,
  "-specific": 8769,
  "fac@@": 8770,
  ".dtype": 8771,
  "ax.@@": 8772,
  "hn": 8773,
  "timeval": 8774,
  "Nodes": 8775,
  "destFile": 8776,
  "gp": 8777,
  "apache": 8778,
  "Import@@": 8779,
  "protect": 8780,
  "distr": 8781,
  "58": 8782,
  "SeqRecord": 8783,
  "intf": 8784,
  "med": 8785,
  "declare": 8786,
  "2048": 8787,
  "``Deferred``": 8788,
  "denotes": 8789,
  "page@@": 8790,
  "Dummy@@": 8791,
  "&apos;doc": 8792,
  "decl": 8793,
  "client.GetService": 8794,
  "endings": 8795,
  "update@@": 8796,
  "senderkey": 8797,
  "theano.@@": 8798,
  "dbData": 8799,
  "arithmetic": 8800,
  "sor@@": 8801,
  "pyplot.@@": 8802,
  "recommendation": 8803,
  "Equal": 8804,
  "RETURN": 8805,
  "commonly": 8806,
  "Join": 8807,
  "user-agent": 8808,
  "pickle.dumps": 8809,
  "pb2.@@": 8810,
  "dest@@": 8811,
  "appengine": 8812,
  "proto.@@": 8813,
  "Credentials": 8814,
  "&apos;Similar": 8815,
  "my-azure": 8816,
  "TR@@": 8817,
  "ran": 8818,
  "dh": 8819,
  "projs": 8820,
  "&apos;Restart": 8821,
  "pixelDictionary": 8822,
  "09": 8823,
  "unicode&apos;": 8824,
  "stacked": 8825,
  "change@@": 8826,
  "ri": 8827,
  "trainingSequences": 8828,
  "0000@@": 8829,
  "pkg.file": 8830,
  "salt.utils.vmware.get": 8831,
  "mailchimp": 8832,
  "While": 8833,
  "nltk": 8834,
  "signal.signal": 8835,
  "mainloop": 8836,
  "random.sample": 8837,
  "ctypes.POINTER": 8838,
  "isnull": 8839,
  "closer": 8840,
  "COLS": 8841,
  "suites": 8842,
  "Interval": 8843,
  "arxiv.org": 8844,
  "MA@@": 8845,
  "rsplit": 8846,
  "qubit": 8847,
  "buffer.@@": 8848,
  "`numpy.ndarray`&apos;": 8849,
  "av@@": 8850,
  "3.3": 8851,
  "relatively": 8852,
  "hashing": 8853,
  "mkfs": 8854,
  "vagrant": 8855,
  "jac": 8856,
  "tmin": 8857,
  "footprint": 8858,
  "paginate": 8859,
  "pkgname": 8860,
  "elsewhere": 8861,
  "Need": 8862,
  "URIs": 8863,
  "teams": 8864,
  "homogeneous": 8865,
  "Se@@": 8866,
  "m2m": 8867,
  "os.open": 8868,
  "file-@@": 8869,
  "submissions": 8870,
  "var1": 8871,
  "`parse": 8872,
  "os.path.islink": 8873,
  "PKCS": 8874,
  "xattr": 8875,
  "copy.copy": 8876,
  "address.@@": 8877,
  "list2": 8878,
  "hyphens": 8879,
  "io@@": 8880,
  "vcs": 8881,
  "82@@": 8882,
  "shifted": 8883,
  "interpolated": 8884,
  "elem.@@": 8885,
  "OAuth2": 8886,
  "subscribe": 8887,
  "ndarrays": 8888,
  "ING": 8889,
  "IO@@": 8890,
  "laplacian": 8891,
  "helps": 8892,
  "&apos;Main": 8893,
  "np.eye": 8894,
  "lowest": 8895,
  "var.@@": 8896,
  "al-@@": 8897,
  "ang@@": 8898,
  "scoring": 8899,
  "s.close": 8900,
  "numsamples": 8901,
  "sFrom@@": 8902,
  "72": 8903,
  "str2": 8904,
  "str1": 8905,
  "CT@@": 8906,
  "script.@@": 8907,
  "&apos;Define": 8908,
  "BINARY": 8909,
  "sphere": 8910,
  "precomputed": 8911,
  "privateKey": 8912,
  "heading": 8913,
  "shrinkage": 8914,
  "django-@@": 8915,
  "XYZ": 8916,
  "display@@": 8917,
  "Hessian": 8918,
  "result.stdout": 8919,
  "gi": 8920,
  "-1&apos;": 8921,
  "Dumper": 8922,
  "product.@@": 8923,
  "node.parent": 8924,
  "&apos;Strip": 8925,
  "&apos;Invalid": 8926,
  "MOD": 8927,
  "contingency": 8928,
  "new-style": 8929,
  "ker": 8930,
  "&apos;Looks": 8931,
  "validates": 8932,
  "te": 8933,
  "Sign": 8934,
  "Result@@": 8935,
  "Controller&apos;": 8936,
  "tgrep": 8937,
  "escalation": 8938,
  "www.example.com": 8939,
  "L.@@": 8940,
  "car@@": 8941,
  "pkg1": 8942,
  "comb": 8943,
  "``user``": 8944,
  "la@@": 8945,
  "leases": 8946,
  "key.split": 8947,
  "BlobKey": 8948,
  "obsolete": 8949,
  "presented": 8950,
  "&apos;Module": 8951,
  "Fields": 8952,
  "numer": 8953,
  "vispy": 8954,
  "K.is": 8955,
  "monitoring": 8956,
  "arglist": 8957,
  "&apos;J@@": 8958,
  "ALLOWED": 8959,
  "oper": 8960,
  "table.name": 8961,
  "math.pi": 8962,
  "EnvironmentError": 8963,
  "multiprocessing": 8964,
  "webserver": 8965,
  "np.ceil": 8966,
  "ORM": 8967,
  "screenshot": 8968,
  "ter.@@": 8969,
  "sample@@": 8970,
  "webhook": 8971,
  "scp": 8972,
  "supplier": 8973,
  "doi": 8974,
  "nqubits": 8975,
  "result.get": 8976,
  "Security": 8977,
  "took": 8978,
  "2.2": 8979,
  "synchronized": 8980,
  "outdir": 8981,
  "const.@@": 8982,
  "GPG": 8983,
  "players": 8984,
  "latin1": 8985,
  "stream.@@": 8986,
  "function.@@": 8987,
  "OAUTH": 8988,
  "``root``": 8989,
  "ORDER": 8990,
  "tri": 8991,
  "preprocessor": 8992,
  "301": 8993,
  "mixing": 8994,
  "numCols": 8995,
  "np.cumsum": 8996,
  "sf": 8997,
  "Stack": 8998,
  "Display@@": 8999,
  "bad-password": 9000,
  "Modules": 9001,
  ".path": 9002,
  "introduced": 9003,
  "Batch": 9004,
  "measures": 9005,
  "Adds": 9006,
  "deployed": 9007,
  "4D": 9008,
  "ted@@": 9009,
  "detached": 9010,
  "se.@@": 9011,
  "chunk@@": 9012,
  "COUNT": 9013,
  "Trigger": 9014,
  "``request``": 9015,
  "authdb": 9016,
  "Home": 9017,
  "&apos;user": 9018,
  ".1f": 9019,
  "values.@@": 9020,
  "command@@": 9021,
  ".objects.get": 9022,
  "wasn": 9023,
  "knowledge": 9024,
  "State@@": 9025,
  "nw": 9026,
  "error@@": 9027,
  "Referer": 9028,
  "es`": 9029,
  "isfile": 9030,
  "doseq": 9031,
  "getGeometryOutput": 9032,
  "blink": 9033,
  "AB@@": 9034,
  "sBy@@": 9035,
  "SUB@@": 9036,
  "Back@@": 9037,
  "``.@@": 9038,
  "mini": 9039,
  "intpart": 9040,
  "SUPPORTED": 9041,
  "TZ": 9042,
  "DI@@": 9043,
  "comm": 9044,
  "norm@@": 9045,
  "session.get": 9046,
  "Trace": 9047,
  "current@@": 9048,
  "nzo": 9049,
  "Doc@@": 9050,
  "numOnes": 9051,
  "v6": 9052,
  "respond": 9053,
  "gci": 9054,
  "FORMATS": 9055,
  "showwarning": 9056,
  "refreshed": 9057,
  "Successfully": 9058,
  "dist.@@": 9059,
  "cm.@@": 9060,
  "NETWORK": 9061,
  "cat@@": 9062,
  "enumeration": 9063,
  "ampersands": 9064,
  "ht": 9065,
  "series.@@": 9066,
  "bcc": 9067,
  "send@@": 9068,
  "lookup@@": 9069,
  "`datetime`": 9070,
  "outline": 9071,
  "Git@@": 9072,
  "sw": 9073,
  "usages": 9074,
  "pdef": 9075,
  "Common": 9076,
  "Wait": 9077,
  "om@@": 9078,
  "iso8601": 9079,
  "atime": 9080,
  "zip@@": 9081,
  "Post@@": 9082,
  "Allows": 9083,
  "experimental": 9084,
  "invariant": 9085,
  "ste@@": 9086,
  "ford": 9087,
  "alphanumeric": 9088,
  "parens": 9089,
  "gcc": 9090,
  "Locale.parse": 9091,
  "Block@@": 9092,
  "vn": 9093,
  "haystack": 9094,
  "img.shape": 9095,
  "1,3": 9096,
  "form.is": 9097,
  "shorten": 9098,
  "S.get": 9099,
  "rcond": 9100,
  "gr@@": 9101,
  "conv2d": 9102,
  "conj": 9103,
  "salt.utils.compare": 9104,
  "package2": 9105,
  "YYYY-MM-DD": 9106,
  "package3": 9107,
  "typ@@": 9108,
  "subgraphs": 9109,
  "streaming": 9110,
  "-R": 9111,
  "Di@@": 9112,
  "MIDDLEWARE": 9113,
  "DATABASE": 9114,
  "explorations": 9115,
  "func.func": 9116,
  "Angle": 9117,
  "sep.join": 9118,
  "trunk": 9119,
  ".pyo": 9120,
  "endpoint@@": 9121,
  "begins": 9122,
  "hw": 9123,
  "contextFactory": 9124,
  "paused": 9125,
  "&apos;Escapes": 9126,
  "s.count": 9127,
  "power@@": 9128,
  "completer": 9129,
  "exceeds": 9130,
  "malformed": 9131,
  "settings.INSTALLED": 9132,
  "gen.@@": 9133,
  "sol@@": 9134,
  "ke@@": 9135,
  "transformers": 9136,
  "Ansible": 9137,
  "Redis": 9138,
  "robot": 9139,
  "feincms": 9140,
  "dargs": 9141,
  ".from": 9142,
  "alternatives": 9143,
  "kw.pop": 9144,
  "system&apos;": 9145,
  "ed.@@": 9146,
  "iso@@": 9147,
  "Map@@": 9148,
  "preds": 9149,
  "Notification": 9150,
  "Content-Disposition": 9151,
  "items.append": 9152,
  "dialect": 9153,
  "2012": 9154,
  "body.@@": 9155,
  "on&apos;": 9156,
  "probes": 9157,
  "&apos;the": 9158,
  "GC": 9159,
  "n-@@": 9160,
  "describes": 9161,
  "style@@": 9162,
  "querying": 9163,
  "Meta@@": 9164,
  "cmd@@": 9165,
  "tweet": 9166,
  "dict.keys": 9167,
  "classObj": 9168,
  "allowable": 9169,
  "adapted": 9170,
  "Query@@": 9171,
  "2010": 9172,
  "Alias": 9173,
  "pd.Timestamp": 9174,
  "ax@@": 9175,
  "ten": 9176,
  "ers.@@": 9177,
  "bezier": 9178,
  "Density": 9179,
  "optdict": 9180,
  "TASK": 9181,
  "c0": 9182,
  "Summary": 9183,
  "initially": 9184,
  "volume.@@": 9185,
  "oldest": 9186,
  "coo": 9187,
  "curl": 9188,
  "update.@@": 9189,
  "le.@@": 9190,
  "identity.@@": 9191,
  "Bio": 9192,
  "Trying": 9193,
  "container.@@": 9194,
  "hh": 9195,
  "nft": 9196,
  "playing": 9197,
  "cdot": 9198,
  "yn": 9199,
  "light@@": 9200,
  "8601": 9201,
  "gevent": 9202,
  "orbits": 9203,
  "and@@": 9204,
  "Decode": 9205,
  "GOOGLE": 9206,
  "jitter": 9207,
  "basically": 9208,
  "switches": 9209,
  "linewidth": 9210,
  "downloads": 9211,
  "CIDR": 9212,
  "OpenShift": 9213,
  "mf": 9214,
  "race": 9215,
  "userdata": 9216,
  "errors.Error": 9217,
  "bom": 9218,
  "ended": 9219,
  "constructing": 9220,
  "SciPy": 9221,
  "SVD": 9222,
  "exist&apos;": 9223,
  "dummies": 9224,
  "verifies": 9225,
  "K.one": 9226,
  "etcd": 9227,
  "LOCATION": 9228,
  "anime": 9229,
  "tempfile.mkstemp": 9230,
  "eof": 9231,
  "deriv": 9232,
  "PostgreSQL": 9233,
  "logger.setLevel": 9234,
  "Stream@@": 9235,
  "&apos;En@@": 9236,
  "Flags": 9237,
  "ell": 9238,
  "hosting": 9239,
  "junk": 9240,
  "PYTHONPATH": 9241,
  "ternary": 9242,
  "98": 9243,
  "opposite": 9244,
  "time&apos;": 9245,
  "&apos;Marks": 9246,
  "tm": 9247,
  "lib64": 9248,
  "loop@@": 9249,
  "Connection@@": 9250,
  "Script@@": 9251,
  "CC": 9252,
  "profile@@": 9253,
  "consts": 9254,
  "proc.@@": 9255,
  "orphans": 9256,
  "2008": 9257,
  "2,3": 9258,
  "Device@@": 9259,
  "basket": 9260,
  "pkg@@": 9261,
  "codecs": 9262,
  "Enable": 9263,
  "rand@@": 9264,
  "string.decode": 9265,
  "exif": 9266,
  "qualifier": 9267,
  "arrs": 9268,
  "rvs": 9269,
  "sm.@@": 9270,
  "deserializer": 9271,
  "ncols": 9272,
  "2005": 9273,
  "conf.commands.register": 9274,
  "used&apos;": 9275,
  "ten@@": 9276,
  "code&apos;": 9277,
  "Versions": 9278,
  "Document@@": 9279,
  "lstrip": 9280,
  "package.@@": 9281,
  "g2": 9282,
  "-----BEGIN": 9283,
  "reg@@": 9284,
  "UP@@": 9285,
  "fr@@": 9286,
  "colormaps": 9287,
  "calendar.timegm": 9288,
  "3.4": 9289,
  "vers": 9290,
  "73": 9291,
  "UT@@": 9292,
  "lbp": 9293,
  "timeline": 9294,
  "normpath": 9295,
  "cf@@": 9296,
  "subscribers": 9297,
  "content@@": 9298,
  "tex@@": 9299,
  "compat.@@": 9300,
  "``g``": 9301,
  "instance@@": 9302,
  "sys.path.insert": 9303,
  "info&apos;": 9304,
  "pyname": 9305,
  "FT": 9306,
  "bidi": 9307,
  "negate": 9308,
  "PhoneNumber": 9309,
  "IMPL.@@": 9310,
  "fund": 9311,
  "rare": 9312,
  "LEVEL": 9313,
  "extent": 9314,
  "exprs": 9315,
  "agents": 9316,
  "teacher": 9317,
  "cors": 9318,
  "former": 9319,
  "im.set": 9320,
  "method&apos;": 9321,
  "e-mail": 9322,
  "TRACE": 9323,
  "rpc.@@": 9324,
  "Sphinx": 9325,
  "1e-06": 9326,
  "vm.@@": 9327,
  "pytz": 9328,
  "loose": 9329,
  "stepsize": 9330,
  "kwargs.update": 9331,
  "Groups": 9332,
  "ephemeral": 9333,
  "click.echo": 9334,
  "fine": 9335,
  "hostvars": 9336,
  "Identity": 9337,
  "totals": 9338,
  "Datastore": 9339,
  "data.find": 9340,
  "Spec": 9341,
  "plt.show": 9342,
  "descent": 9343,
  "`boto.@@": 9344,
  "canonicalize": 9345,
  "CX": 9346,
  "errors.ApplicationError": 9347,
  "ClientException": 9348,
  "cibname": 9349,
  "stops": 9350,
  "gl@@": 9351,
  "s.insert": 9352,
  "ret.get": 9353,
  "3.2": 9354,
  "locale.@@": 9355,
  "svd": 9356,
  "ops.@@": 9357,
  "remember": 9358,
  "phrases": 9359,
  "input.ndim": 9360,
  "IF": 9361,
  "FIELDS": 9362,
  "HAVE": 9363,
  "upstream": 9364,
  "mon@@": 9365,
  "rels": 9366,
  "4294967295": 9367,
  "Fluorine": 9368,
  "ava": 9369,
  "edgelist": 9370,
  "disconnected": 9371,
  "Admin@@": 9372,
  "he": 9373,
  "2009": 9374,
  "ax1": 9375,
  "rts": 9376,
  "Remote@@": 9377,
  "X11": 9378,
  "micro": 9379,
  "Parse": 9380,
  "Locale": 9381,
  "delegate": 9382,
  "tfr": 9383,
  "peaks": 9384,
  "sign@@": 9385,
  "1.": 9386,
  "uni": 9387,
  ".ssh": 9388,
  "d3": 9389,
  "cputime": 9390,
  "mig": 9391,
  "Machine": 9392,
  "timesince": 9393,
  "dom.@@": 9394,
  "appends": 9395,
  "``s``": 9396,
  "permute": 9397,
  "IT@@": 9398,
  "MongoDB": 9399,
  "guarantee": 9400,
  "Header@@": 9401,
  "&apos;Lookup": 9402,
  "Le@@": 9403,
  "R.x": 9404,
  "WINDOWS": 9405,
  "pager": 9406,
  "equivalencies": 9407,
  "fwd": 9408,
  "43": 9409,
  "Qt.@@": 9410,
  "sockaddr": 9411,
  "itertools.chain": 9412,
  "blobstore": 9413,
  "`A`": 9414,
  "logarithm": 9415,
  "address&apos;": 9416,
  "unifrac": 9417,
  "1970": 9418,
  "it&apos;": 9419,
  "approve": 9420,
  "initializers": 9421,
  "type`": 9422,
  "mkstemp": 9423,
  "Rank": 9424,
  "URLconf": 9425,
  "CERT": 9426,
  "discussions": 9427,
  "vrouter": 9428,
  "RATE": 9429,
  "dt.@@": 9430,
  "disallowed": 9431,
  "dict.update": 9432,
  "billed": 9433,
  "i-@@": 9434,
  "z.@@": 9435,
  "nid": 9436,
  "normcase": 9437,
  "IntNode": 9438,
  "serving": 9439,
  "cache.clear": 9440,
  "95@@": 9441,
  "ContentType": 9442,
  "Xml@@": 9443,
  "cython.@@": 9444,
  "&apos;Logs": 9445,
  "BUILD": 9446,
  "TRUE": 9447,
  "scipy.stats.@@": 9448,
  "result.extend": 9449,
  "USERNAME": 9450,
  "Callable": 9451,
  "sickbeard.@@": 9452,
  "VdtTypeError": 9453,
  "simp": 9454,
  "browser.@@": 9455,
  "plt.plot": 9456,
  "Tree@@": 9457,
  "save@@": 9458,
  "FIRST": 9459,
  "xhtml": 9460,
  "42@@": 9461,
  "qtbot": 9462,
  "localename": 9463,
  "prof": 9464,
  "decipher": 9465,
  "What": 9466,
  "form@@": 9467,
  "meta.db": 9468,
  "file`": 9469,
  "atoms": 9470,
  "sinh": 9471,
  "prevents": 9472,
  "proc.communicate": 9473,
  "numSequences": 9474,
  "element.text": 9475,
  "pct": 9476,
  "string2": 9477,
  "Area": 9478,
  "hess": 9479,
  "SC@@": 9480,
  "co.co": 9481,
  "OSX": 9482,
  "inspect.isclass": 9483,
  "byref": 9484,
  "enables": 9485,
  "Converts": 9486,
  "specifiers": 9487,
  "Apply": 9488,
  "dev.@@": 9489,
  "autocommit": 9490,
  "splunk": 9491,
  "whereas": 9492,
  "s3@@": 9493,
  "osp.join": 9494,
  "ZeroDivisionError": 9495,
  "UDP": 9496,
  "rnd": 9497,
  "default&apos;": 9498,
  "textwrap.dedent": 9499,
  "Ch@@": 9500,
  "son@@": 9501,
  "ut": 9502,
  "ors": 9503,
  "retrieves": 9504,
  "time.mktime": 9505,
  "legend": 9506,
  "B.": 9507,
  "&apos;Compile": 9508,
  "reformatted": 9509,
  "Class@@": 9510,
  "dot@@": 9511,
  "BaseException": 9512,
  "tic": 9513,
  "204": 9514,
  "edx": 9515,
  "Point@@": 9516,
  "LOG.warn": 9517,
  "&apos;Map": 9518,
  "8000": 9519,
  "PY": 9520,
  "psd": 9521,
  "Most": 9522,
  "pass&apos;": 9523,
  "ity": 9524,
  "METADATA": 9525,
  "pb@@": 9526,
  "s.lower": 9527,
  "Too": 9528,
  "ua": 9529,
  "ADDR": 9530,
  "ino": 9531,
  "UP": 9532,
  "alarms": 9533,
  "web2py": 9534,
  "aggregation": 9535,
  "matveca": 9536,
  "ni@@": 9537,
  "&apos;Applies": 9538,
  "jquery": 9539,
  "``TestCase``": 9540,
  "Logging@@": 9541,
  "LabJack": 9542,
  "BatchJob": 9543,
  "socket.getaddrinfo": 9544,
  "ps@@": 9545,
  "ENTRY": 9546,
  "Specifying": 9547,
  "formed": 9548,
  "traditional": 9549,
  "Color@@": 9550,
  "linebreaks": 9551,
  "macros": 9552,
  "``use": 9553,
  "orgs": 9554,
  "twill": 9555,
  "transactions": 9556,
  "Po@@": 9557,
  "random@@": 9558,
  "54@@": 9559,
  "off@@": 9560,
  "aes": 9561,
  "mins": 9562,
  "item.get": 9563,
  "np.argmax": 9564,
  "queued": 9565,
  "settings.getReadRepository": 9566,
  "function@@": 9567,
  "Virtual@@": 9568,
  "readers": 9569,
  "Response@@": 9570,
  "DEFINE": 9571,
  "bad@@": 9572,
  "hd": 9573,
  "android": 9574,
  "oracle": 9575,
  "name1": 9576,
  "multipath": 9577,
  "ESCAPE": 9578,
  "maxsegs": 9579,
  "reindex": 9580,
  "inarray": 9581,
  "ation`": 9582,
  "Normally": 9583,
  "utcnow": 9584,
  "recover": 9585,
  "appending": 9586,
  "isolate": 9587,
  "greatest": 9588,
  "255.0": 9589,
  "headerlist": 9590,
  "unrecognized": 9591,
  "xlim": 9592,
  "`as": 9593,
  "Override": 9594,
  "recipe": 9595,
  "codon": 9596,
  "JSON@@": 9597,
  "issuer": 9598,
  "db.get": 9599,
  "think": 9600,
  "prices": 9601,
  "R.y": 9602,
  "Id@@": 9603,
  "Body": 9604,
  "uname": 9605,
  "string.lower": 9606,
  "2014": 9607,
  "hubs": 9608,
  "transactional": 9609,
  "Removing": 9610,
  "ABLE": 9611,
  "sizeEndCentDir": 9612,
  "srcFile": 9613,
  "&apos;Prepare": 9614,
  "improve": 9615,
  "zi": 9616,
  "theano.shared": 9617,
  "require.@@": 9618,
  "SID": 9619,
  "allocations": 9620,
  "cloud@@": 9621,
  "AM": 9622,
  "text.encode": 9623,
  "docstr": 9624,
  "SNI": 9625,
  "4.1": 9626,
  "datetime64": 9627,
  "slower": 9628,
  "popenargs": 9629,
  "retrieving": 9630,
  "incorrectly": 9631,
  "-L": 9632,
  "‘": 9633,
  "Postgres": 9634,
  "k.lower": 9635,
  "stay": 9636,
  "Complex": 9637,
  "colorscale": 9638,
  "opens": 9639,
  "gaps": 9640,
  "concatenation": 9641,
  "Frequency": 9642,
  "redirecting": 9643,
  "Non-@@": 9644,
  "estimation": 9645,
  "defer.Deferred": 9646,
  "MATCH": 9647,
  "Generate@@": 9648,
  "ES@@": 9649,
  "subplots": 9650,
  "INSTALLED": 9651,
  "conf.get": 9652,
  "import@@": 9653,
  "pks": 9654,
  "ipsec": 9655,
  "mutation": 9656,
  "ACCEPT": 9657,
  "rule@@": 9658,
  "lib.EVP": 9659,
  "learner": 9660,
  "replica": 9661,
  "tls": 9662,
  "skewness": 9663,
  "ifconfig": 9664,
  "Admin": 9665,
  "scipy.sparse": 9666,
  "Help": 9667,
  "didn": 9668,
  "skeleton": 9669,
  "ADD": 9670,
  "arg2": 9671,
  "MACHINE": 9672,
  "mmap": 9673,
  "PROFILE": 9674,
  "verb": 9675,
  "itemgetter": 9676,
  "Formatter": 9677,
  "nx.DiGraph": 9678,
  "&apos;Clears": 9679,
  "b&apos;": 9680,
  "Another": 9681,
  "definition.@@": 9682,
  "kvp": 9683,
  "subName": 9684,
  "non-ASCII": 9685,
  "frame@@": 9686,
  "clones": 9687,
  "hand": 9688,
  "Images": 9689,
  "test&apos;": 9690,
  "ated@@": 9691,
  "match.@@": 9692,
  "point.@@": 9693,
  "input.@@": 9694,
  "sys.getfilesystemencoding": 9695,
  "datacenters": 9696,
  "attribute@@": 9697,
  "aton": 9698,
  "wr": 9699,
  "001": 9700,
  "urlunparse": 9701,
  "clicks": 9702,
  "76": 9703,
  "interested": 9704,
  "neural": 9705,
  "not@@": 9706,
  "sensors": 9707,
  "renders": 9708,
  "LMS": 9709,
  "plt.@@": 9710,
  "ll@@": 9711,
  "newname": 9712,
  "Chain": 9713,
  "Write@@": 9714,
  "chocolatey": 9715,
  "cropped": 9716,
  "fromstring": 9717,
  "timestr": 9718,
  "procs": 9719,
  "datetime.datetime.strptime": 9720,
  "opt.@@": 9721,
  "sensorParams": 9722,
  "modelParams": 9723,
  "eb@@": 9724,
  "colnames": 9725,
  "two-sided": 9726,
  "fullpath": 9727,
  "CMD": 9728,
  "Access@@": 9729,
  "&apos;text": 9730,
  "&apos;L@@": 9731,
  "lock@@": 9732,
  "bellman": 9733,
  "numba": 9734,
  "St@@": 9735,
  "rc@@": 9736,
  "MARKER": 9737,
  "ext@@": 9738,
  "next@@": 9739,
  "SHOW": 9740,
  "Lock": 9741,
  "re.MULTILINE": 9742,
  "R1": 9743,
  "User-Agent": 9744,
  "r0": 9745,
  "ba": 9746,
  "AM@@": 9747,
  "Generic@@": 9748,
  "groupname": 9749,
  "var2": 9750,
  "ee": 9751,
  "systemsetup": 9752,
  "tf.train.@@": 9753,
  "checkpoint": 9754,
  "br@@": 9755,
  "apikey": 9756,
  "mapper.@@": 9757,
  "Logs": 9758,
  "trap": 9759,
  "profile.get": 9760,
  "transient": 9761,
  "defs": 9762,
  "``y``": 9763,
  "sock.close": 9764,
  "staticfiles": 9765,
  "stars": 9766,
  "es.append": 9767,
  "Case": 9768,
  "CGI": 9769,
  "201": 9770,
  "section.@@": 9771,
  "eggs": 9772,
  "stream.read": 9773,
  "ny": 9774,
  "PTR": 9775,
  "math.@@": 9776,
  "rtn": 9777,
  "anymore": 9778,
  "Copy@@": 9779,
  "s.setdefault": 9780,
  "emp": 9781,
  "prefetch": 9782,
  "ck@@": 9783,
  "di": 9784,
  "fillvalue": 9785,
  "accumulator": 9786,
  "url.startswith": 9787,
  "owns": 9788,
  "arg.split": 9789,
  "sup": 9790,
  "pickle.load": 9791,
  "taskqueue": 9792,
  "SUCCESS": 9793,
  "install@@": 9794,
  "&apos;Se@@": 9795,
  "Stub": 9796,
  "self.assertEqual": 9797,
  "utils.arg": 9798,
  "entirely": 9799,
  "repository.@@": 9800,
  "p4": 9801,
  "issue@@": 9802,
  "value.decode": 9803,
  "catalogs": 9804,
  "250": 9805,
  "method.@@": 9806,
  "re.finditer": 9807,
  "urlparse.urlsplit": 9808,
  "TMP": 9809,
  "multi-line": 9810,
  "Score": 9811,
  "GCD": 9812,
  "importable": 9813,
  "inches": 9814,
  "Me@@": 9815,
  "SOCKET": 9816,
  ".options": 9817,
  "grid@@": 9818,
  "zs": 9819,
  "chat": 9820,
  "quantiles": 9821,
  "ves": 9822,
  "Services": 9823,
  "list1": 9824,
  "Dict@@": 9825,
  "parsed.path": 9826,
  "Validator": 9827,
  "form``": 9828,
  "promo": 9829,
  "newargs": 9830,
  "sn@@": 9831,
  "line.lstrip": 9832,
  "base64.urlsafe": 9833,
  "Int": 9834,
  "-to-@@": 9835,
  "hexsha": 9836,
  "cert.@@": 9837,
  "common@@": 9838,
  "cubic": 9839,
  "valueComplex": 9840,
  "string.strip": 9841,
  "ard": 9842,
  "quantum": 9843,
  "&apos;request": 9844,
  "plugin@@": 9845,
  "qutebrowser": 9846,
  "technique": 9847,
  "subtensor": 9848,
  "AT": 9849,
  "R.@@": 9850,
  "&apos;Callback": 9851,
  "LM": 9852,
  "&apos;Reverse": 9853,
  "specfunc.html&apos;": 9854,
  "`dict`": 9855,
  "response.has": 9856,
  "facecolor": 9857,
  "s2@@": 9858,
  "settings.CACHE": 9859,
  "apiKey": 9860,
  "AnonymousUser": 9861,
  "Legendre": 9862,
  "``salt": 9863,
  "banded": 9864,
  "obj.p": 9865,
  "xenapi": 9866,
  "geo@@": 9867,
  "include@@": 9868,
  "typeclass": 9869,
  "reach": 9870,
  "Flow": 9871,
  "Returned": 9872,
  "requiring": 9873,
  "files&apos;": 9874,
  "&apos;Resolve": 9875,
  "lines.elided": 9876,
  "npz": 9877,
  "MNIST": 9878,
  "sd@@": 9879,
  "t3": 9880,
  "STD": 9881,
  "Encoder": 9882,
  "ED": 9883,
  "operator.@@": 9884,
  "SI@@": 9885,
  "tive": 9886,
  "force@@": 9887,
  "talib": 9888,
  "fsync": 9889,
  "ro": 9890,
  "chown": 9891,
  "big@@": 9892,
  "polarity": 9893,
  "REQ": 9894,
  "meta@@": 9895,
  "services.@@": 9896,
  "paginated": 9897,
  "any@@": 9898,
  "prospective": 9899,
  "`Locale`": 9900,
  "Bar@@": 9901,
  "datetime.utcnow": 9902,
  "args.get": 9903,
  "prefixer": 9904,
  "psutil": 9905,
  "data-@@": 9906,
  "subreddit": 9907,
  "plans": 9908,
  "qiime": 9909,
  "s.copy": 9910,
  "sing": 9911,
  "jenkins.@@": 9912,
  "My": 9913,
  "WCS": 9914,
  "balance": 9915,
  "Removed": 9916,
  "real@@": 9917,
  "Of": 9918,
  "46": 9919,
  "expensive": 9920,
  ".start": 9921,
  "cyan": 9922,
  "pcs": 9923,
  "release@@": 9924,
  "determinant": 9925,
  "Socket": 9926,
  "quteproc": 9927,
  "er-@@": 9928,
  "&apos;Redirect": 9929,
  "profiler.trace": 9930,
  "lang@@": 9931,
  "&apos;Imports": 9932,
  "np.nonzero": 9933,
  "indefinite": 9934,
  "coordinator": 9935,
  "np.argsort": 9936,
  "reorder": 9937,
  "recommendations": 9938,
  "declarative": 9939,
  "artifactory": 9940,
  "coming": 9941,
  "S``": 9942,
  "interp": 9943,
  "posted": 9944,
  "ABC": 9945,
  "Call@@": 9946,
  "picture": 9947,
  "Marker": 9948,
  "opacity": 9949,
  "MEDIA": 9950,
  "sFor@@": 9951,
  "divides": 9952,
  "repeatedly": 9953,
  "Statistics": 9954,
  "filesystems": 9955,
  "gd": 9956,
  "deactivate": 9957,
  "3rd": 9958,
  "Site.objects.get": 9959,
  ",@@": 9960,
  "nonlinearity": 9961,
  "microsite": 9962,
  "ellipsis": 9963,
  "nr": 9964,
  "float@@": 9965,
  "Array@@": 9966,
  "enqueue": 9967,
  "3-tuple": 9968,
  "Weights": 9969,
  "els": 9970,
  "instr": 9971,
  "prlctl": 9972,
  "alembic": 9973,
  "dag": 9974,
  "Runner": 9975,
  "trainer": 9976,
  "injected": 9977,
  "sqlalchemy.@@": 9978,
  "&apos;Asserts": 9979,
  "i-th": 9980,
  "hamming": 9981,
  "fs@@": 9982,
  "root@@": 9983,
  "IDLE": 9984,
  "topic.@@": 9985,
  "smoothed": 9986,
  "Al@@": 9987,
  "cs@@": 9988,
  "borrow": 9989,
  "check.@@": 9990,
  "all-@@": 9991,
  "sideLength": 9992,
  "implicitly": 9993,
  "nan@@": 9994,
  "chunks.append": 9995,
  "diagonals": 9996,
  "Galaxy": 9997,
  "Date@@": 9998,
  "Register@@": 9999,
  "&apos;Just": 10000,
  "script.site": 10001,
  "CSC": 10002,
  "sLen": 10003,
  "CLSID": 10004,
  "md@@": 10005,
  "ky": 10006,
  "fam": 10007,
  "Directive": 10008,
  "socktype": 10009,
  "merge@@": 10010,
  "s.startswith": 10011,
  "byts": 10012,
  "Jinja": 10013,
  "partition.@@": 10014,
  "baseClass": 10015,
  "l.append": 10016,
  "unbiased": 10017,
  "meta.app": 10018,
  "SafeData": 10019,
  "delete@@": 10020,
  "Negative": 10021,
  "lifetime": 10022,
  "51": 10023,
  "types.FunctionType": 10024,
  "conventions": 10025,
  "workaround": 10026,
  "limitby": 10027,
  "47": 10028,
  "ele": 10029,
  "staticmethod": 10030,
  "Debian": 10031,
  "SO": 10032,
  "la": 10033,
  "foo@@": 10034,
  "dominating": 10035,
  "subtract": 10036,
  "math.floor": 10037,
  "&apos;Collect": 10038,
  "com@@": 10039,
  "xmpp": 10040,
  "kw@@": 10041,
  "Feature@@": 10042,
  "ace": 10043,
  "....": 10044,
  "kstone": 10045,
  "effectively": 10046,
  "np@@": 10047,
  "nx.is": 10048,
  "minval": 10049,
  "forest": 10050,
  "js@@": 10051,
  "pm": 10052,
  "&apos;Join": 10053,
  "rv.@@": 10054,
  "cudnn": 10055,
  "unnecessary": 10056,
  "mut@@": 10057,
  "two-tuple": 10058,
  "iterates": 10059,
  "ACTION": 10060,
  "signals.@@": 10061,
  "nofilter": 10062,
  "Plot": 10063,
  "out.split": 10064,
  "bb@@": 10065,
  "compresslevel": 10066,
  "`float`": 10067,
  "transport.@@": 10068,
  "clf": 10069,
  "gcdex": 10070,
  "step.@@": 10071,
  "elementwise": 10072,
  "pytest.mark.network": 10073,
  "ly-@@": 10074,
  "autoload": 10075,
  "logging.INFO": 10076,
  "Calling": 10077,
  "unordered": 10078,
  "html.@@": 10079,
  "1.4": 10080,
  "participant": 10081,
  "Software": 10082,
  "responsive": 10083,
  "ub@@": 10084,
  "decodes": 10085,
  "exposed": 10086,
  "overall": 10087,
  "timetuple": 10088,
  "csf": 10089,
  "nics": 10090,
  "repo@@": 10091,
  "supposed": 10092,
  "specified&apos;": 10093,
  "mat.p": 10094,
  "ObjectDoesNotExist": 10095,
  "fashion": 10096,
  "Resolver": 10097,
  "launchctl": 10098,
  "knots": 10099,
  "Bo@@": 10100,
  "Switch": 10101,
  "obstime": 10102,
  "b64": 10103,
  "EVENT": 10104,
  "Split": 10105,
  "worder": 10106,
  "Consider": 10107,
  "track@@": 10108,
  "pattern.match": 10109,
  "twisted.@@": 10110,
  "handshake": 10111,
  "ME@@": 10112,
  "square-free": 10113,
  "photos": 10114,
  "owners": 10115,
  "queue.put": 10116,
  "V2": 10117,
  "mangle": 10118,
  "py3": 10119,
  "zero-@@": 10120,
  "89": 10121,
  "popular": 10122,
  "tolist": 10123,
  "nltk.@@": 10124,
  "cor@@": 10125,
  "local.@@": 10126,
  "bdm": 10127,
  "`p`": 10128,
  "`filename`": 10129,
  "by@@": 10130,
  "SAML": 10131,
  "crossentropy": 10132,
  "sklearn": 10133,
  "list`": 10134,
  "s.find": 10135,
  "默认": 10136,
  "lock.release": 10137,
  "path1": 10138,
  "fig@@": 10139,
  "Ho@@": 10140,
  "predicates": 10141,
  "urlquote": 10142,
  "MASTER": 10143,
  "2.": 10144,
  ".subs": 10145,
  "sufficient": 10146,
  "tv": 10147,
  "diagram": 10148,
  "mem@@": 10149,
  "unittest.TestCase": 10150,
  "9.0": 10151,
  "resourcePath": 10152,
  "returnValue": 10153,
  "legendre": 10154,
  "powershell": 10155,
  "SO@@": 10156,
  "rfind": 10157,
  "unencoded": 10158,
  "urllib2.urlopen": 10159,
  "Delta": 10160,
  "env.get": 10161,
  "synsets": 10162,
  "DomainName": 10163,
  "passive": 10164,
  "Web": 10165,
  "x.get": 10166,
  "fnmatch.fnmatch": 10167,
  "zmq.@@": 10168,
  "lat@@": 10169,
  "Enum": 10170,
  "response.body": 10171,
  "logbase": 10172,
  "M.@@": 10173,
  "config.update": 10174,
  "serv": 10175,
  "Requirement": 10176,
  "FLOAT": 10177,
  "interaction": 10178,
  "os.fdopen": 10179,
  "disposition": 10180,
  "31@@": 10181,
  "qualname": 10182,
  "fp.close": 10183,
  "`s": 10184,
  "Random@@": 10185,
  "800": 10186,
  "key.lower": 10187,
  "kodi": 10188,
  "pythonpath": 10189,
  "FREQUENCY": 10190,
  "Password@@": 10191,
  "nb@@": 10192,
  "pydot": 10193,
  "DocType": 10194,
  "1e-10": 10195,
  "decrease": 10196,
  "exc.errno": 10197,
  "cas": 10198,
  "euid": 10199,
  "six.itervalues": 10200,
  "sch@@": 10201,
  "&apos;Regression": 10202,
  "ie@@": 10203,
  "url.replace": 10204,
  "meta.get": 10205,
  "immutable": 10206,
  "nameservers": 10207,
  "&apos;Saves": 10208,
  "Markup": 10209,
  "recipes": 10210,
  "enclosed": 10211,
  "convolve": 10212,
  "testCase": 10213,
  "minimize": 10214,
  "explained": 10215,
  "Last-Modified": 10216,
  "accessor": 10217,
  "Inter@@": 10218,
  "path2": 10219,
  "Radius": 10220,
  "pkg.remove": 10221,
  "floatx": 10222,
  "REGISTRY": 10223,
  "killed": 10224,
  "Determines": 10225,
  "names&apos;": 10226,
  "qq": 10227,
  "zookeeper": 10228,
  "rotated": 10229,
  "payoff": 10230,
  "moduleName": 10231,
  "fetching": 10232,
  "port.@@": 10233,
  "deb": 10234,
  "click.option": 10235,
  "decompose": 10236,
  "selecting": 10237,
  "constr": 10238,
  "tenants": 10239,
  "enable@@": 10240,
  "environment.@@": 10241,
  "icmp": 10242,
  "transversals": 10243,
  "subscribed": 10244,
  "helpers.convert": 10245,
  "vo@@": 10246,
  "synthetic": 10247,
  "Normalized": 10248,
  "&apos;Plot": 10249,
  "Form@@": 10250,
  "std@@": 10251,
  "GCS": 10252,
  "9&apos;": 10253,
  "keypoints": 10254,
  "collections.Iterable": 10255,
  "discoverer": 10256,
  "Release": 10257,
  "smoothing": 10258,
  "pyenv": 10259,
  "Integral": 10260,
  "plays": 10261,
  "View@@": 10262,
  "instruction": 10263,
  "isdigit": 10264,
  "extension@@": 10265,
  "salt.modules.cmdmod.run": 10266,
  "trading": 10267,
  "xsi": 10268,
  "primarily": 10269,
  "Singular": 10270,
  "message&apos;": 10271,
  "beacon": 10272,
  "sam": 10273,
  "fns": 10274,
  "data.replace": 10275,
  "vbox": 10276,
  "```python": 10277,
  "appscale": 10278,
  "Binary": 10279,
  "BO@@": 10280,
  "LITTLE": 10281,
  "Str@@": 10282,
  "dipoles": 10283,
  "61": 10284,
  "ker@@": 10285,
  "window.@@": 10286,
  "filling": 10287,
  "gluster": 10288,
  "Epochs": 10289,
  "&apos;N@@": 10290,
  "dnsnames": 10291,
  "Property@@": 10292,
  "situations": 10293,
  "saturation": 10294,
  "`input`": 10295,
  "shutil.copy": 10296,
  "brick": 10297,
  "discount": 10298,
  "DEPRECATED": 10299,
  "Features": 10300,
  "Byte@@": 10301,
  "CS@@": 10302,
  "iptables": 10303,
  "delta.days": 10304,
  "low@@": 10305,
  "bar.@@": 10306,
  "ratelimit": 10307,
  "Account@@": 10308,
  "np.diag": 10309,
  "exceed": 10310,
  "userena": 10311,
  "SP": 10312,
  "lm": 10313,
  "provisioning": 10314,
  "Command@@": 10315,
  "predefined": 10316,
  "camelcase": 10317,
  "part@@": 10318,
  "cj": 10319,
  "90@@": 10320,
  "SkyCoord": 10321,
  "Internal": 10322,
  "sqlite3": 10323,
  "der.@@": 10324,
  "----": 10325,
  "numerically": 10326,
  "fake@@": 10327,
  "i.e": 10328,
  "ack": 10329,
  "OPTS": 10330,
  "idstring": 10331,
  "os.path": 10332,
  "`module`": 10333,
  "unzip": 10334,
  "sphinx": 10335,
  "Replace": 10336,
  "appserver": 10337,
  "ext.@@": 10338,
  "logging.warn": 10339,
  "codecs.open": 10340,
  "FASTQ": 10341,
  "module.params.get": 10342,
  "``data``": 10343,
  "`m`": 10344,
  "accumulate": 10345,
  "config.floatX": 10346,
  "Typical": 10347,
  "anchors": 10348,
  "3-": 10349,
  "docname": 10350,
  "maxlag": 10351,
  "unittest.@@": 10352,
  "ep@@": 10353,
  "ansible": 10354,
  "dealing": 10355,
  "Verify@@": 10356,
  "dictionaries&apos;": 10357,
  "clean@@": 10358,
  "Message.@@": 10359,
  "Obj": 10360,
  "np.prod": 10361,
  "concept": 10362,
  "WITH": 10363,
  "H.": 10364,
  "Applications": 10365,
  "Seed": 10366,
  "tc": 10367,
  "ANY": 10368,
  "Facebook": 10369,
  "node.get": 10370,
  "range@@": 10371,
  "PolificationFailed": 10372,
  "rep@@": 10373,
  "catches": 10374,
  "ComputationFailed": 10375,
  "NotFoundError": 10376,
  "clientsecrets": 10377,
  "23@@": 10378,
  "zdir": 10379,
  "ith": 10380,
  "behind": 10381,
  "can@@": 10382,
  "indicators": 10383,
  "&apos;Group": 10384,
  "0s": 10385,
  "resolves": 10386,
  "vert": 10387,
  "du@@": 10388,
  "cuts": 10389,
  "subseq": 10390,
  "urllib3": 10391,
  "path``": 10392,
  "CFG": 10393,
  "pat@@": 10394,
  "disables": 10395,
  "brief": 10396,
  "QuerySet": 10397,
  "encipher": 10398,
  "commands.append": 10399,
  "HttpResponseBadRequest": 10400,
  "Under": 10401,
  "cool": 10402,
  "np.asfortranarray": 10403,
  "yaml.load": 10404,
  "zipline": 10405,
  "controlled": 10406,
  "Float@@": 10407,
  "conjunction": 10408,
  "size.@@": 10409,
  "Mock": 10410,
  "&apos;Fix": 10411,
  "ay": 10412,
  "uc@@": 10413,
  "Mock@@": 10414,
  "conn.execute": 10415,
  "executes": 10416,
  "pep8": 10417,
  "numbered": 10418,
  "workbook": 10419,
  "GE@@": 10420,
  "acf": 10421,
  "pal": 10422,
  "options.allowed": 10423,
  "ct.@@": 10424,
  "sv": 10425,
  "list-@@": 10426,
  "consist": 10427,
  "numpy.ndarray`": 10428,
  "attacks": 10429,
  "isatty": 10430,
  "tearDown": 10431,
  "72@@": 10432,
  "tp@@": 10433,
  "``a": 10434,
  "67": 10435,
  "unc": 10436,
  "&apos;Detect": 10437,
  "win32con.HKEY": 10438,
  "ance@@": 10439,
  "seps": 10440,
  "os.W": 10441,
  "checkbox": 10442,
  "receives": 10443,
  "tomcat.@@": 10444,
  "quickly": 10445,
  "lu@@": 10446,
  "gen.Task": 10447,
  "Dir@@": 10448,
  "cross-@@": 10449,
  "tion`": 10450,
  "cache&apos;": 10451,
  "moderator": 10452,
  "``get": 10453,
  "dT": 10454,
  ".add@@": 10455,
  "resample": 10456,
  "son": 10457,
  "np.random.randn": 10458,
  "bitmap": 10459,
  "outs": 10460,
  "tee": 10461,
  "nets": 10462,
  "errcheck": 10463,
  "&apos;Outputs": 10464,
  "satisfies": 10465,
  "flaky": 10466,
  "Grafana": 10467,
  "scored": 10468,
  "e`": 10469,
  "writers": 10470,
  "sen@@": 10471,
  "Comment@@": 10472,
  "err.errno": 10473,
  "manage.py": 10474,
  "aggregated": 10475,
  "Digest": 10476,
  "GUID": 10477,
  "cu@@": 10478,
  "toposort": 10479,
  "field`": 10480,
  "CCX": 10481,
  "indexname": 10482,
  "cherrypy.@@": 10483,
  "file.seek": 10484,
  "Accept": 10485,
  "cone": 10486,
  "es``": 10487,
  "url.split": 10488,
  "`K": 10489,
  "fc@@": 10490,
  "plug": 10491,
  "job-@@": 10492,
  "ndimage": 10493,
  "downloading": 10494,
  "element@@": 10495,
  "history.@@": 10496,
  "-j": 10497,
  "dw": 10498,
  "standardize": 10499,
  "xri": 10500,
  "users.@@": 10501,
  "Icon": 10502,
  "cal": 10503,
  "ipsum": 10504,
  "sph": 10505,
  "hexdigest": 10506,
  "eventlet": 10507,
  "sensitivity": 10508,
  "averaged": 10509,
  "board": 10510,
  "islice": 10511,
  "hyper@@": 10512,
  "www.google.com": 10513,
  "fetcher": 10514,
  "``cls``": 10515,
  "renew": 10516,
  "out.splitlines": 10517,
  "mentioned": 10518,
  "sel@@": 10519,
  "activations": 10520,
  "illuminant": 10521,
  "np.float": 10522,
  "supporting": 10523,
  "Op@@": 10524,
  "urlsplit": 10525,
  "version.split": 10526,
  "gdb": 10527,
  "synchronize": 10528,
  "normalizer": 10529,
  "rw": 10530,
  "AR": 10531,
  "measured": 10532,
  "fanout": 10533,
  "Init": 10534,
  "request.session.get": 10535,
  "fileNameSuffix": 10536,
  "frame.@@": 10537,
  "Elements": 10538,
  "held": 10539,
  "``filename``": 10540,
  "Int@@": 10541,
  "practice": 10542,
  "&apos;command": 10543,
  ".ndim": 10544,
  "splitting": 10545,
  "&apos;Unpack": 10546,
  "object@@": 10547,
  "divider": 10548,
  "Modified": 10549,
  "uint32": 10550,
  "argc": 10551,
  "acid": 10552,
  "sqr": 10553,
  "tt.@@": 10554,
  "stc": 10555,
  "pxpy": 10556,
  "bodies": 10557,
  "Number@@": 10558,
  "art": 10559,
  "relaxed": 10560,
  "np.int64": 10561,
  "xonsh": 10562,
  "beam": 10563,
  "constructs": 10564,
  "noun": 10565,
  "uniquely": 10566,
  "&apos;Downloads": 10567,
  "completes": 10568,
  "``expr": 10569,
  "Physical": 10570,
  "twisted.internet.@@": 10571,
  "NIC": 10572,
  "Scaling": 10573,
  "hessian": 10574,
  "CS": 10575,
  "OLS": 10576,
  "&apos;Co@@": 10577,
  "backends.@@": 10578,
  "destructive": 10579,
  "Download@@": 10580,
  "settings.EMAIL": 10581,
  "trend": 10582,
  "favor": 10583,
  "bt": 10584,
  "University": 10585,
  "hdf5": 10586,
  "Tm": 10587,
  "xrd": 10588,
  "downloadable": 10589,
  "db&apos;": 10590,
  "-8": 10591,
  "arma": 10592,
  "extraneous": 10593,
  "highstate": 10594,
  "TB": 10595,
  "alg": 10596,
  "Agent": 10597,
  "One@@": 10598,
  "corrupted": 10599,
  "ue@@": 10600,
  "lock.acquire": 10601,
  "bchr": 10602,
  "unverified": 10603,
  "coef": 10604,
  "REGEX.match": 10605,
  "registers": 10606,
  "x`": 10607,
  "日期": 10608,
  "options.pop": 10609,
  "addr.@@": 10610,
  "commented": 10611,
  "a-zA-Z": 10612,
  "Keystone": 10613,
  "sizeof": 10614,
  "Control@@": 10615,
  "ns@@": 10616,
  "tvdb": 10617,
  "instrumented": 10618,
  "vbd": 10619,
  "DROP": 10620,
  "ode": 10621,
  "obj.id": 10622,
  "INDENT": 10623,
  "modifying": 10624,
  "TO@@": 10625,
  "braces": 10626,
  "cre@@": 10627,
  "rank@@": 10628,
  "six": 10629,
  "six.integer": 10630,
  "FAILURE": 10631,
  "Commit": 10632,
  "name.rsplit": 10633,
  "ren@@": 10634,
  "1.2.@@": 10635,
  "evennia": 10636,
  "&apos;You": 10637,
  "psql": 10638,
  "System@@": 10639,
  "dumped": 10640,
  "salt.utils.http.query": 10641,
  "&apos;Copies": 10642,
  "rabbitmq": 10643,
  "cert@@": 10644,
  "walker": 10645,
  "MS@@": 10646,
  "PBKDF2": 10647,
  "cur.execute": 10648,
  "subpath": 10649,
  "whom": 10650,
  "0,0": 10651,
  "extracts": 10652,
  "Widget": 10653,
  "max-@@": 10654,
  "sdb": 10655,
  "MSBuild": 10656,
  "Parser@@": 10657,
  "weakref": 10658,
  "ax2": 10659,
  ".setdefault": 10660,
  "Just": 10661,
  "TEMPLATES": 10662,
  "mocked": 10663,
  "python3": 10664,
  "Lexer": 10665,
  "tracked": 10666,
  "ed-@@": 10667,
  "decompress": 10668,
  "deviations": 10669,
  "&apos;Append": 10670,
  "AVAILABLE": 10671,
  "sine": 10672,
  "``key``": 10673,
  ".cache": 10674,
  "ish": 10675,
  "xmlrpc": 10676,
  "del@@": 10677,
  "HA1": 10678,
  "IGNORE": 10679,
  "expr.is": 10680,
  "varint": 10681,
  "understand": 10682,
  "Diff@@": 10683,
  "COLOR": 10684,
  "65536": 10685,
  "&apos;Close": 10686,
  "stop@@": 10687,
  "MAP.get": 10688,
  "un-@@": 10689,
  "va": 10690,
  "image2": 10691,
  "e1": 10692,
  "&apos;Provide": 10693,
  "Nova": 10694,
  "label.@@": 10695,
  "Downloading": 10696,
  "grants": 10697,
  "er.get": 10698,
  "MLP": 10699,
  "desc@@": 10700,
  "DimShuffle": 10701,
  "FLAG": 10702,
  "ug@@": 10703,
  "fd@@": 10704,
  "pillarenv": 10705,
  "Positional": 10706,
  "CPUs": 10707,
  "image.size": 10708,
  "table.c.@@": 10709,
  "FILES": 10710,
  "Hook": 10711,
  "``bytes``": 10712,
  "covered": 10713,
  "Average": 10714,
  "gre@@": 10715,
  "mu@@": 10716,
  "en-US": 10717,
  "LANG": 10718,
  "casting": 10719,
  "oids": 10720,
  "Send": 10721,
  "d.keys": 10722,
  "infered": 10723,
  "loader.@@": 10724,
  "cgsnapshot": 10725,
  "`b`": 10726,
  "tensor.as": 10727,
  "stmts": 10728,
  "all&apos;": 10729,
  "REPORT": 10730,
  "derivation.@@": 10731,
  "haproxy": 10732,
  "inode": 10733,
  "regexes": 10734,
  "IMPL.quota": 10735,
  "q2": 10736,
  "FORM": 10737,
  "went": 10738,
  "92": 10739,
  "sensible": 10740,
  "global@@": 10741,
  "Unique": 10742,
  "fan": 10743,
  "g-@@": 10744,
  "&apos;Yields": 10745,
  "qubits": 10746,
  "boto3.get": 10747,
  "only&apos;": 10748,
  "ator.@@": 10749,
  "assertions": 10750,
  "b``": 10751,
  "choosing": 10752,
  "somewhat": 10753,
  "event.current": 10754,
  "rsync": 10755,
  "DC@@": 10756,
  "Patch": 10757,
  "bond.update": 10758,
  "Permission": 10759,
  "BlobInfo": 10760,
  "sane": 10761,
  "matvect": 10762,
  "infty": 10763,
  "file.name": 10764,
  "datastore.Entity": 10765,
  "response.raise": 10766,
  "Y.": 10767,
  "dijkstra": 10768,
  "ACTIVE": 10769,
  "Calculate": 10770,
  "EXTENSION": 10771,
  "queue.@@": 10772,
  "&apos;r": 10773,
  "ReferenceFrame": 10774,
  "zero@@": 10775,
  "draws": 10776,
  "ges": 10777,
  "&apos;Allow": 10778,
  "tion&apos;": 10779,
  "PolyElement": 10780,
  "os.path.getmtime": 10781,
  "3000": 10782,
  "parameter@@": 10783,
  "unbound": 10784,
  "state&apos;": 10785,
[...]
