{
  "<EOS>": 0,
  "<GO>": 1,
  "<UNK>": 2,
  "DCSP": 3,
  "DCNL": 4,
  "_": 5,
  "(": 6,
  ")": 7,
  "&apos;": 8,
  ",": 9,
  ":": 10,
  "=": 11,
  ".": 12,
  "&#91;": 13,
  "&#93;": 14,
  "the": 15,
  "if": 16,
  "return": 17,
  "\\": 18,
  "def": 19,
  "a": 20,
  "in": 21,
  "to": 22,
  "*": 23,
  "for": 24,
  "is": 25,
  "of": 26,
  "&gt;": 27,
  "None": 28,
  "name": 29,
  "/": 30,
  "%": 31,
  "not": 32,
  "0": 33,
  "1": 34,
  "and": 35,
  "{": 36,
  "}": 37,
  "&quot;": 38,
  "s": 39,
  "+": 40,
  "or": 41,
  "path": 42,
  "list": 43,
  "id": 44,
  "from": 45,
  "value": 46,
  "key": 47,
  "be": 48,
  "data": 49,
  "else": 50,
  "get": 51,
  "type": 52,
  "u": 53,
  "with": 54,
  "True": 55,
  "x": 56,
  "file": 57,
  "False": 58,
  "n": 59,
  "-": 60,
  "as": 61,
  "The": 62,
  "@": 63,
  "param": 64,
  "2": 65,
  "user": 66,
  "string": 67,
  "that": 68,
  "raise": 69,
  "&lt;": 70,
  "args": 71,
  "an": 72,
  "str": 73,
  "try": 74,
  "len": 75,
  "i": 76,
  "except": 77,
  "Returns": 78,
  "by": 79,
  "dict": 80,
  "request": 81,
  "function": 82,
  "kwargs": 83,
  "on": 84,
  "all": 85,
  "result": 86,
  "test": 87,
  "context": 88,
  "object": 89,
  "url": 90,
  "set": 91,
  "default": 92,
  "are": 93,
  "f": 94,
  "A": 95,
  "will": 96,
  "it": 97,
  "If": 98,
  "ret": 99,
  "int": 100,
  "new": 101,
  "import": 102,
  "version": 103,
  "this": 104,
  "module": 105,
  "text": 106,
  "class": 107,
  "..": 108,
  "isinstance": 109,
  "assert": 110,
  "given": 111,
  "3": 112,
  "salt": 113,
  "t": 114,
  "p": 115,
  ".format": 116,
  "filename": 117,
  "size": 118,
  "y": 119,
  "This": 120,
  "elif": 121,
  "line": 122,
  "config": 123,
  "func": 124,
  "instance": 125,
  "format": 126,
  "d": 127,
  "!": 128,
  "image": 129,
  "response": 130,
  "Return": 131,
  "output": 132,
  "info": 133,
  "error": 134,
  "dir": 135,
  "use": 136,
  "number": 137,
  "message": 138,
  "host": 139,
  "b": 140,
  "values": 141,
  "k": 142,
  "r": 143,
  "obj": 144,
  "node": 145,
  "which": 146,
  "method": 147,
  "code": 148,
  "c": 149,
  "used": 150,
  "out": 151,
  "start": 152,
  "can": 153,
  "v": 154,
  "index": 155,
  "check": 156,
  "ValueError": 157,
  "`": 158,
  "-1": 159,
  "array": 160,
  "time": 161,
  "cmd": 162,
  "``": 163,
  "e": 164,
  "query": 165,
  "print": 166,
  "status": 167,
  "port": 168,
  "input": 169,
  "&#124;": 170,
  "returns": 171,
  "source": 172,
  "names": 173,
  "group": 174,
  "current": 175,
  "model": 176,
  "field": 177,
  "msg": 178,
  "item": 179,
  "only": 180,
  "create": 181,
  "`@@": 182,
  "params": 183,
  "range": 184,
  "has": 185,
  "command": 186,
  "4": 187,
  "files": 188,
  "Example": 189,
  "&apos;@@": 190,
  "password": 191,
  "one": 192,
  "no": 193,
  "course": 194,
  "profile": 195,
  "target": 196,
  "cache": 197,
  "should": 198,
  "max": 199,
  "tuple": 200,
  "state": 201,
  "base": 202,
  "mode": 203,
  "must": 204,
  "options": 205,
  "service": 206,
  "arg": 207,
  "code-block": 208,
  "content": 209,
  "app": 210,
  "template": 211,
  "run": 212,
  "count": 213,
  "prefix": 214,
  "m": 215,
  "CLI": 216,
  "#": 217,
  "server": 218,
  "directory": 219,
  ";": 220,
  "add": 221,
  "``@@": 222,
  "length": 223,
  "bash": 224,
  "float": 225,
  "num": 226,
  "using": 227,
  "first": 228,
  "token": 229,
  "at": 230,
  "root": 231,
  "shape": 232,
  "table": 233,
  "into": 234,
  "Parameters": 235,
  "Get": 236,
  "specified": 237,
  "end": 238,
  "match": 239,
  "pass": 240,
  "X": 241,
  "client": 242,
  "task": 243,
  "form": 244,
  "filter": 245,
  "call": 246,
  "header": 247,
  "bytes": 248,
  "keys": 249,
  "resource": 250,
  "log": 251,
  "w": 252,
  "tag": 253,
  "date": 254,
  "val": 255,
  "db": 256,
  "when": 257,
  "have": 258,
  "update": 259,
  "any": 260,
  "http": 261,
  "valid": 262,
  "session": 263,
  ".@@": 264,
  "dtype": 265,
  "found": 266,
  "...": 267,
  "open": 268,
  "package": 269,
  "5": 270,
  "encoding": 271,
  "each": 272,
  "parse": 273,
  "address": 274,
  "username": 275,
  "read": 276,
  "optional": 277,
  "lines": 278,
  "&amp;": 279,
  "?": 280,
  "order": 281,
  "unicode": 282,
  "action": 283,
  "region": 284,
  "dictionary": 285,
  "while": 286,
  "os.path.join": 287,
  "bool": 288,
  "opts": 289,
  "email": 290,
  "delete": 291,
  "project": 292,
  "axis": 293,
  "load": 294,
  "items": 295,
  "html": 296,
  "we": 297,
  "view": 298,
  "matrix": 299,
  "parent": 300,
  "yield": 301,
  "Args": 302,
  "res": 303,
  "device": 304,
  "label": 305,
  "C": 306,
  "self": 307,
  "page": 308,
  "argument": 309,
  "types": 310,
  "find": 311,
  "arguments": 312,
  "local": 313,
  "last": 314,
  "headers": 315,
  "api": 316,
  "make": 317,
  "event": 318,
  "map": 319,
  "returned": 320,
  "where": 321,
  ".join": 322,
  "settings": 323,
  "results": 324,
  "fields": 325,
  "ip": 326,
  "required": 327,
  "timeout": 328,
  "Exception": 329,
  "comment": 330,
  "URL": 331,
  "then": 332,
  "conn": 333,
  "10": 334,
  "but": 335,
  "old": 336,
  "row": 337,
  "access": 338,
  "you": 339,
  "like": 340,
  "exception": 341,
  "global": 342,
  "json": 343,
  "j": 344,
  "does": 345,
  "python": 346,
  "graph": 347,
  "errors": 348,
  "getattr": 349,
  "L": 350,
  "min": 351,
  "auth": 352,
  "g": 353,
  "nodes": 354,
  "exists": 355,
  "cls": 356,
  "exc": 357,
  "h": 358,
  "search": 359,
  "G": 360,
  "stream": 361,
  "continue": 362,
  "rtype": 363,
  "element": 364,
  "lambda": 365,
  "same": 366,
  "level": 367,
  "l": 368,
  "-@@": 369,
  "block": 370,
  "connection": 371,
  "q": 372,
  "available": 373,
  "metadata": 374,
  "passed": 375,
  "random": 376,
  "limit": 377,
  "variable": 378,
  "ids": 379,
  "objects": 380,
  "ID": 381,
  "location": 382,
  "process": 383,
  "sequence": 384,
  "width": 385,
  "pos": 386,
  "title": 387,
  ".get": 388,
  "system": 389,
  "true": 390,
  "was": 391,
  "paths": 392,
  "attribute": 393,
  "hash": 394,
  "extra": 395,
  "color": 396,
  "offset": 397,
  "remove": 398,
  "body": 399,
  "next": 400,
  "doc": 401,
  "expected": 402,
  "parameters": 403,
  "env": 404,
  "ref": 405,
  "Test": 406,
  "full": 407,
  "containing": 408,
  "do": 409,
  "attr": 410,
  "fn": 411,
  "created": 412,
  "entry": 413,
  "write": 414,
  "handler": 415,
  "volume": 416,
  "hasattr": 417,
  "parameter": 418,
  "namespace": 419,
  "pattern": 420,
  "integer": 421,
  "xml": 422,
  "build": 423,
  "language": 424,
  "domain": 425,
  "option": 426,
  "^": 427,
  "handle": 428,
  "case": 429,
  "raw": 430,
  "z": 431,
  "after": 432,
  "more": 433,
  "sorted": 434,
  "so": 435,
  "mapping": 436,
  "sample": 437,
  "up": 438,
  "show": 439,
  "login": 440,
  "break": 441,
  "its": 442,
  "than": 443,
  "expr": 444,
  "other": 445,
  "document": 446,
  "network": 447,
  "seq": 448,
  "Python": 449,
  "err": 450,
  "~": 451,
  "two": 452,
  "tree": 453,
  "labels": 454,
  "strings": 455,
  "admin": 456,
  "6": 457,
  "site": 458,
  "stdout": 459,
  "For": 460,
  "Examples": 461,
  "single": 462,
  "Create": 463,
  "TypeError": 464,
  "empty": 465,
  "configuration": 466,
  "idx": 467,
  "See": 468,
  "sort": 469,
  "1.0": 470,
  "description": 471,
  "script": 472,
  "parts": 473,
  "split": 474,
  "include": 475,
  "copy": 476,
  "src": 477,
  "column": 478,
  "example": 479,
  "decorator": 480,
  "before": 481,
  "called": 482,
  "provided": 483,
  "job": 484,
  "may": 485,
  "backend": 486,
  "tests": 487,
  "part": 488,
  "tags": 489,
  "mod": 490,
  "init": 491,
  "var": 492,
  "keyid": 493,
  "equal": 494,
  "render": 495,
  "8": 496,
  "information": 497,
  "application": 498,
  "locale": 499,
  "conf": 500,
  "step": 501,
  "wrapper": 502,
  "total": 503,
  "word": 504,
  "ignore": 505,
  "database": 506,
  "Error": 507,
  "groups": 508,
  "N": 509,
  "point": 510,
  "install": 511,
  "uuid": 512,
  "vm": 513,
  "repository": 514,
  "force": 515,
  "link": 516,
  "spec": 517,
  "foo": 518,
  "changes": 519,
  "Check": 520,
  "$": 521,
  "fname": 522,
  "record": 523,
  "running": 524,
  "timestamp": 525,
  "between": 526,
  "reverse": 527,
  ".&apos;": 528,
  "It": 529,
  "uri": 530,
  "collection": 531,
  "already": 532,
  "sum": 533,
  "whether": 534,
  "List": 535,
  "container": 536,
  "policy": 537,
  "--": 538,
  "An": 539,
  "bits": 540,
  "API": 541,
  "store": 542,
  "convert": 543,
  "K": 544,
  "unit": 545,
  "save": 546,
  "loop": 547,
  "e.g.": 548,
  "safe": 549,
  "also": 550,
  "callback": 551,
  "installed": 552,
  "thread": 553,
  "generate": 554,
  "seconds": 555,
  "plugin": 556,
  "mask": 557,
  "role": 558,
  "stderr": 559,
  "folder": 560,
  "users": 561,
  "shell": 562,
  "dev": 563,
  "points": 564,
  "col": 565,
  "parser": 566,
  "there": 567,
  "original": 568,
  "flags": 569,
  "exist": 570,
  "media": 571,
  "either": 572,
  "account": 573,
  "filters": 574,
  "hostname": 575,
  "help": 576,
  "instead": 577,
  "Name": 578,
  "B": 579,
  "images": 580,
  "dataset": 581,
  "datetime": 582,
  "see": 583,
  "redirect": 584,
  "stop": 585,
  "pkg": 586,
  ".split": 587,
  "schema": 588,
  "M": 589,
  "provider": 590,
  "based": 591,
  "contains": 592,
  "modules": 593,
  "7": 594,
  "n@@": 595,
  "batch": 596,
  "left": 597,
  "Convert": 598,
  "variables": 599,
  "attributes": 600,
  "verbose": 601,
  "zone": 602,
  "flag": 603,
  "deleted": 604,
  "enabled": 605,
  "repo": 606,
  "section": 607,
  "https": 608,
  "--@@": 609,
  "0.0": 610,
  "samples": 611,
  "binary": 612,
  "remote": 613,
  "iterable": 614,
  "setup": 615,
  "some": 616,
  "scope": 617,
  "interface": 618,
  "Set": 619,
  "change": 620,
  "ndarray": 621,
  "been": 622,
  "parsed": 623,
  "otherwise": 624,
  "cluster": 625,
  "replace": 626,
  "contents": 627,
  "property": 628,
  "zip": 629,
  "proxy": 630,
  "invalid": 631,
  "py": 632,
  "scale": 633,
  "mean": 634,
  "secret": 635,
  "right": 636,
  "category": 637,
  "rows": 638,
  "expression": 639,
  "validate": 640,
  "Y": 641,
  "require": 642,
  "permission": 643,
  "versionadded": 644,
  "post": 645,
  "callable": 646,
  "environment": 647,
  "public": 648,
  "setting": 649,
  "properties": 650,
  "iter": 651,
  "failed": 652,
  "supported": 653,
  "defaults": 654,
  "height": 655,
  "o": 656,
  "classes": 657,
  "utf-8": 658,
  "entity": 659,
  "get@@": 660,
  "manager": 661,
  "elements": 662,
  "indices": 663,
  "channel": 664,
  "raises": 665,
  "queue": 666,
  "usage": 667,
  "weight": 668,
  "send": 669,
  "existing": 670,
  "columns": 671,
  "rule": 672,
  "meta": 673,
  "extension": 674,
  "KeyError": 675,
  "Given": 676,
  "main": 677,
  "yaml": 678,
  "Note": 679,
  "allow": 680,
  "disk": 681,
  "active": 682,
  "kw": 683,
  "chunk": 684,
  "packages": 685,
  "lang": 686,
  "missing": 687,
  "features": 688,
  "op": 689,
  "matches": 690,
  "diff": 691,
  "compute": 692,
  "os.path.exists": 693,
  "enumerate": 694,
  "attrs": 695,
  "alpha": 696,
  "child": 697,
  "over": 698,
  "tmp": 699,
  "del": 700,
  "dirs": 701,
  "S": 702,
  "product": 703,
  "buffer": 704,
  "display": 705,
  "payload": 706,
  "tokens": 707,
  "such": 708,
  "success": 709,
  "keyword": 710,
  "img": 711,
  "unique": 712,
  "debug": 713,
  "defined": 714,
  "stack": 715,
  "cert": 716,
  "position": 717,
  "long": 718,
  "protocol": 719,
  "virtual": 720,
  "multiple": 721,
  "HTTP": 722,
  "suffix": 723,
  "functions": 724,
  "slug": 725,
  "second": 726,
  "addr": 727,
  "lower": 728,
  "tensor": 729,
  "bin": 730,
  "I": 731,
  "methods": 732,
  "dest": 733,
  "fp": 734,
  "cookie": 735,
  "NAME": 736,
  "want": 737,
  "certificate": 738,
  "char": 739,
  "kind": 740,
  "git": 741,
  "ext": 742,
  "without": 743,
  "deprecated": 744,
  "etc": 745,
  "being": 746,
  "style": 747,
  "devices": 748,
  "characters": 749,
  "release": 750,
  "dim": 751,
  "named": 752,
  "messages": 753,
  "DCTB": 754,
  "config.get": 755,
  "top": 756,
  "boolean": 757,
  "window": 758,
  "Raises": 759,
  "s@@": 760,
  "libvlc": 761,
  "they": 762,
  "exclude": 763,
  "df": 764,
  "np.array": 765,
  "details": 766,
  "instances": 767,
  "library": 768,
  "factory": 769,
  "register": 770,
  "req": 771,
  "T": 772,
  "temp": 773,
  "connect": 774,
  "zero": 775,
  "pool": 776,
  "0.5": 777,
  "topic": 778,
  "added": 779,
  "possible": 780,
  "finally": 781,
  "wait": 782,
  "now": 783,
  "weights": 784,
  "present": 785,
  "Default": 786,
  "storage": 787,
  "Arguments": 788,
  "Add": 789,
  "real": 790,
  "AttributeError": 791,
  "absolute": 792,
  "decode": 793,
  "both": 794,
  "score": 795,
  "master": 796,
  "allowed": 797,
  "encode": 798,
  "simple": 799,
  "relative": 800,
  "reference": 801,
  "R": 802,
  "DEFAULT": 803,
  "100": 804,
  "them": 805,
  "per": 806,
  "standard": 807,
  "apply": 808,
  "encoded": 809,
  "clean": 810,
  "bucket": 811,
  "sub": 812,
  "feature": 813,
  "platform": 814,
  "changed": 815,
  "signature": 816,
  "No": 817,
  "inputs": 818,
  "re": 819,
  "need": 820,
  "pk": 821,
  "Notes": 822,
  "In": 823,
  "support": 824,
  "16": 825,
  ".replace": 826,
  "dist": 827,
  "download": 828,
  "summary": 829,
  "alias": 830,
  "H": 831,
  "commit": 832,
  "scheme": 833,
  "skip": 834,
  "cannot": 835,
  "layer": 836,
  "CONF": 837,
  "snapshot": 838,
  "vars": 839,
  "identifier": 840,
  "frame": 841,
  "stats": 842,
  "words": 843,
  "actual": 844,
  "kernel": 845,
  "following": 846,
  "year": 847,
  "updated": 848,
  "removed": 849,
  "events": 850,
  "join": 851,
  "byte": 852,
  "matching": 853,
  "private": 854,
  "Only": 855,
  "subject": 856,
  "space": 857,
  "bar": 858,
  "pid": 859,
  "uid": 860,
  "entries": 861,
  "specific": 862,
  "extract": 863,
  "work": 864,
  "generator": 865,
  "exp": 866,
  "abs": 867,
  "fd": 868,
  "corresponding": 869,
  ".strip": 870,
  "just": 871,
  "lists": 872,
  "os": 873,
  "head": 874,
  "pairs": 875,
  "retcode": 876,
  "Use": 877,
  "different": 878,
  "times": 879,
  "distribution": 880,
  "contain": 881,
  "children": 882,
  "im": 883,
  "P": 884,
  "dt": 885,
  "s&apos;": 886,
  "common": 887,
  "hosts": 888,
  "&apos;.join": 889,
  "socket": 890,
  "about": 891,
  "wrapped": 892,
  "select": 893,
  "indent": 894,
  "IP": 895,
  "report": 896,
  "vector": 897,
  "doesn": 898,
  "cmd.run": 899,
  "ensure": 900,
  "components": 901,
  "iterator": 902,
  "close": 903,
  "You": 904,
  "ImportError": 905,
  "registry": 906,
  "xrange": 907,
  "requires": 908,
  "Invalid": 909,
  "series": 910,
  "their": 911,
  "representation": 912,
  "s.@@": 913,
  "regex": 914,
  "rate": 915,
  ".append": 916,
  "repr": 917,
  "verify": 918,
  "most": 919,
  "Helper": 920,
  "custom": 921,
  "home": 922,
  "20": 923,
  "could": 924,
  "tool": 925,
  "targets": 926,
  "JSON": 927,
  "Optional": 928,
  "false": 929,
  "within": 930,
  "resp": 931,
  "&apos;t": 932,
  "lookup": 933,
  "escape": 934,
  "chunks": 935,
  "operation": 936,
  "complete": 937,
  "lock": 938,
  "representing": 939,
  "slice": 940,
  "strip": 941,
  "endpoint": 942,
  "algorithm": 943,
  "log.debug": 944,
  "runas": 945,
  "uses": 946,
  "append": 947,
  "exit": 948,
  "s.append": 949,
  "quote": 950,
  "warning": 951,
  "lib": 952,
  "logger": 953,
  "IOError": 954,
  "loaded": 955,
  "don": 956,
  "interval": 957,
  "Path": 958,
  "versions": 959,
  "member": 960,
  "dst": 961,
  ".lower": 962,
  "credentials": 963,
  "depth": 964,
  "patch": 965,
  "edges": 966,
  "fs": 967,
  "modified": 968,
  "permissions": 969,
  "clear": 970,
  "distance": 971,
  "your": 972,
  "my": 973,
  "OSError": 974,
  "generated": 975,
  "term": 976,
  "boto": 977,
  "logging": 978,
  "commands": 979,
  "ctx": 980,
  "Also": 981,
  "d@@": 982,
  "core": 983,
  "math": 984,
  "owner": 985,
  "fail": 986,
  "hook": 987,
  "numpy": 988,
  "marker": 989,
  "via": 990,
  "orig": 991,
  "sys": 992,
  "edge": 993,
  "User": 994,
  "transform": 995,
  "HTML": 996,
  "colors": 997,
  "character": 998,
  "seed": 999,
  "plot": 1000,
  "opt": 1001,
  "404": 1002,
  "family": 1003,
  "maximum": 1004,
  "pair": 1005,
  "datastore": 1006,
  "revision": 1007,
  "fileName": 1008,
  "ssl": 1009,
  "prop": 1010,
  "rest": 1011,
  "raised": 1012,
  "myminion": 1013,
  "-&apos;": 1014,
  "environ": 1015,
  "POST": 1016,
  "PATH": 1017,
  "signal": 1018,
  "request.POST": 1019,
  "cur": 1020,
  "c@@": 1021,
  "links": 1022,
  "pre": 1023,
  "arrays": 1024,
  "keep": 1025,
  "packet": 1026,
  "execute": 1027,
  "re.sub": 1028,
  "scalar": 1029,
  "factor": 1030,
  "cached": 1031,
  "minion": 1032,
  "32": 1033,
  "ch": 1034,
  "since": 1035,
  "norm": 1036,
  "symbol": 1037,
  "delta": 1038,
  "rules": 1039,
  "i.e.": 1040,
  "2@@": 1041,
  "trace": 1042,
  "exploration": 1043,
  "needed": 1044,
  "buf": 1045,
  "previous": 1046,
  "done": 1047,
  "File": 1048,
  "9": 1049,
  "day": 1050,
  "degree": 1051,
  "GET": 1052,
  "log.error": 1053,
  "rv": 1054,
  "arr": 1055,
  "net": 1056,
  "2.0": 1057,
  "s3": 1058,
  "klass": 1059,
  "descriptor": 1060,
  "tuples": 1061,
  "12": 1062,
  "models": 1063,
  "Parse": 1064,
  "requests": 1065,
  "retry": 1066,
  "normal": 1067,
  "known": 1068,
  "what": 1069,
  "engine": 1070,
  "ratio": 1071,
  "branch": 1072,
  "Run": 1073,
  "steps": 1074,
  "dependencies": 1075,
  "Generate": 1076,
  "radius": 1077,
  "F": 1078,
  "blocks": 1079,
  "static": 1080,
  "failure": 1081,
  "video": 1082,
  "normalize": 1083,
  "because": 1084,
  "cwd": 1085,
  "train": 1086,
  "takes": 1087,
  "associated": 1088,
  "p@@": 1089,
  "partition": 1090,
  "through": 1091,
  "component": 1092,
  "sure": 1093,
  "blob": 1094,
  "structure": 1095,
  "enable": 1096,
  "always": 1097,
  "channels": 1098,
  "self.@@": 1099,
  "kwargs.get": 1100,
  "none": 1101,
  "Creates": 1102,
  "reset": 1103,
  "Remove": 1104,
  "Checks": 1105,
  "controller": 1106,
  "helper": 1107,
  "Windows": 1108,
  "String": 1109,
  "would": 1110,
  "pillar": 1111,
  "memory": 1112,
  "builder": 1113,
  "sep": 1114,
  "resources": 1115,
  "filepath": 1116,
  "un@@": 1117,
  "control": 1118,
  "sender": 1119,
  "b@@": 1120,
  "desc": 1121,
  "destination": 1122,
  "sparse": 1123,
  "dirname": 1124,
  "Failed": 1125,
  "inner": 1126,
  "When": 1127,
  "axes": 1128,
  "warnings": 1129,
  "Make": 1130,
  "merge": 1131,
  "Compute": 1132,
  "Q": 1133,
  "Converts": 1134,
  "loc": 1135,
  "fmt": 1136,
  "Number": 1137,
  "agent": 1138,
  "services": 1139,
  "ignored": 1140,
  "constant": 1141,
  "fill": 1142,
  "driver": 1143,
  "f@@": 1144,
  "calls": 1145,
  "os.path.dirname": 1146,
  "chain": 1147,
  "initial": 1148,
  "plugins": 1149,
  "To": 1150,
  "month": 1151,
  "back": 1152,
  "digest": 1153,
  "upper": 1154,
  "figure": 1155,
  "basestring": 1156,
  "elementNode": 1157,
  "jobs": 1158,
  "complex": 1159,
  "hass": 1160,
  "units": 1161,
  "until": 1162,
  "sign": 1163,
  "configured": 1164,
  "docstring": 1165,
  "condition": 1166,
  "wrap": 1167,
  "re@@": 1168,
  "strict": 1169,
  "s`": 1170,
  "ndim": 1171,
  "converted": 1172,
  "-f": 1173,
  "additional": 1174,
  "org": 1175,
  "shared": 1176,
  "dot": 1177,
  "numbers": 1178,
  "reason": 1179,
  "specs": 1180,
  "student": 1181,
  "translation": 1182,
  "ZZ": 1183,
  "latest": 1184,
  "days": 1185,
  "here": 1186,
  "stored": 1187,
  "operator": 1188,
  "correct": 1189,
  "inside": 1190,
  "currently": 1191,
  "ascii": 1192,
  "sent": 1193,
  "short": 1194,
  "D": 1195,
  "vals": 1196,
  "match.group": 1197,
  "under": 1198,
  "filenames": 1199,
  "best": 1200,
  "activity": 1201,
  "ax": 1202,
  "dup": 1203,
  "desired": 1204,
  "chars": 1205,
  "checks": 1206,
  "hex": 1207,
  "Type": 1208,
  "formatted": 1209,
  "RuntimeError": 1210,
  "ord": 1211,
  "override": 1212,
  "jid": 1213,
  "identity": 1214,
  "Z": 1215,
  "XML.SubElement": 1216,
  "aws": 1217,
  "addresses": 1218,
  "sql": 1219,
  "counts": 1220,
  "We": 1221,
  "cols": 1222,
  "Function": 1223,
  "these": 1224,
  "pad": 1225,
  "timezone": 1226,
  "60": 1227,
  "security": 1228,
  "l@@": 1229,
  "dmp": 1230,
  "W": 1231,
  "eval": 1232,
  "expand": 1233,
  "os.environ": 1234,
  "upload": 1235,
  "r@@": 1236,
  "addon": 1237,
  "refresh": 1238,
  "final": 1239,
  "Decorator": 1240,
  "ind": 1241,
  "disable": 1242,
  "executable": 1243,
  "np.zeros": 1244,
  "fixed": 1245,
  "request.user": 1246,
  "settings.@@": 1247,
  "requested": 1248,
  "tasks": 1249,
  "fake": 1250,
  "Find": 1251,
  "is@@": 1252,
  "power": 1253,
  "every": 1254,
  "off": 1255,
  "needs": 1256,
  "docs": 1257,
  "compile": 1258,
  "normalized": 1259,
  "along": 1260,
  "Otherwise": 1261,
  "origin": 1262,
  "archive": 1263,
  "means": 1264,
  "ns": 1265,
  "unknown": 1266,
  "auto": 1267,
  "prompt": 1268,
  "trigger": 1269,
  "sets": 1270,
  "tenant": 1271,
  "discovery": 1272,
  "prev": 1273,
  "Read": 1274,
  "threshold": 1275,
  "metric": 1276,
  "exceptions": 1277,
  "basic": 1278,
  "e@@": 1279,
  "problem": 1280,
  "records": 1281,
  "ts": 1282,
  "many": 1283,
  "fit": 1284,
  "tz": 1285,
  "whose": 1286,
  "i@@": 1287,
  "fun": 1288,
  "time.time": 1289,
  "x@@": 1290,
  "64": 1291,
  "mock": 1292,
  "1&apos;": 1293,
  "states": 1294,
  "re.compile": 1295,
  "m@@": 1296,
  "were": 1297,
  "1.@@": 1298,
  "definition": 1299,
  "patterns": 1300,
  "django": 1301,
  "255": 1302,
  "os.path.isdir": 1303,
  "dicts": 1304,
  "Get@@": 1305,
  "insert": 1306,
  "directories": 1307,
  "updates": 1308,
  "HttpResponseRedirect": 1309,
  "supplied": 1310,
  "mac": 1311,
  "css": 1312,
  "obj.@@": 1313,
  "locals": 1314,
  "cs": 1315,
  "implementation": 1316,
  "reactor": 1317,
  "log.info": 1318,
  "XML": 1319,
  "ex": 1320,
  "KEY": 1321,
  "against": 1322,
  "50": 1323,
  "precision": 1324,
  "globals": 1325,
  "DIR": 1326,
  "json.loads": 1327,
  "padding": 1328,
  "center": 1329,
  "loss": 1330,
  "those": 1331,
  "-2": 1332,
  "roles": 1333,
  "machine": 1334,
  "least": 1335,
  "backup": 1336,
  "ring": 1337,
  "loader": 1338,
  "partial": 1339,
  "Key": 1340,
  "sync": 1341,
  "urls": 1342,
  "tables": 1343,
  "elem": 1344,
  "low": 1345,
  "registered": 1346,
  "accept": 1347,
  "related": 1348,
  "Value": 1349,
  "bad": 1350,
  "edit": 1351,
  "Delete": 1352,
  "notification": 1353,
  "included": 1354,
  "sock": 1355,
  "disabled": 1356,
  "appropriate": 1357,
  "ssh": 1358,
  "non": 1359,
  "C@@": 1360,
  "web": 1361,
  "note": 1362,
  "handlers": 1363,
  "testing": 1364,
  "shift": 1365,
  "works": 1366,
  "comments": 1367,
  "bound": 1368,
  "mat": 1369,
  "extensions": 1370,
  "non-@@": 1371,
  "dimension": 1372,
  "a@@": 1373,
  "codes": 1374,
  "new@@": 1375,
  "useful": 1376,
  "Load": 1377,
  "txt": 1378,
  "References": 1379,
  "positive": 1380,
  "eq": 1381,
  "config.@@": 1382,
  "free": 1383,
  "saltenv": 1384,
  "rel": 1385,
  "freq": 1386,
  "rb": 1387,
  "beta": 1388,
  "execution": 1389,
  "``True``": 1390,
  "how": 1391,
  "gen": 1392,
  "g@@": 1393,
  "able": 1394,
  "pack": 1395,
  "player": 1396,
  "os.path.abspath": 1397,
  "15": 1398,
  "1024": 1399,
  "1000": 1400,
  "another": 1401,
  "sequences": 1402,
  "CommandExecutionError": 1403,
  "progress": 1404,
  "way": 1405,
  "pred": 1406,
  "cursor": 1407,
  "whitespace": 1408,
  "ds": 1409,
  "track": 1410,
  "average": 1411,
  "bit": 1412,
  "calling": 1413,
  "x00": 1414,
  "selected": 1415,
  ".py": 1416,
  "U": 1417,
  "warn": 1418,
  "linear": 1419,
  "statement": 1420,
  "charset": 1421,
  "Input": 1422,
  "outputs": 1423,
  "once": 1424,
  "sympy": 1425,
  "primary": 1426,
  "indexer": 1427,
  "nobs": 1428,
  "S@@": 1429,
  "segment": 1430,
  "dump": 1431,
  "TYPE": 1432,
  "grains": 1433,
  "widget": 1434,
  "determine": 1435,
  "fid": 1436,
  "specify": 1437,
  "theme": 1438,
  "actions": 1439,
  "minimum": 1440,
  "Can": 1441,
  "ing": 1442,
  "special": 1443,
  "sources": 1444,
  "json.dumps": 1445,
  "sig": 1446,
  "connected": 1447,
  "os.path.isfile": 1448,
  "question": 1449,
  "down": 1450,
  "overwrite": 1451,
  "P@@": 1452,
  "rgb": 1453,
  "cell": 1454,
  "trans": 1455,
  ".filter": 1456,
  "lineno": 1457,
  "proc": 1458,
  "members": 1459,
  "flavor": 1460,
  "pages": 1461,
  "period": 1462,
  "monitor": 1463,
  "in@@": 1464,
  "amount": 1465,
  "200": 1466,
  "ctypes.c": 1467,
  "necessary": 1468,
  "win": 1469,
  "Whether": 1470,
  "2.@@": 1471,
  "high": 1472,
  "0.@@": 1473,
  "RequestContext": 1474,
  "directly": 1475,
  "saved": 1476,
  "internal": 1477,
  "projects": 1478,
  "sqrt": 1479,
  "00": 1480,
  "counter": 1481,
  "suite": 1482,
  "ok": 1483,
  "doctype": 1484,
  "includes": 1485,
  "resolve": 1486,
  "future": 1487,
  "move": 1488,
  "got": 1489,
  "fetch": 1490,
  "something": 1491,
  "take": 1492,
  "Update": 1493,
  "comps": 1494,
  "s1": 1495,
  "cleanup": 1496,
  "worker": 1497,
  "according": 1498,
  "nested": 1499,
  "c.@@": 1500,
  "program": 1501,
  "dimensions": 1502,
  "seen": 1503,
  "recursive": 1504,
  "Used": 1505,
  "js": 1506,
  "By": 1507,
  "setattr": 1508,
  "h@@": 1509,
  "rpc": 1510,
  "entities": 1511,
  "typ": 1512,
  "VERSION": 1513,
  "xmlElement": 1514,
  "Unable": 1515,
  "exec": 1516,
  "model.@@": 1517,
  "cli": 1518,
  "even": 1519,
  "epoch": 1520,
  "around": 1521,
  "kwargs.pop": 1522,
  "iface": 1523,
  "A@@": 1524,
  "negative": 1525,
  "threads": 1526,
  "less": 1527,
  "zeros": 1528,
  "transaction": 1529,
  "30": 1530,
  "Node": 1531,
  ".encode": 1532,
  "cloud": 1533,
  "side": 1534,
  "Defaults": 1535,
  "sigma": 1536,
  "result.append": 1537,
  "put": 1538,
  "console": 1539,
  "polynomial": 1540,
  "sys.argv": 1541,
  "symbols": 1542,
  "history": 1543,
  "individual": 1544,
  "re.match": 1545,
  "csv": 1546,
  "signed": 1547,
  "Django": 1548,
  "clone": 1549,
  "constructor": 1550,
  "feed": 1551,
  "tab": 1552,
  "request.@@": 1553,
  "compare": 1554,
  "queryset": 1555,
  "locations": 1556,
  "np.asarray": 1557,
  "cc": 1558,
  "review": 1559,
  "starting": 1560,
  "set@@": 1561,
  "t@@": 1562,
  "k@@": 1563,
  "v1": 1564,
  "lst": 1565,
  "Each": 1566,
  "en": 1567,
  "0&apos;": 1568,
  "All": 1569,
  "curr": 1570,
  "0.1": 1571,
  "ordering": 1572,
  "N@@": 1573,
  "wraps": 1574,
  "Data": 1575,
  "B@@": 1576,
  "returning": 1577,
  "requirements": 1578,
  "parallel": 1579,
  "external": 1580,
  "11": 1581,
  "delay": 1582,
  "rc": 1583,
  "x1": 1584,
  "asset": 1585,
  "Request": 1586,
  "`&apos;": 1587,
  "perm": 1588,
  "cfg": 1589,
  "nt": 1590,
  "data.@@": 1591,
  ".text": 1592,
  "reader": 1593,
  "fig": 1594,
  "sub@@": 1595,
  "fix": 1596,
  "duration": 1597,
  "sizes": 1598,
  "USER": 1599,
  "mu": 1600,
  "v@@": 1601,
  "apps": 1602,
  "direction": 1603,
  "servers": 1604,
  "templates": 1605,
  "re.search": 1606,
  "logs": 1607,
  "utf8": 1608,
  "stdin": 1609,
  "decorated": 1610,
  "retVal": 1611,
  "G@@": 1612,
  "too": 1613,
  "mark": 1614,
  "priority": 1615,
  "keywords": 1616,
  "Not": 1617,
  "filesystem": 1618,
  "ports": 1619,
  "D@@": 1620,
  "d.@@": 1621,
  "route": 1622,
  "s2": 1623,
  "null": 1624,
  "std": 1625,
  "E@@": 1626,
  "leading": 1627,
  "validator": 1628,
  "wiki": 1629,
  "sudo": 1630,
  "fails": 1631,
  "node.@@": 1632,
  "provide": 1633,
  "writer": 1634,
  "formats": 1635,
  "Ensure": 1636,
  "ordered": 1637,
  "recent": 1638,
  "div": 1639,
  "digits": 1640,
  "extend": 1641,
  "s.get": 1642,
  "gid": 1643,
  "cov": 1644,
  "URI": 1645,
  "begin": 1646,
  "stub": 1647,
  "blank": 1648,
  "training": 1649,
  "logical": 1650,
  "rec": 1651,
  "candidate": 1652,
  "temporary": 1653,
  "windows": 1654,
  "rank": 1655,
  "io": 1656,
  "retries": 1657,
  "Context": 1658,
  "exact": 1659,
  "qs": 1660,
  "runner": 1661,
  "subnet": 1662,
  "href": 1663,
  "de@@": 1664,
  "j@@": 1665,
  "audio": 1666,
  "s``": 1667,
  "gpu": 1668,
  "tail": 1669,
  "ver": 1670,
  "frequency": 1671,
  "Response": 1672,
  "including": 1673,
  "spaces": 1674,
  "md": 1675,
  "categories": 1676,
  "Version": 1677,
  "inv": 1678,
  "validation": 1679,
  "MAX": 1680,
  "fragment": 1681,
  "data.get": 1682,
  "a.@@": 1683,
  "p.@@": 1684,
  "vpc": 1685,
  "argv": 1686,
  "sin": 1687,
  "my@@": 1688,
  "pi": 1689,
  "retrieve": 1690,
  "f.@@": 1691,
  "gcodeText": 1692,
  "caller": 1693,
  "string&apos;": 1694,
  "proto": 1695,
  "flow": 1696,
  "24": 1697,
  "documentation": 1698,
  "py@@": 1699,
  "regular": 1700,
  "numeric": 1701,
  "well": 1702,
  "utils.@@": 1703,
  "logger.info": 1704,
  "CONFIG": 1705,
  "I@@": 1706,
  "stat": 1707,
  "pip": 1708,
  "result.@@": 1709,
  "T@@": 1710,
  "fasta": 1711,
  "ca": 1712,
  "VM": 1713,
  "DB": 1714,
  "equals": 1715,
  "tb": 1716,
  "t.@@": 1717,
  "click.option": 1718,
  "4@@": 1719,
  "country": 1720,
  "OS": 1721,
  "Any": 1722,
  "roots": 1723,
  "object&apos;": 1724,
  "creation": 1725,
  "formatter": 1726,
  "staff": 1727,
  "export": 1728,
  "client.@@": 1729,
  "StringIO": 1730,
  "m.group": 1731,
  "restart": 1732,
  "creating": 1733,
  "avoid": 1734,
  "automatically": 1735,
  "line.split": 1736,
  "place": 1737,
  "clip": 1738,
  "inst": 1739,
  "double": 1740,
  "thing": 1741,
  "authentication": 1742,
  "L@@": 1743,
  "o@@": 1744,
  "pkgs": 1745,
  "Output": 1746,
  "scan": 1747,
  "traceback": 1748,
  "terms": 1749,
  "5@@": 1750,
  "Takes": 1751,
  "Could": 1752,
  "vertices": 1753,
  "H@@": 1754,
  "browser": 1755,
  ".startswith": 1756,
  "switch": 1757,
  "scenario": 1758,
  "vdi": 1759,
  "Index": 1760,
  "mi": 1761,
  "checked": 1762,
  "remaining": 1763,
  "LOG.debug": 1764,
  "inverse": 1765,
  "cat": 1766,
  "answer": 1767,
  "languages": 1768,
  "scores": 1769,
  "ERROR": 1770,
  "ips": 1771,
  "Build": 1772,
  "during": 1773,
  "logged": 1774,
  "tmpdir": 1775,
  "expect": 1776,
  "warnings.warn": 1777,
  "look": 1778,
  "q@@": 1779,
  "NotImplementedError": 1780,
  "y@@": 1781,
  "icon": 1782,
  "hour": 1783,
  "HttpResponse": 1784,
  "written": 1785,
  "cos": 1786,
  "minutes": 1787,
  "detail": 1788,
  "Gets": 1789,
  "OK": 1790,
  "bins": 1791,
  "Plugin": 1792,
  "f.read": 1793,
  "bind": 1794,
  "st": 1795,
  "particular": 1796,
  "quality": 1797,
  "utils": 1798,
  "fast": 1799,
  "upgrade": 1800,
  "FILE": 1801,
  "documents": 1802,
  "gf": 1803,
  "dummy": 1804,
  "applied": 1805,
  "indexes": 1806,
  "SaltCloudSystemExit": 1807,
  "np.arange": 1808,
  "md5": 1809,
  "working": 1810,
  "flatten": 1811,
  "Write": 1812,
  "oauth": 1813,
  "box": 1814,
  "f.write": 1815,
  "registration": 1816,
  "age": 1817,
  "doctest": 1818,
  "M@@": 1819,
  "dependency": 1820,
  "generic": 1821,
  "coeff": 1822,
  "contact": 1823,
  "suitable": 1824,
  "layout": 1825,
  "integers": 1826,
  "issue": 1827,
  "Usage": 1828,
  "equivalent": 1829,
  "fullname": 1830,
  "Re@@": 1831,
  "sleep": 1832,
  "multi": 1833,
  "floating": 1834,
  "filtered": 1835,
  "secure": 1836,
  "time.sleep": 1837,
  "cases": 1838,
  "os.path.basename": 1839,
  "choice": 1840,
  "round": 1841,
  "small": 1842,
  "sh": 1843,
  "translate": 1844,
  "replacement": 1845,
  "dictionaries": 1846,
  "request.GET": 1847,
  "vectors": 1848,
  ".read": 1849,
  "resulting": 1850,
  "array-like": 1851,
  "HAS": 1852,
  "Id": 1853,
  "Format": 1854,
  "hidden": 1855,
  "basename": 1856,
  "difference": 1857,
  "pipeline": 1858,
  "3@@": 1859,
  "SIZE": 1860,
  "os.listdir": 1861,
  "our": 1862,
  "domains": 1863,
  "mul": 1864,
  "1@@": 1865,
  "deps": 1866,
  "above": 1867,
  "allows": 1868,
  "serial": 1869,
  "args.@@": 1870,
  "QQ": 1871,
  "Determine": 1872,
  "es": 1873,
  "Server": 1874,
  "presence": 1875,
  "issues": 1876,
  "sys.modules": 1877,
  "W@@": 1878,
  "parsing": 1879,
  "assumed": 1880,
  "theta": 1881,
  "levels": 1882,
  "gt": 1883,
  "examples": 1884,
  "Object": 1885,
  "flat": 1886,
  "np.dot": 1887,
  "V": 1888,
  "timedelta": 1889,
  "limits": 1890,
  "successful": 1891,
  "reload": 1892,
  "itself": 1893,
  "Model": 1894,
  "reply": 1895,
  "p1": 1896,
  "g.@@": 1897,
  "Unknown": 1898,
  "256": 1899,
  "segments": 1900,
  "pop": 1901,
  "K@@": 1902,
  "Tests": 1903,
  "attempt": 1904,
  "price": 1905,
  "subclass": 1906,
  "reduce": 1907,
  "expires": 1908,
  "mapper": 1909,
  "cost": 1910,
  "Please": 1911,
  "share": 1912,
  "e.@@": 1913,
  "connections": 1914,
  "80": 1915,
  "views": 1916,
  "episode": 1917,
  "poly": 1918,
  "binding": 1919,
  "x.@@": 1920,
  "separator": 1921,
  "X@@": 1922,
  "ptr": 1923,
  "square": 1924,
  "indicating": 1925,
  "Time": 1926,
  "Module": 1927,
  "R@@": 1928,
  "fh": 1929,
  ".decode": 1930,
  "Expected": 1931,
  "kwds": 1932,
  "async": 1933,
  "Image": 1934,
  ".update": 1935,
  "True&apos;": 1936,
  "props": 1937,
  "made": 1938,
  "r.@@": 1939,
  "delimiter": 1940,
  "author": 1941,
  "isn": 1942,
  "conversion": 1943,
  "stride": 1944,
  "passwd": 1945,
  "directed": 1946,
  "UTC": 1947,
  "Group": 1948,
  "coords": 1949,
  "sys.exit": 1950,
  "Matrix": 1951,
  "file&apos;": 1952,
  "reg": 1953,
  "github.com": 1954,
  "unless": 1955,
  "F@@": 1956,
  "xs": 1957,
  "list.append": 1958,
  "mount": 1959,
  "trailing": 1960,
  "font": 1961,
  "subs": 1962,
  "seqs": 1963,
  "To@@": 1964,
  "supports": 1965,
  "7@@": 1966,
  "Sets": 1967,
  "loops": 1968,
  "plain": 1969,
  "escaped": 1970,
  "grid": 1971,
  "add@@": 1972,
  "eps": 1973,
  "pytest.raises": 1974,
  "sentence": 1975,
  "subprocess.PIPE": 1976,
  "cpu": 1977,
  "closed": 1978,
  "base64": 1979,
  "large": 1980,
  "aliases": 1981,
  "six.string": 1982,
  "th": 1983,
  "drop": 1984,
  "sys.stderr": 1985,
  "``None``": 1986,
  "rev": 1987,
  "matrices": 1988,
  "pending": 1989,
  "Must": 1990,
  "ll": 1991,
  "reversed": 1992,
  "cancel": 1993,
  "pathname": 1994,
  "O": 1995,
  "Start": 1996,
  "noise": 1997,
  "mail": 1998,
  "modify": 1999,
  "comp": 2000,
  "receiver": 2001,
  "el": 2002,
  "forward": 2003,
  "chr": 2004,
  "hours": 2005,
  "might": 2006,
  "x2": 2007,
  "rval": 2008,
  "E": 2009,
  "correctly": 2010,
  "FROM": 2011,
  "qos": 2012,
  "grad": 2013,
  "Un@@": 2014,
  "angle": 2015,
  "quotes": 2016,
  "bases": 2017,
  "400": 2018,
  "define": 2019,
  "Retrieve": 2020,
  "facts": 2021,
  "Print": 2022,
  "visible": 2023,
  "explicit": 2024,
  "z@@": 2025,
  "coord": 2026,
  "virtualname": 2027,
  "fixtures": 2028,
  "fallback": 2029,
  "IndexError": 2030,
  "os.environ.get": 2031,
  "prepare": 2032,
  "0@@": 2033,
  "128": 2034,
  "glob": 2035,
  "allclose": 2036,
  "Q@@": 2037,
  "cmap": 2038,
  "script.pip": 2039,
  "Table": 2040,
  "replaced": 2041,
  "authenticated": 2042,
  "u@@": 2043,
  "attach": 2044,
  "dirpath": 2045,
  "rendered": 2046,
  "migrate": 2047,
  "Adds": 2048,
  "V@@": 2049,
  "overrides": 2050,
  "below": 2051,
  "perform": 2052,
  "file@@": 2053,
  "matched": 2054,
  "factors": 2055,
  "builtin": 2056,
  "behavior": 2057,
  "Parses": 2058,
  "backends": 2059,
  "None&apos;": 2060,
  "red": 2061,
  "later": 2062,
  "theano": 2063,
  "wb": 2064,
  "guess": 2065,
  "gamma": 2066,
  "selector": 2067,
  "v2": 2068,
  "ed": 2069,
  "unpack": 2070,
  "context.@@": 2071,
  ".astype": 2072,
  "gens": 2073,
  "functools.wraps": 2074,
  "decoded": 2075,
  "no@@": 2076,
  "transport": 2077,
  "strides": 2078,
  "localhost": 2079,
  "tgt": 2080,
  "computed": 2081,
  "subscription": 2082,
  "key@@": 2083,
  "yes": 2084,
  "Service": 2085,
  "request.user.profile": 2086,
  "estimator": 2087,
  "started": 2088,
  "salt-cloud": 2089,
  "good": 2090,
  "prob": 2091,
  "ec2": 2092,
  "quoted": 2093,
  "runs": 2094,
  "greater": 2095,
  "datasets": 2096,
  "treeio": 2097,
  "Array": 2098,
  "meth": 2099,
  "serialize": 2100,
  "ones": 2101,
  "np.sum": 2102,
  "choices": 2103,
  "w@@": 2104,
  "mime": 2105,
  "DATA": 2106,
  "similar": 2107,
  "major": 2108,
  "sr": 2109,
  "Computes": 2110,
  "enum": 2111,
  "ii": 2112,
  "effect": 2113,
  "gradient": 2114,
  "calculate": 2115,
  "qual": 2116,
  "np.sqrt": 2117,
  "pointer": 2118,
  "line.startswith": 2119,
  "six.text": 2120,
  "three": 2121,
  "Class": 2122,
  "quota": 2123,
  "inventory": 2124,
  "db.@@": 2125,
  ".splitlines": 2126,
  "logger.debug": 2127,
  "otu": 2128,
  "picks": 2129,
  "dates": 2130,
  "Text": 2131,
  "attempts": 2132,
  "NOT": 2133,
  "regions": 2134,
  "sensor": 2135,
  "quiet": 2136,
  "resize": 2137,
  "conv": 2138,
  "logging.info": 2139,
  "t1": 2140,
  "changeset": 2141,
  "subset": 2142,
  "Message": 2143,
  "completion": 2144,
  "Form": 2145,
  "SELECT": 2146,
  "organization": 2147,
  "versionchanged": 2148,
  "still": 2149,
  "gateway": 2150,
  "metavar": 2151,
  "info.@@": 2152,
  "considered": 2153,
  "2&apos;": 2154,
  "9@@": 2155,
  "csrf": 2156,
  "nb": 2157,
  "follow": 2158,
  "pretty": 2159,
  "utils.arg": 2160,
  "implemented": 2161,
  "boundary": 2162,
  "netloc": 2163,
  "coordinates": 2164,
  "due": 2165,
  "truncate": 2166,
  "modname": 2167,
  "Requires": 2168,
  "assigned": 2169,
  "context.get": 2170,
  "systems": 2171,
  "translations": 2172,
  "datacenter": 2173,
  "accepts": 2174,
  "checking": 2175,
  "probability": 2176,
  "exe": 2177,
  "br": 2178,
  "walk": 2179,
  "policies": 2180,
  "usr": 2181,
  "m.@@": 2182,
  "destroy": 2183,
  "human": 2184,
  "tools": 2185,
  "metrics": 2186,
  "expressions": 2187,
  "startswith": 2188,
  "s-@@": 2189,
  "b.@@": 2190,
  "Unicode": 2191,
  "str&apos;": 2192,
  "Extract": 2193,
  "1d": 2194,
  "request.method": 2195,
  "yet": 2196,
  "sid": 2197,
  "file-like": 2198,
  "prime": 2199,
  "received": 2200,
  "mtime": 2201,
  "``False``": 2202,
  "arch": 2203,
  "absent": 2204,
  "list&apos;": 2205,
  "Setup": 2206,
  "shutdown": 2207,
  "imported": 2208,
  "decimal": 2209,
  "os.makedirs": 2210,
  "native": 2211,
  "literal": 2212,
  "never": 2213,
  "certificates": 2214,
  "os.path.splitext": 2215,
  "tzinfo": 2216,
  "Generates": 2217,
  "epochs": 2218,
  "x.shape": 2219,
  "Wrapper": 2220,
  "realm": 2221,
  "processor": 2222,
  "actually": 2223,
  "kwarg": 2224,
  "ranges": 2225,
  "strategy": 2226,
  "configure": 2227,
  "On": 2228,
  "pytest.fixture": 2229,
  "solution": 2230,
  "hello": 2231,
  "tar": 2232,
  "cmp": 2233,
  "25": 2234,
  "hooks": 2235,
  "Connection": 2236,
  "percent": 2237,
  "season": 2238,
  "operations": 2239,
  ".set": 2240,
  "NetworkX": 2241,
  "vlan": 2242,
  ".items": 2243,
  "Show": 2244,
  "lazy": 2245,
  "border": 2246,
  "Dictionary": 2247,
  "boot": 2248,
  "compatible": 2249,
  "app.@@": 2250,
  "J@@": 2251,
  "subprocess": 2252,
  "Client": 2253,
  "Method": 2254,
  "six.iteritems": 2255,
  "nothing": 2256,
  "serialized": 2257,
  "egg": 2258,
  "Template": 2259,
  "fraction": 2260,
  "const": 2261,
  "enrollment": 2262,
  "variance": 2263,
  "aggregate": 2264,
  "instance.@@": 2265,
  "refs": 2266,
  "layers": 2267,
  "accepted": 2268,
  "minor": 2269,
  "numpy.@@": 2270,
  "File@@": 2271,
  "sys.exc": 2272,
  "item.@@": 2273,
  "8@@": 2274,
  "predicate": 2275,
  "Display": 2276,
  "line.strip": 2277,
  "ALL": 2278,
  "2d": 2279,
  "Send": 2280,
  "partitions": 2281,
  "UTF-8": 2282,
  "creates": 2283,
  "etag": 2284,
  "prefixes": 2285,
  "coefficients": 2286,
  "ground": 2287,
  "comparison": 2288,
  "magic": 2289,
  "Warning": 2290,
  "max@@": 2291,
  "name&apos;": 2292,
  "references": 2293,
  "taken": 2294,
  "describe": 2295,
  "ar": 2296,
  "utc": 2297,
  "restore": 2298,
  "depending": 2299,
  "mappings": 2300,
  "options.@@": 2301,
  "certain": 2302,
  "Process": 2303,
  "us": 2304,
  "AssertionError": 2305,
  "currency": 2306,
  "6@@": 2307,
  "physical": 2308,
  "to@@": 2309,
  "Y@@": 2310,
  "syntax": 2311,
  "plus": 2312,
  "inline": 2313,
  "exactly": 2314,
  "authorization": 2315,
  "epsilon": 2316,
  "parents": 2317,
  "interfaces": 2318,
  "dashboard": 2319,
  "cast": 2320,
  "13": 2321,
  "40": 2322,
  "PREFIX": 2323,
  "wrong": 2324,
  "push": 2325,
  "There": 2326,
  "own": 2327,
  "os.remove": 2328,
  "d1": 2329,
  "rather": 2330,
  "INFO": 2331,
  "TEST": 2332,
  "palette": 2333,
  "Instance": 2334,
  "sha": 2335,
  "draft": 2336,
  "repeat": 2337,
  "Traceback": 2338,
  "recipient": 2339,
  "stripped": 2340,
  "log.warning": 2341,
  "dry": 2342,
  "catalog": 2343,
  "conf.@@": 2344,
  "very": 2345,
  "alphabet": 2346,
  "dec": 2347,
  "Cannot": 2348,
  "x0": 2349,
  "excluded": 2350,
  "sec": 2351,
  "pick": 2352,
  "readable": 2353,
  "IPv6": 2354,
  "scopes": 2355,
  "sys.version": 2356,
  "shed": 2357,
  "file.@@": 2358,
  "These": 2359,
  "Cfunction": 2360,
  "PEM": 2361,
  "pre@@": 2362,
  "mimetype": 2363,
  "assign": 2364,
  "f.close": 2365,
  "separated": 2366,
  "phase": 2367,
  "AWS": 2368,
  "500": 2369,
  "Cfunctions.get": 2370,
  "10@@": 2371,
  "png": 2372,
  "align": 2373,
  "RE": 2374,
  "dep": 2375,
  "newline": 2376,
  "team": 2377,
  "derivation": 2378,
  "test@@": 2379,
  "SaltInvocationError": 2380,
  "module.@@": 2381,
  "issubclass": 2382,
  "successfully": 2383,
  "proj": 2384,
  "depends": 2385,
  "pat": 2386,
  "models.@@": 2387,
  "out@@": 2388,
  "bug": 2389,
  "consul": 2390,
  "construct": 2391,
  "iteritems": 2392,
  "bottom": 2393,
  "pull": 2394,
  "Info": 2395,
  "3.0": 2396,
  "represent": 2397,
  "Config": 2398,
  "Try": 2399,
  "echo": 2400,
  "cookies": 2401,
  "sys.platform": 2402,
  "attached": 2403,
  "maybe": 2404,
  "Will": 2405,
  "-a": 2406,
  "volumes": 2407,
  "sys.stdout": 2408,
  "SERVER": 2409,
  "Do": 2410,
  "api.@@": 2411,
  "notify": 2412,
  "Filter": 2413,
  "tries": 2414,
  "`None`": 2415,
  "enc": 2416,
  "folders": 2417,
  "mem": 2418,
  "serializer": 2419,
  "td": 2420,
  "artist": 2421,
  "xblock": 2422,
  "bbox": 2423,
  "provides": 2424,
  "rm": 2425,
  "hist": 2426,
  "as@@": 2427,
  ".name": 2428,
  "subprocess.Popen": 2429,
  "optionally": 2430,
  "maps": 2431,
  "d2": 2432,
  "products": 2433,
  "plural": 2434,
  "specifying": 2435,
  "scene": 2436,
  "dims": 2437,
  "arbitrary": 2438,
  "ipv4": 2439,
  "openid": 2440,
  "general": 2441,
  "loglevel": 2442,
  "background": 2443,
  "passing": 2444,
  "runtime": 2445,
  "vol": 2446,
  "positions": 2447,
  "t2": 2448,
  "ident": 2449,
  "register.filter": 2450,
  "rotation": 2451,
  "adding": 2452,
  "Uses": 2453,
  "log@@": 2454,
  "topics": 2455,
  "book": 2456,
  "deployment": 2457,
  "core.@@": 2458,
  "menu": 2459,
  "Removes": 2460,
  "Validate": 2461,
  "HOME": 2462,
  "n1": 2463,
  "pointIndex": 2464,
  "hi": 2465,
  "sys.path": 2466,
  "migration": 2467,
  ".first": 2468,
  "snippet": 2469,
  "album": 2470,
  "tol": 2471,
  "preferred": 2472,
  "rs": 2473,
  "ys": 2474,
  "letter": 2475,
  "cond": 2476,
  "scipy": 2477,
  "np.ones": 2478,
  "Should": 2479,
  "NO": 2480,
  "merged": 2481,
  "collect": 2482,
  "util.@@": 2483,
  "CACHE": 2484,
  "detect": 2485,
  "U@@": 2486,
  "things": 2487,
  "processes": 2488,
  "bootstrap": 2489,
  "flush": 2490,
  "adapter": 2491,
  "perms": 2492,
  "pb": 2493,
  "rename": 2494,
  "state.@@": 2495,
  "form.is": 2496,
  "DataFrame": 2497,
  "deg": 2498,
  ".values": 2499,
  "followed": 2500,
  "handling": 2501,
  "skipped": 2502,
  "outside": 2503,
  "`True`": 2504,
  "pixel": 2505,
  "Py@@": 2506,
  "submit": 2507,
  "go": 2508,
  "s.items": 2509,
  "In@@": 2510,
  "Column": 2511,
  "cross": 2512,
  "pdf": 2513,
  "attachment": 2514,
  "ls": 2515,
  "interactive": 2516,
  "longer": 2517,
  "www.@@": 2518,
  "draw": 2519,
  "nan": 2520,
  "FORMAT": 2521,
  "management": 2522,
  "denied": 2523,
  "``str``": 2524,
  "nearest": 2525,
  "regexp": 2526,
  "RFC": 2527,
  "processing": 2528,
  "response.status": 2529,
  "minute": 2530,
  "cut": 2531,
  "wheel": 2532,
  "Z@@": 2533,
  "session.query": 2534,
  "starts": 2535,
  "PORT": 2536,
  "c1": 2537,
  "table.@@": 2538,
  "Http404": 2539,
  "processed": 2540,
  "31": 2541,
  "abc": 2542,
  "copied": 2543,
  "converts": 2544,
  "y1": 2545,
  "expire": 2546,
  "gcode": 2547,
  "cipher": 2548,
  "sections": 2549,
  "3.@@": 2550,
  "inf": 2551,
  "IDs": 2552,
  "False&apos;": 2553,
  "verbosity": 2554,
  "evaluate": 2555,
  "Deferred": 2556,
  "editor": 2557,
  "objs": 2558,
  "expanded": 2559,
  "com": 2560,
  "server.@@": 2561,
  "cutoff": 2562,
  "activation": 2563,
  "bounds": 2564,
  "give": 2565,
  "user.@@": 2566,
  "retval": 2567,
  "UUID": 2568,
  "design": 2569,
  "node.inputs": 2570,
  "properly": 2571,
  "struct.unpack": 2572,
  "salt.utils.is": 2573,
  "listed": 2574,
  "Search": 2575,
  "neighbors": 2576,
  "statistics": 2577,
  "tup": 2578,
  "2015.8.0": 2579,
  "os.walk": 2580,
  "hide": 2581,
  "me": 2582,
  "bc": 2583,
  "watch": 2584,
  "subjects": 2585,
  "abort": 2586,
  "Content-Type": 2587,
  "anything": 2588,
  "01": 2589,
  "looks": 2590,
  "Calculate": 2591,
  "O@@": 2592,
  "conn.@@": 2593,
  "button": 2594,
  "Query": 2595,
  "shapes": 2596,
  "finder": 2597,
  "np": 2598,
  "encryption": 2599,
  "Integer": 2600,
  "cmd.append": 2601,
  "on@@": 2602,
  "socket.AF": 2603,
  "masked": 2604,
  "pixels": 2605,
  ".sum": 2606,
  "bundle": 2607,
  "Status": 2608,
  "fileobj": 2609,
  "tokenize": 2610,
  "managed": 2611,
  "`.": 2612,
  "graphs": 2613,
  "median": 2614,
  "`.@@": 2615,
  "selection": 2616,
  "mapped": 2617,
  "dynamic": 2618,
  "executed": 2619,
  "imports": 2620,
  "al": 2621,
  "weighted": 2622,
  "describing": 2623,
  "degrees": 2624,
  "unused": 2625,
  "reading": 2626,
  "trim": 2627,
  "Event": 2628,
  "legacy": 2629,
  "cd": 2630,
  "initialize": 2631,
  "constants": 2632,
  "np.abs": 2633,
  "networks": 2634,
  "acl": 2635,
  "TO": 2636,
  "pickle": 2637,
  ".add": 2638,
  "Series": 2639,
  "jail": 2640,
  "relation": 2641,
  "neg": 2642,
  "scripts": 2643,
  "appear": 2644,
  "datetime.datetime": 2645,
  "beginning": 2646,
  "authorized": 2647,
  "inp": 2648,
  "alternative": 2649,
  "dns": 2650,
  "terminal": 2651,
  "Call": 2652,
  "rng": 2653,
  "incoming": 2654,
  "ValidationError": 2655,
  "TODO": 2656,
  "os.path.expanduser": 2657,
  "tracks": 2658,
  "Handler": 2659,
  "cidr": 2660,
  "Configuration": 2661,
  "minions": 2662,
  "2D": 2663,
  "contextmanager": 2664,
  "directive": 2665,
  "ix": 2666,
  "area": 2667,
  "Handle": 2668,
  "distances": 2669,
  "span": 2670,
  "Test@@": 2671,
  "room": 2672,
  "nodelist": 2673,
  "20@@": 2674,
  "RGB": 2675,
  "getter": 2676,
  "objects.get": 2677,
  "Size": 2678,
  "dispatch": 2679,
  "iterations": 2680,
  "trees": 2681,
  "bias": 2682,
  "ccx": 2683,
  "os.stat": 2684,
  "Invalid@@": 2685,
  "ready": 2686,
  "er": 2687,
  "sa": 2688,
  "Create@@": 2689,
  "outfile": 2690,
  "combine": 2691,
  "java": 2692,
  "22": 2693,
  "queries": 2694,
  "lengths": 2695,
  "ps": 2696,
  ".T": 2697,
  "covariance": 2698,
  "42": 2699,
  "know": 2700,
  "AND": 2701,
  "struct": 2702,
  "snapshots": 2703,
  "np.@@": 2704,
  "exog": 2705,
  "positional": 2706,
  "AreEqual": 2707,
  "emails": 2708,
  "finite": 2709,
  "cause": 2710,
  "--function": 2711,
  "sha1": 2712,
  "candidates": 2713,
  "er@@": 2714,
  "Jenkins": 2715,
  "possibly": 2716,
  "ch@@": 2717,
  "num@@": 2718,
  "2-D": 2719,
  "conditions": 2720,
  "Variable": 2721,
  "represents": 2722,
  "Google": 2723,
  "ct": 2724,
  "se@@": 2725,
  "newlines": 2726,
  "funcs": 2727,
  "linenum": 2728,
  "ing@@": 2729,
  "adds": 2730,
  "Result": 2731,
  "WSGI": 2732,
  "DeprecationWarning": 2733,
  "os.path.split": 2734,
  "simply": 2735,
  "ASCII": 2736,
  "encrypted": 2737,
  "context.update": 2738,
  "replication": 2739,
  "127.0.0.1": 2740,
  "indicates": 2741,
  "poll": 2742,
  "entire": 2743,
  "er.@@": 2744,
  "os.name": 2745,
  "initializer": 2746,
  "Dict": 2747,
  "courses": 2748,
  "compiled": 2749,
  "nonce": 2750,
  "STRING": 2751,
  "modes": 2752,
  "smart": 2753,
  "literalinclude": 2754,
  "proper": 2755,
  "maintenance": 2756,
  "grade": 2757,
  "shop": 2758,
  "repos": 2759,
  "name.startswith": 2760,
  "compression": 2761,
  "coordinate": 2762,
  "IPv4": 2763,
  "14": 2764,
  "checksum": 2765,
  "capture": 2766,
  "separate": 2767,
  "cp": 2768,
  "compatibility": 2769,
  "tempdir": 2770,
  "dirty": 2771,
  "os.getcwd": 2772,
  "loads": 2773,
  "milestone": 2774,
  "gcd": 2775,
  "test.@@": 2776,
  "np.ndarray": 2777,
  "expired": 2778,
  "Like": 2779,
  "Location": 2780,
  "HOST": 2781,
  "s.add": 2782,
  "prior": 2783,
  "Linux": 2784,
  "playlist": 2785,
  "LC": 2786,
  "chart": 2787,
  "virtualenv": 2788,
  "person": 2789,
  "thumbnail": 2790,
  "evoked": 2791,
  "request.GET.get": 2792,
  "pow": 2793,
  "ruby": 2794,
  "symbolic": 2795,
  "User@@": 2796,
  ".&apos;.join": 2797,
  "packed": 2798,
  "SSL": 2799,
  "View": 2800,
  "diagonal": 2801,
  "profiles": 2802,
  "consumer": 2803,
  "certs": 2804,
  "DNS": 2805,
  "inds": 2806,
  "al@@": 2807,
  "Salt": 2808,
  "receive": 2809,
  "win32": 2810,
  "creator": 2811,
  "Parser": 2812,
  "en@@": 2813,
  "Either": 2814,
  "completed": 2815,
  "unquote": 2816,
  "ty": 2817,
  "bulk": 2818,
  "estimate": 2819,
  "translated": 2820,
  "NotFound": 2821,
  "ancestor": 2822,
  "makes": 2823,
  "anonymous": 2824,
  "id@@": 2825,
  "objects.filter": 2826,
  "ROOT": 2827,
  "impl": 2828,
  "pause": 2829,
  "Execute": 2830,
  "router": 2831,
  "SEED": 2832,
  "rep": 2833,
  "Tuple": 2834,
  "URLs": 2835,
  "leaf": 2836,
  "containers": 2837,
  "conditional": 2838,
  "dense": 2839,
  "Set@@": 2840,
  "listing": 2841,
  "grant": 2842,
  "reboot": 2843,
  "integration": 2844,
  "Perform": 2845,
  "salt.utils.fopen": 2846,
  "world": 2847,
  "Document": 2848,
  "s.split": 2849,
  "dn": 2850,
  "Register": 2851,
  "transfer": 2852,
  "SQL": 2853,
  "correlation": 2854,
  "avail": 2855,
  "frac": 2856,
  "12@@": 2857,
  "solve": 2858,
  "New": 2859,
  "matplotlib": 2860,
  "entropy": 2861,
  "represented": 2862,
  "docker": 2863,
  "tabs": 2864,
  "TIME": 2865,
  "2016.3.0": 2866,
  "closing": 2867,
  "clusters": 2868,
  "min@@": 2869,
  "fingerprint": 2870,
  "inplace": 2871,
  "screen": 2872,
  "name.lower": 2873,
  "accounts": 2874,
  "canonical": 2875,
  "Repository": 2876,
  "Install": 2877,
  "ss": 2878,
  "uninstall": 2879,
  "co@@": 2880,
  "Verify": 2881,
  "Split": 2882,
  "ms": 2883,
  "Theano": 2884,
  "renderer": 2885,
  "dc": 2886,
  "ops": 2887,
  "frappe.get": 2888,
  "dsk": 2889,
  "ret.append": 2890,
  "floats": 2891,
  "Manager": 2892,
  "prec": 2893,
  "CODE": 2894,
  "arg@@": 2895,
  "pandas": 2896,
  "higher": 2897,
  "speed": 2898,
  ".hexdigest": 2899,
  "fully": 2900,
  "exam": 2901,
  "dict.get": 2902,
  "event.@@": 2903,
  "response.@@": 2904,
  "tr": 2905,
  "iteration": 2906,
  "Boolean": 2907,
  "assignment": 2908,
  "lt": 2909,
  "individuals": 2910,
  "statuses": 2911,
  "bot": 2912,
  "parser.parse": 2913,
  "avg": 2914,
  ".shape": 2915,
  "mods": 2916,
  "initialized": 2917,
  "ipython": 2918,
  "One": 2919,
  "installation": 2920,
  "float32": 2921,
  "alert": 2922,
  "article": 2923,
  "infile": 2924,
  "assume": 2925,
  "formatting": 2926,
  "cleaned": 2927,
  "end@@": 2928,
  "dialog": 2929,
  "an@@": 2930,
  "diag": 2931,
  "markdown": 2932,
  "si": 2933,
  "zpool": 2934,
  "Apply": 2935,
  "List@@": 2936,
  "recommended": 2937,
  "pytest.mark.parametrize": 2938,
  "EMAIL": 2939,
  "please": 2940,
  "duplicate": 2941,
  "configs": 2942,
  "lat": 2943,
  "described": 2944,
  "example.com": 2945,
  "front": 2946,
  "DOMAIN": 2947,
  "Raise": 2948,
  "locales": 2949,
  "direct": 2950,
  "derivative": 2951,
  "aware": 2952,
  "kill": 2953,
  "undefined": 2954,
  "remainder": 2955,
  "sel": 2956,
  "libraries": 2957,
  "Section": 2958,
  "forum": 2959,
  "ipv6": 2960,
  "frames": 2961,
  "gs": 2962,
  "Field": 2963,
  "compiler": 2964,
  "form.save": 2965,
  "ints": 2966,
  "np.all": 2967,
  "ad": 2968,
  "JsonResponse": 2969,
  "geometryOutput": 2970,
  "&apos;utf-8": 2971,
  "From@@": 2972,
  "statements": 2973,
  "LENGTH": 2974,
  "big": 2975,
  "trash": 2976,
  ".id": 2977,
  "Change": 2978,
  "inspect": 2979,
  "X.shape": 2980,
  "-c": 2981,
  "broadcast": 2982,
  "OrderedDict": 2983,
  "downloaded": 2984,
  "slices": 2985,
  "value.@@": 2986,
  "determined": 2987,
  "mp": 2988,
  "Base@@": 2989,
  "preserve": 2990,
  "RND": 2991,
  "sc": 2992,
  "lag": 2993,
  "17": 2994,
  "vocabulary": 2995,
  "i.@@": 2996,
  "qualified": 2997,
  "suggestion": 2998,
  "lb": 2999,
  "HEAD": 3000,
  "Log": 3001,
  "bridge": 3002,
  "DEBUG": 3003,
  "3&apos;": 3004,
  "Graph": 3005,
  "manifest": 3006,
  "arn": 3007,
  "outer": 3008,
  "Basic": 3009,
  "logging.debug": 3010,
  "lexer": 3011,
  ".write": 3012,
  "optimizer": 3013,
  "utility": 3014,
  "rating": 3015,
  ".upper": 3016,
  "p2": 3017,
  "parse@@": 3018,
  "First": 3019,
  "tax": 3020,
  "checker": 3021,
  "-o": 3022,
  "fixture": 3023,
  "YAML": 3024,
  "struct.pack": 3025,
  "placeholder": 3026,
  "drive": 3027,
  "credential": 3028,
  "`x`": 3029,
  "inc": 3030,
  "16@@": 3031,
  "De@@": 3032,
  "redis": 3033,
  "choose": 3034,
  "salt-run": 3035,
  "Transform": 3036,
  "sympy.abc": 3037,
  "decorate": 3038,
  "pem": 3039,
  "Copy": 3040,
  "Session": 3041,
  "logout": 3042,
  "Updates": 3043,
  "c2": 3044,
  "StopIteration": 3045,
  ".rstrip": 3046,
  "definitions": 3047,
  "dhcp": 3048,
  "requirement": 3049,
  "pd": 3050,
  "cb": 3051,
  "built": 3052,
  "Task": 3053,
  "y.@@": 3054,
  "de": 3055,
  "Directory": 3056,
  "white": 3057,
  "removes": 3058,
  "deviation": 3059,
  "MAP": 3060,
  "-3": 3061,
  "session.@@": 3062,
  "WHERE": 3063,
  "Tensor": 3064,
  "explicitly": 3065,
  "Application": 3066,
  "ctx.@@": 3067,
  "csr": 3068,
  "TIMEOUT": 3069,
  "auto@@": 3070,
  "whole": 3071,
  "performed": 3072,
  "getNewRepository": 3073,
  "correction": 3074,
  "compat": 3075,
  "Code": 3076,
  "FilePath": 3077,
  "verification": 3078,
  "resolver": 3079,
  "DELETE": 3080,
  "expiration": 3081,
  "Item": 3082,
  "subdir": 3083,
  "PIPE": 3084,
  "field.@@": 3085,
  "chosen": 3086,
  "1.5": 3087,
  "assets": 3088,
  "generation": 3089,
  "19@@": 3090,
  "tcp": 3091,
  "middleware": 3092,
  "scaling": 3093,
  "activate": 3094,
  "dtypes": 3095,
  ".copy": 3096,
  "Okay": 3097,
  "accuracy": 3098,
  "enough": 3099,
  "usually": 3100,
  "ly": 3101,
  "again": 3102,
  "cohort": 3103,
  "publish": 3104,
  "instructor": 3105,
  "sys.stderr.write": 3106,
  "ticket": 3107,
  "contained": 3108,
  "traceback.format": 3109,
  "le": 3110,
  "multi@@": 3111,
  "calculated": 3112,
  "der": 3113,
  "Access": 3114,
  "rr": 3115,
  "intersection": 3116,
  "ttl": 3117,
  "campaign": 3118,
  "cls.@@": 3119,
  "ip@@": 3120,
  "rhs": 3121,
  "s.replace": 3122,
  "digit": 3123,
  "green": 3124,
  "cr": 3125,
  "pr": 3126,
  "Values": 3127,
  "Hello": 3128,
  "cart": 3129,
  "cycle": 3130,
  "constraint": 3131,
  "compress": 3132,
  "callbacks": 3133,
  "TYPES": 3134,
  "subscriptions": 3135,
  "detected": 3136,
  "jar": 3137,
  "queues": 3138,
  "namespaces": 3139,
  "combined": 3140,
  "gets": 3141,
  "do@@": 3142,
  ".reshape": 3143,
  "half": 3144,
  "0-9": 3145,
  "orders": 3146,
  "dx": 3147,
  "random.choice": 3148,
  "bg": 3149,
  ".keys": 3150,
  "REQUEST": 3151,
  "RESTful": 3152,
  "datetime.timedelta": 3153,
  "faces": 3154,
  "discussion": 3155,
  "Does": 3156,
  "globs": 3157,
  "prevent": 3158,
  "predicted": 3159,
  "exception.@@": 3160,
  "barcode": 3161,
  "SKIP": 3162,
  "kargs": 3163,
  "collections": 3164,
  "workflow": 3165,
  "extended": 3166,
  "void": 3167,
  "fg": 3168,
  "schedule": 3169,
  "IPython": 3170,
  "objects.@@": 3171,
  "variant": 3172,
  "Length": 3173,
  "letters": 3174,
  "converter": 3175,
  "manager.@@": 3176,
  "stat.S": 3177,
  "Open": 3178,
  "ending": 3179,
  "coil": 3180,
  "path@@": 3181,
  "image.@@": 3182,
  "Encode": 3183,
  "specification": 3184,
  "providers": 3185,
  "Options": 3186,
  "pub": 3187,
  "Replace": 3188,
  "vec": 3189,
  "st@@": 3190,
  "independent": 3191,
  "HTTPError": 3192,
  "Useful": 3193,
  "several": 3194,
  "produce": 3195,
  "together": 3196,
  "s.extend": 3197,
  "coverage": 3198,
  "having": 3199,
  "atomic": 3200,
  "manual": 3201,
  "res.@@": 3202,
  "logfile": 3203,
  "getting": 3204,
  "jinja": 3205,
  "workers": 3206,
  "asarray": 3207,
  "reshape": 3208,
  "stacklevel": 3209,
  "np.empty": 3210,
  "learning": 3211,
  "LooseVersion": 3212,
  "projection": 3213,
  "recipients": 3214,
  ".value": 3215,
  "Construct": 3216,
  "handles": 3217,
  "lowercase": 3218,
  "rand": 3219,
  "linux": 3220,
  "hit": 3221,
  "function&apos;": 3222,
  "1-@@": 3223,
  "Same": 3224,
  "vocab": 3225,
  "parser.@@": 3226,
  "Runs": 3227,
  "sentences": 3228,
  "fieldname": 3229,
  "undirected": 3230,
  "No@@": 3231,
  "IN": 3232,
  "limited": 3233,
  "passphrase": 3234,
  "equation": 3235,
  "xy": 3236,
  "nick": 3237,
  "yields": 3238,
  "Factory": 3239,
  "measure": 3240,
  "checkout": 3241,
  "Simple": 3242,
  "Element": 3243,
  "index.@@": 3244,
  "Base": 3245,
  "di@@": 3246,
  "From": 3247,
  "le@@": 3248,
  "live": 3249,
  "logging.error": 3250,
  "listen": 3251,
  "swap": 3252,
  "Keyword": 3253,
  "clock": 3254,
  "As": 3255,
  "se": 3256,
  "user.id": 3257,
  "credit": 3258,
  "reserved": 3259,
  "Save": 3260,
  "verified": 3261,
  "loading": 3262,
  "across": 3263,
  "joined": 3264,
  "18": 3265,
  "builtins": 3266,
  "keepdims": 3267,
  "modulestore": 3268,
  "123": 3269,
  "entry.@@": 3270,
  "inject": 3271,
  "endog": 3272,
  "basis": 3273,
  "os.path.normpath": 3274,
  "read@@": 3275,
  "firewall": 3276,
  "ar@@": 3277,
  "writing": 3278,
  "Host": 3279,
  "dat": 3280,
  "conn.get": 3281,
  "DE": 3282,
  "ate": 3283,
  "histogram": 3284,
  "Check@@": 3285,
  "21": 3286,
  "lines.append": 3287,
  "calendar": 3288,
  "Source": 3289,
  "locked": 3290,
  "keyfile": 3291,
  "0.01": 3292,
  "quantity": 3293,
  "preference": 3294,
  "base.@@": 3295,
  "copy.deepcopy": 3296,
  "make@@": 3297,
  "basedir": 3298,
  "sh@@": 3299,
  "prep": 3300,
  "bindings": 3301,
  "regression": 3302,
  "everything": 3303,
  "redirects": 3304,
  "pieces": 3305,
  "Data@@": 3306,
  "relevant": 3307,
  "whitelist": 3308,
  "v.@@": 3309,
  "enter": 3310,
  "Command": 3311,
  "criteria": 3312,
  "interpolation": 3313,
  "bem": 3314,
  "scheduler": 3315,
  "cuda": 3316,
  "coefficient": 3317,
  "s.update": 3318,
  "github": 3319,
  "doc.@@": 3320,
  "Image@@": 3321,
  "dumps": 3322,
  "REST": 3323,
  "hint": 3324,
  "NOTE": 3325,
  "alt": 3326,
  "NULL": 3327,
  "union": 3328,
  "various": 3329,
  "much": 3330,
  "message.@@": 3331,
  "m2": 3332,
  "l.@@": 3333,
  "os.sep": 3334,
  "primitive": 3335,
  "cover": 3336,
  "For@@": 3337,
  "m-": 3338,
  "Line": 3339,
  "truncated": 3340,
  "path.split": 3341,
  "Symbol": 3342,
  "hdr": 3343,
  "glance": 3344,
  "sym": 3345,
  "LOG": 3346,
  "themes": 3347,
  "endpoints": 3348,
  "combination": 3349,
  "pipe": 3350,
  "logging.getLogger": 3351,
  "dict&apos;": 3352,
  "nt.assert": 3353,
  "predictions": 3354,
  "observation": 3355,
  "Action": 3356,
  "Valid": 3357,
  "moment": 3358,
  "encoder": 3359,
  "AUTH": 3360,
  "squared": 3361,
  "desktop": 3362,
  "forms": 3363,
  "pytest.mark.django": 3364,
  "name.split": 3365,
  "adjust": 3366,
  "anchor": 3367,
  "Count": 3368,
  "offsets": 3369,
  "todo": 3370,
  "matcher": 3371,
  "authenticate": 3372,
  "secs": 3373,
  "ws": 3374,
  "a1": 3375,
  "hg": 3376,
  "Date": 3377,
  "Is": 3378,
  "li": 3379,
  "Your": 3380,
  "grouped": 3381,
  "comma": 3382,
  "artifact": 3383,
  "Found": 3384,
  "Makes": 3385,
  "finished": 3386,
  "annotation": 3387,
  "23": 3388,
  "Description": 3389,
  "run@@": 3390,
  "recursively": 3391,
  "opener": 3392,
  "posix": 3393,
  "smaller": 3394,
  "TemplateSyntaxError": 3395,
  "follows": 3396,
  "endswith": 3397,
  "``f``": 3398,
  "PASSWORD": 3399,
  "ends": 3400,
  "chan": 3401,
  "app@@": 3402,
  "meaning": 3403,
  "ul": 3404,
  "filled": 3405,
  "applications": 3406,
  "shuffle": 3407,
  "ff": 3408,
  "tolerance": 3409,
  "Object.filter": 3410,
  "silently": 3411,
  "y2": 3412,
  "symmetric": 3413,
  "week": 3414,
  "did": 3415,
  "opened": 3416,
  "np.pi": 3417,
  "spam": 3418,
  "args.append": 3419,
  "np.newaxis": 3420,
  "flattened": 3421,
  "Point": 3422,
  "px": 3423,
  "selem": 3424,
  "allocation": 3425,
  "middle": 3426,
  "routine": 3427,
  "lc": 3428,
  "Currently": 3429,
  "defines": 3430,
  "4.@@": 3431,
  "con@@": 3432,
  "observations": 3433,
  "ation": 3434,
  "stmt": 3435,
  "-d": 3436,
  "performance": 3437,
  "ad@@": 3438,
  "turn": 3439,
  "parser.add": 3440,
  "preview": 3441,
  "obtain": 3442,
  "polynomials": 3443,
  "previously": 3444,
  "pidfile": 3445,
  "notifications": 3446,
  "typically": 3447,
  "giving": 3448,
  "Address": 3449,
  "urlparse": 3450,
  "tp": 3451,
  "Enable": 3452,
  "wt": 3453,
  "gives": 3454,
  "25@@": 3455,
  "seealso": 3456,
  "jenkins-wiki": 3457,
  "local@@": 3458,
  "np.log": 3459,
  "intended": 3460,
  "random.randint": 3461,
  "CRUD": 3462,
  "throw": 3463,
  "problems": 3464,
  "Using": 3465,
  "appname": 3466,
  "mid": 3467,
  "metadef": 3468,
  "n.@@": 3469,
  "ClientError": 3470,
  "vif": 3471,
  "uniform": 3472,
  "compressed": 3473,
  "query.@@": 3474,
  "bio": 3475,
  "signing": 3476,
  "statistic": 3477,
  "Y-": 3478,
  "gzip": 3479,
  "300": 3480,
  "re-@@": 3481,
  ".all": 3482,
  "syslog": 3483,
  "h.@@": 3484,
  "l1": 3485,
  "ed@@": 3486,
  "metaclass": 3487,
  "crop": 3488,
  "density": 3489,
  "Builds": 3490,
  "deploy": 3491,
  "ent": 3492,
  "symlinks": 3493,
  "sanitize": 3494,
  ".endswith": 3495,
  "defaultdict": 3496,
  "descriptors": 3497,
  "cv": 3498,
  "bus": 3499,
  "removing": 3500,
  "extracted": 3501,
  "tok": 3502,
  "ro@@": 3503,
  "ans": 3504,
  "capacity": 3505,
  "cfg.@@": 3506,
  "abspath": 3507,
  "markup": 3508,
  "canvas": 3509,
  "questions": 3510,
  "constraints": 3511,
  "Take": 3512,
  "preprocess": 3513,
  "np.concatenate": 3514,
  "o.@@": 3515,
  "tensors": 3516,
  "Cache": 3517,
  "log.@@": 3518,
  "potential": 3519,
  "fact": 3520,
  "file.write": 3521,
  "encrypt": 3522,
  "indentation": 3523,
  "Required": 3524,
  "subclasses": 3525,
  "options.get": 3526,
  "stage": 3527,
  "00@@": 3528,
  "failures": 3529,
  "path&apos;": 3530,
  "ctxt": 3531,
  "-r": 3532,
  "crypto": 3533,
  "debugging": 3534,
  "baz": 3535,
  "cmd.retcode": 3536,
  "Library": 3537,
  "result.stdout": 3538,
  "t&apos;": 3539,
  "stopped": 3540,
  "result.files": 3541,
  "generating": 3542,
  "0.2": 3543,
  "db@@": 3544,
  "slave": 3545,
  "codec": 3546,
  "BASE": 3547,
  "baseline": 3548,
  "util": 3549,
  "urlopen": 3550,
  "x-@@": 3551,
  "cron": 3552,
  "``&apos;": 3553,
  "printed": 3554,
  "Resource": 3555,
  "tablename": 3556,
  "errno": 3557,
  "vector3": 3558,
  "cmdline": 3559,
  "orientation": 3560,
  "l2": 3561,
  "old@@": 3562,
  "spec.@@": 3563,
  "G.add": 3564,
  "readline": 3565,
  "all@@": 3566,
  "Assert": 3567,
  "displayed": 3568,
  "seek": 3569,
  "Sends": 3570,
  "appended": 3571,
  "check@@": 3572,
  "salt.utils.which": 3573,
  "Recursively": 3574,
  "rtol": 3575,
  "q.@@": 3576,
  "slash": 3577,
  "rst": 3578,
  "super": 3579,
  "belongs": 3580,
  "po": 3581,
  "logic": 3582,
  "corrected": 3583,
  "routes": 3584,
  "Optionally": 3585,
  "Name@@": 3586,
  "Order": 3587,
  "passes": 3588,
  "prod": 3589,
  "trying": 3590,
  "im@@": 3591,
  "host@@": 3592,
  "patches": 3593,
  ".delete": 3594,
  "eg": 3595,
  "64@@": 3596,
  "softmax": 3597,
  "stable": 3598,
  "OR": 3599,
  "denom": 3600,
  "indicate": 3601,
  "retrieved": 3602,
  "env.@@": 3603,
  "yaml&apos;": 3604,
  "However": 3605,
  "relationship": 3606,
  "evaluated": 3607,
  "Maximum": 3608,
  "ma": 3609,
  "Unix": 3610,
  "s.keys": 3611,
  "assumes": 3612,
  "zones": 3613,
  "clients": 3614,
  "Decode": 3615,
  "marked": 3616,
  "PID": 3617,
  "Dataset": 3618,
  "Retrieves": 3619,
  "Device": 3620,
  "WARNING": 3621,
  "Deletes": 3622,
  "demo": 3623,
  "And": 3624,
  "responses": 3625,
  "nx.@@": 3626,
  "query.filter": 3627,
  "probably": 3628,
  "acc": 3629,
  "expects": 3630,
  "el@@": 3631,
  "DoesNotExist": 3632,
  "duplicates": 3633,
  "dotted": 3634,
  "making": 3635,
  "RE@@": 3636,
  "importer": 3637,
  "msg.format": 3638,
  "non@@": 3639,
  "challenge": 3640,
  "sp@@": 3641,
  "hierarchy": 3642,
  "discrete": 3643,
  "stuff": 3644,
  "singular": 3645,
  "pwd": 3646,
  "subtype": 3647,
  "Specify": 3648,
  "embed": 3649,
  ".is": 3650,
  "ab": 3651,
  "published": 3652,
  "unexpected": 3653,
  "SystemExit": 3654,
  "nonzero": 3655,
  "cval": 3656,
  "si@@": 3657,
  "rollback": 3658,
  "concat": 3659,
  "d-@@": 3660,
  "service.@@": 3661,
  "dy": 3662,
  "closest": 3663,
  "hold": 3664,
  "10000": 3665,
  "T.@@": 3666,
  "barDs": 3667,
  "mlp": 3668,
  "&apos;s": 3669,
  "sites": 3670,
  "hub": 3671,
  "sensitive": 3672,
  "embedded": 3673,
  "agg": 3674,
  "line@@": 3675,
  "padded": 3676,
  "tarball": 3677,
  "immediately": 3678,
  "lib.@@": 3679,
  "TEMPLATE": 3680,
  "similarity": 3681,
  "almost": 3682,
  "info.get": 3683,
  "ers": 3684,
  "releases": 3685,
  "light": 3686,
  "python-@@": 3687,
  "shortest": 3688,
  "FIELD": 3689,
  "accessed": 3690,
  "Parameter": 3691,
  "panel": 3692,
  "26": 3693,
  "code@@": 3694,
  "finish": 3695,
  "Determines": 3696,
  "Argument": 3697,
  "request.session": 3698,
  "Storage": 3699,
  "hashes": 3700,
  "G.": 3701,
  "input@@": 3702,
  "catch": 3703,
  "from@@": 3704,
  "students": 3705,
  "s.pop": 3706,
  "counters": 3707,
  "allocated": 3708,
  "grammar": 3709,
  "vote": 3710,
  "fft": 3711,
  "addons": 3712,
  "keyname": 3713,
  "nn": 3714,
  "percentage": 3715,
  "Stop": 3716,
  "SSH": 3717,
  "writes": 3718,
  "TABLE": 3719,
  "Bucket": 3720,
  "unix": 3721,
  "alignment": 3722,
  "lo": 3723,
  "vertexes": 3724,
  "builds": 3725,
  "d&apos;": 3726,
  "specifies": 3727,
  "group@@": 3728,
  "overlap": 3729,
  "0.9": 3730,
  "ac@@": 3731,
  "editable": 3732,
  "company": 3733,
  "facility": 3734,
  "meg": 3735,
  "UnicodeDecodeError": 3736,
  "rsa": 3737,
  "mm": 3738,
  "en.wikipedia.org": 3739,
  "psz": 3740,
  "respectively": 3741,
  "largest": 3742,
  "S3": 3743,
  "36": 3744,
  "pprint": 3745,
  "autoescape": 3746,
  "requests.get": 3747,
  "15@@": 3748,
  "resolved": 3749,
  "lib@@": 3750,
  "path.startswith": 3751,
  "1-D": 3752,
  "os.chdir": 3753,
  "pytest": 3754,
  "Port": 3755,
  "infer": 3756,
  "clause": 3757,
  "s.": 3758,
  "So": 3759,
  "play": 3760,
  "phi": 3761,
  "J": 3762,
  "u.@@": 3763,
  "rem": 3764,
  "omitted": 3765,
  "rho": 3766,
  "datetime.now": 3767,
  "repl": 3768,
  "y0": 3769,
  "Key@@": 3770,
  "four": 3771,
  "mobile": 3772,
  "results.append": 3773,
  "af": 3774,
  "amp": 3775,
  "TCP": 3776,
  "str@@": 3777,
  "int32": 3778,
  "rights": 3779,
  "linked": 3780,
  "i18n": 3781,
  "ex@@": 3782,
  "mo@@": 3783,
  "darwin": 3784,
  "17@@": 3785,
  ".select": 3786,
  "pw": 3787,
  "urlencode": 3788,
  "19": 3789,
  "pkey": 3790,
  "increment": 3791,
  "behave": 3792,
  "40@@": 3793,
  ".get@@": 3794,
  "Type@@": 3795,
  "normalization": 3796,
  "cmd.extend": 3797,
  "microseconds": 3798,
  "INET": 3799,
  "numpy.array": 3800,
  "platforms": 3801,
  "s-": 3802,
  "Internal": 3803,
  "APP": 3804,
  "Add@@": 3805,
  "shutil.rmtree": 3806,
  "ep": 3807,
  "Popen": 3808,
  "form.@@": 3809,
  "col@@": 3810,
  "located": 3811,
  "consider": 3812,
  "hashed": 3813,
  "identify": 3814,
  "path.@@": 3815,
  "30@@": 3816,
  "18@@": 3817,
  "ISO": 3818,
  "cachedir": 3819,
  "streams": 3820,
  "sending": 3821,
  "looking": 3822,
  "doing": 3823,
  "2-tuple": 3824,
  "listener": 3825,
  "14@@": 3826,
  "pp": 3827,
  "larger": 3828,
  "torrent": 3829,
  "restApiId": 3830,
  "li@@": 3831,
  "MB": 3832,
  "mutable": 3833,
  "why": 3834,
  "conda": 3835,
  "purge": 3836,
  "Tag": 3837,
  "Callback": 3838,
  "customer": 3839,
  "multipart": 3840,
  "it@@": 3841,
  "Sub@@": 3842,
  "subprocess.check": 3843,
  "who": 3844,
  "cache.@@": 3845,
  "Database": 3846,
  "strong": 3847,
  "phone": 3848,
  "programs": 3849,
  "CSV": 3850,
  "key.@@": 3851,
  "logits": 3852,
  "at@@": 3853,
  "Is@@": 3854,
  "rendering": 3855,
  "sides": 3856,
  "time@@": 3857,
  "LOG.error": 3858,
  "older": 3859,
  "1D": 3860,
  "System": 3861,
  "SERVICE": 3862,
  "odd": 3863,
  "writeOutput": 3864,
  "repeated": 3865,
  "boxes": 3866,
  "root.@@": 3867,
  "Mul": 3868,
  "open@@": 3869,
  "Property": 3870,
  "feedback": 3871,
  "treated": 3872,
  "CONF.@@": 3873,
  "exceptions.@@": 3874,
  "formula": 3875,
  "cf": 3876,
  "atol": 3877,
  "CPU": 3878,
  "sg": 3879,
  "msgs": 3880,
  "last@@": 3881,
  "ask": 3882,
  "leave": 3883,
  "geometry": 3884,
  "tile": 3885,
  "x02": 3886,
  ".data": 3887,
  "pb.@@": 3888,
  "data.shape": 3889,
  "`n`": 3890,
  "m1": 3891,
  "infos": 3892,
  "mysql": 3893,
  "prepend": 3894,
  "11@@": 3895,
  "plan": 3896,
  "90": 3897,
  "inserted": 3898,
  "2000": 3899,
  "Sequence": 3900,
  "kinds": 3901,
  "ajax": 3902,
  "Loads": 3903,
  "Missing": 3904,
  "cont": 3905,
  "systemd": 3906,
  "shortcut": 3907,
  "carrier": 3908,
  "tested": 3909,
  "locator": 3910,
  "uppercase": 3911,
  "reads": 3912,
  "eeg": 3913,
  "sympy.polys": 3914,
  "request.user.profile.has": 3915,
  "types.@@": 3916,
  "403": 3917,
  "unable": 3918,
  "uint8": 3919,
  ".digest": 3920,
  "create@@": 3921,
  "App@@": 3922,
  "gen@@": 3923,
  "-p": 3924,
  "wsgi": 3925,
  "proxies": 3926,
  "Download": 3927,
  "Render": 3928,
  "writable": 3929,
  "click.argument": 3930,
  "alternate": 3931,
  "curve": 3932,
  "leaves": 3933,
  "ing&apos;": 3934,
  "Entry": 3935,
  "`G`": 3936,
  "unchanged": 3937,
  "Decimal": 3938,
  "functionality": 3939,
  "decoder": 3940,
  "client.get": 3941,
  "Profile": 3942,
  "Sample": 3943,
  "locate": 3944,
  "f1": 3945,
  "serve": 3946,
  "blue": 3947,
  "u.deg": 3948,
  "inclusive": 3949,
  "continuous": 3950,
  "composite": 3951,
  "ti@@": 3952,
  "randomly": 3953,
  "t-@@": 3954,
  "celery": 3955,
  "identical": 3956,
  "latex": 3957,
  "transformed": 3958,
  "audit": 3959,
  "output@@": 3960,
  "State": 3961,
  "vertex": 3962,
  "skeinforge": 3963,
  "boto3": 3964,
  "occurs": 3965,
  "mpl": 3966,
  "row@@": 3967,
  "PUT": 3968,
  "keyed": 3969,
  "data@@": 3970,
  "decrypt": 3971,
  "instance&apos;": 3972,
  "re.findall": 3973,
  "WRITEME": 3974,
  "foreign": 3975,
  "me@@": 3976,
  "nova": 3977,
  "fr": 3978,
  "sm": 3979,
  "milestones": 3980,
  "req.@@": 3981,
  "protected": 3982,
  "opening": 3983,
  "naive": 3984,
  "symlink": 3985,
  "generates": 3986,
  "Files": 3987,
  "Setting": 3988,
  ".as": 3989,
  "Wait": 3990,
  "bool&apos;": 3991,
  "meter": 3992,
  "creds": 3993,
  "further": 3994,
  "likely": 3995,
  "Generator": 3996,
  "privileges": 3997,
  "And@@": 3998,
  "osquery": 3999,
  "becomes": 4000,
  "request.path": 4001,
  "gain": 4002,
  "ab@@": 4003,
  "VALUE": 4004,
  "logger.log": 4005,
  "critical": 4006,
  "dirnames": 4007,
  "inclusion": 4008,
  ".order": 4009,
  "setuptools": 4010,
  "reports": 4011,
  "NS": 4012,
  "Network": 4013,
  "deep": 4014,
  "Loader": 4015,
  "payment": 4016,
  "won": 4017,
  "multiplier": 4018,
  "Prints": 4019,
  "notes": 4020,
  "co": 4021,
  "manage": 4022,
  "divmod": 4023,
  "的@@": 4024,
  "mixed": 4025,
  "buff": 4026,
  "xx": 4027,
  "Build@@": 4028,
  "record.@@": 4029,
  "Settings": 4030,
  "group.@@": 4031,
  "5.@@": 4032,
  "Initialize": 4033,
  "Some": 4034,
  "grafana": 4035,
  "Connect": 4036,
  "tf": 4037,
  "base@@": 4038,
  "New@@": 4039,
  "bytestring": 4040,
  "Reference": 4041,
  "monkeypatch": 4042,
  "delim": 4043,
  "name@@": 4044,
  "resolution": 4045,
  "places": 4046,
  "launch": 4047,
  "excludes": 4048,
  "slot": 4049,
  "sol": 4050,
  "returner": 4051,
  "source.@@": 4052,
  "acceptable": 4053,
  "END": 4054,
  "nice": 4055,
  "sys.stdout.write": 4056,
  "sd": 4057,
  "markers": 4058,
  "unsupported": 4059,
  "cdf": 4060,
  "deferred": 4061,
  "click.command": 4062,
  "boto.exception.BotoServerError": 4063,
  "sqlite": 4064,
  "referenced": 4065,
  "exc.@@": 4066,
  "Map": 4067,
  "Token": 4068,
  "endian": 4069,
  "branches": 4070,
  "Failure": 4071,
  "socket.error": 4072,
  "ast": 4073,
  "ary": 4074,
  "Import": 4075,
  "apiproxy": 4076,
  "MODE": 4077,
  "dpi": 4078,
  "SCRIPT": 4079,
  "Not@@": 4080,
  "ge@@": 4081,
  "utils.execute": 4082,
  "footer": 4083,
  "op@@": 4084,
  "ui": 4085,
  "register.tag": 4086,
  "32@@": 4087,
  "interpreter": 4088,
  "respect": 4089,
  "f2": 4090,
  "foobar": 4091,
  "lead": 4092,
  "google": 4093,
  "connection.@@": 4094,
  "salt.utils.@@": 4095,
  "os.getenv": 4096,
  "request.get": 4097,
  "availability": 4098,
  "stores": 4099,
  "bytearray": 4100,
  "name.endswith": 4101,
  "x1b": 4102,
  "name.replace": 4103,
  "invoke": 4104,
  "45": 4105,
  "pootle": 4106,
  "scaled": 4107,
  "setter": 4108,
  "zoom": 4109,
  "bs": 4110,
  "Filename": 4111,
  "na": 4112,
  "getitem": 4113,
  "intervals": 4114,
  "Created": 4115,
  "surface": 4116,
  "appears": 4117,
  "encountered": 4118,
  "5&apos;": 4119,
  "4&apos;": 4120,
  "xyz": 4121,
  "derived": 4122,
  "unsigned": 4123,
  "Then": 4124,
  "titles": 4125,
  "MessageType": 4126,
  "ne@@": 4127,
  "simplify": 4128,
  "PAGE": 4129,
  "os.access": 4130,
  "int64": 4131,
  "app.route": 4132,
  "1`": 4133,
  "XDG": 4134,
  "pkt": 4135,
  "cliques": 4136,
  "intercept": 4137,
  "list@@": 4138,
  "mountpoint": 4139,
  "STATUS": 4140,
  "dct": 4141,
  "28": 4142,
  "survey": 4143,
  "RSA": 4144,
  "underlying": 4145,
  "trunc": 4146,
  "ins": 4147,
  "computes": 4148,
  "am@@": 4149,
  "manually": 4150,
  "Require": 4151,
  "generators": 4152,
  "3d": 4153,
  "corresponds": 4154,
  "Lists": 4155,
  "sp": 4156,
  "build@@": 4157,
  "plaintext": 4158,
  "Web@@": 4159,
  "national": 4160,
  "ob": 4161,
  "uploaded": 4162,
  "den": 4163,
  "compared": 4164,
  "disks": 4165,
  "obs": 4166,
  "sc@@": 4167,
  "Reader": 4168,
  "summaries": 4169,
  "recurse": 4170,
  "flip": 4171,
  "structuring": 4172,
  "numobj": 4173,
  "LANGUAGE": 4174,
  "TpPd": 4175,
  "cl": 4176,
  "styles": 4177,
  "0.001": 4178,
  "-m": 4179,
  "filter@@": 4180,
  "s.values": 4181,
  "pl": 4182,
  "mkdir": 4183,
  "67@@": 4184,
  "commits": 4185,
  "Text@@": 4186,
  "request.user.is": 4187,
  "-4": 4188,
  "NumPy": 4189,
  "debugger": 4190,
  "data&apos;": 4191,
  "node.op": 4192,
  "am": 4193,
  "entrance": 4194,
  "user@@": 4195,
  "dbname": 4196,
  "coerce": 4197,
  "ri@@": 4198,
  "mult": 4199,
  "javascript": 4200,
  "memoize": 4201,
  "mesType": 4202,
  "correspond": 4203,
  "ax.set": 4204,
  "np.float64": 4205,
  "doc@@": 4206,
  "CSS": 4207,
  "social": 4208,
  "With@@": 4209,
  "macro": 4210,
  "Volume": 4211,
  "elapsed": 4212,
  "`False`": 4213,
  "surf": 4214,
  "127": 4215,
  "frozenset": 4216,
  "pts": 4217,
  "Running": 4218,
  "monomial": 4219,
  "That": 4220,
  "Convenience": 4221,
  "fpath": 4222,
  "Open@@": 4223,
  "little": 4224,
  "Log@@": 4225,
  "Calculates": 4226,
  "parts.append": 4227,
  "computation": 4228,
  "broadcastable": 4229,
  "obtained": 4230,
  "Utility": 4231,
  "nbits": 4232,
  ".find": 4233,
  "LE": 4234,
  "Since": 4235,
  "server@@": 4236,
  "Wrap": 4237,
  "n2": 4238,
  "Attribute": 4239,
  "interpreted": 4240,
  "decoding": 4241,
  "margin": 4242,
  "Poly": 4243,
  "request.POST.get": 4244,
  "version.@@": 4245,
  "fabtools": 4246,
  "occurred": 4247,
  "63": 4248,
  "con": 4249,
  "cores": 4250,
  "flocker": 4251,
  "Fs": 4252,
  "func.@@": 4253,
  "negatives": 4254,
  "others": 4255,
  "Finds": 4256,
  "signals": 4257,
  "My@@": 4258,
  "internet": 4259,
  "memcache": 4260,
  "party": 4261,
  "MediaPlayer": 4262,
  "aspect": 4263,
  "traverse": 4264,
  "MySQL": 4265,
  "sensors": 4266,
  "pe": 4267,
  "extras": 4268,
  "applies": 4269,
  "reqs": 4270,
  "sympify": 4271,
  "rewrite": 4272,
  "validated": 4273,
  "populate": 4274,
  "upon": 4275,
  "guid": 4276,
  "2.5": 4277,
  "or@@": 4278,
  "bw": 4279,
  "24@@": 4280,
  "astropy": 4281,
  "Password": 4282,
  "os.path.sep": 4283,
  "atom": 4284,
  "Formats": 4285,
  "file.read": 4286,
  "gui": 4287,
  "find@@": 4288,
  "probabilities": 4289,
  "mb": 4290,
  "integral": 4291,
  "user.username": 4292,
  "pro@@": 4293,
  "3D": 4294,
  "implement": 4295,
  "keystone": 4296,
  "broken": 4297,
  "Filters": 4298,
  "primer": 4299,
  "-5": 4300,
  "E.g.": 4301,
  "non-zero": 4302,
  "iterables": 4303,
  "confirm": 4304,
  "ted": 4305,
  "02d": 4306,
  "App": 4307,
  "os.unlink": 4308,
  "contextlib.contextmanager": 4309,
  "attachments": 4310,
  "preferences": 4311,
  "discard": 4312,
  "Container": 4313,
  "String@@": 4314,
  "Full": 4315,
  "LOGGER.error": 4316,
  "USE": 4317,
  "re.split": 4318,
  "associate": 4319,
  "Header": 4320,
  "iterate": 4321,
  "dd": 4322,
  "today": 4323,
  "sigmoid": 4324,
  ".pop": 4325,
  "youtube": 4326,
  "Co@@": 4327,
  "dom": 4328,
  "superuser": 4329,
  "value&apos;": 4330,
  "Support": 4331,
  "codename": 4332,
  "Service@@": 4333,
  "msg.@@": 4334,
  "cmds": 4335,
  "confidence": 4336,
  "minus": 4337,
  "cs.@@": 4338,
  "pkg.list": 4339,
  "accessing": 4340,
  "decay": 4341,
  "really": 4342,
  "prog": 4343,
  "svc": 4344,
  "hat": 4345,
  "node@@": 4346,
  "esxi": 4347,
  "Link": 4348,
  "27@@": 4349,
  "bears": 4350,
  "PIL": 4351,
  "module.fail": 4352,
  "daemon": 4353,
  "finds": 4354,
  "visit": 4355,
  "traffic": 4356,
  "secgroup": 4357,
  "t.get": 4358,
  "logo": 4359,
  "Thread": 4360,
  "blacklist": 4361,
  "v3": 4362,
  "analysis": 4363,
  "cupy.ndarray": 4364,
  "GLOBAL": 4365,
  "fi@@": 4366,
  "SESSION": 4367,
  "lon": 4368,
  "timer": 4369,
  "22@@": 4370,
  "VALID": 4371,
  "PRIVATE": 4372,
  "vbd": 4373,
  "ATTR": 4374,
  "On@@": 4375,
  "suppress": 4376,
  "sampling": 4377,
  "gap": 4378,
  "Interface": 4379,
  "ping": 4380,
  "os.mkdir": 4381,
  "migrations": 4382,
  "1.1": 4383,
  "p0": 4384,
  "triangle": 4385,
  "moved": 4386,
  "click.echo": 4387,
  "user.is": 4388,
  "shown": 4389,
  "HEADER": 4390,
  "Engine": 4391,
  "committer": 4392,
  "oid": 4393,
  "f.name": 4394,
  "hits": 4395,
  "grads": 4396,
  "license": 4397,
  "config.option": 4398,
  "res@@": 4399,
  "linkage": 4400,
  "paste": 4401,
  "newer": 4402,
  "fk": 4403,
  "heap": 4404,
  "ec@@": 4405,
  "membership": 4406,
  "KeyboardInterrupt": 4407,
  "frozen": 4408,
  "ter": 4409,
  "spider": 4410,
  "exponent": 4411,
  "ratings": 4412,
  "pd.DataFrame": 4413,
  "cm": 4414,
  "Time@@": 4415,
  "OPTIONS": 4416,
  "better": 4417,
  "addition": 4418,
  "invoked": 4419,
  "easy": 4420,
  "e.errno": 4421,
  "svn": 4422,
  "Page": 4423,
  "buckets": 4424,
  "ref@@": 4425,
  "circuit": 4426,
  "1.2": 4427,
  "Reads": 4428,
  "slots": 4429,
  "removal": 4430,
  "uuids": 4431,
  "implements": 4432,
  "CLASS": 4433,
  "derivation.@@": 4434,
  "Clear": 4435,
  "subtitles": 4436,
  "Window": 4437,
  "pids": 4438,
  "residual": 4439,
  "tracker": 4440,
  "widgets": 4441,
  "taking": 4442,
  "-i": 4443,
  "black": 4444,
  "response.headers": 4445,
  "pg": 4446,
  "notice": 4447,
  "ations": 4448,
  "inet": 4449,
  "positives": 4450,
  "identified": 4451,
  "quadratic": 4452,
  "raising": 4453,
  "portion": 4454,
  "target.@@": 4455,
  "validators": 4456,
  "X-@@": 4457,
  "May": 4458,
  "After": 4459,
  "splits": 4460,
  "kept": 4461,
  "3600": 4462,
  "At": 4463,
  "vs": 4464,
  "pt": 4465,
  "notation": 4466,
  "page.@@": 4467,
  "randfunc": 4468,
  "device.@@": 4469,
  "cnt": 4470,
  "Gaussian": 4471,
  "architecture": 4472,
  "reuse": 4473,
  "data.find": 4474,
  "Yields": 4475,
  "bigip": 4476,
  "bb": 4477,
  "deadline": 4478,
  "100.0": 4479,
  "document.@@": 4480,
  "permutation": 4481,
  "operators": 4482,
  "Collection": 4483,
  "Record": 4484,
  "frag": 4485,
  "ENCODING": 4486,
  "BytesIO": 4487,
  "flash": 4488,
  "`a`": 4489,
  "tell": 4490,
  "s.remove": 4491,
  "Mapping": 4492,
  "denominator": 4493,
  "Job": 4494,
  "35": 4495,
  "salt.utils.boto3.get": 4496,
  "tx": 4497,
  "Simple@@": 4498,
  "Here": 4499,
  "transformation": 4500,
  "setup.py": 4501,
  "up@@": 4502,
  "happen": 4503,
  "``K": 4504,
  "profile.@@": 4505,
  "sfreq": 4506,
  "34@@": 4507,
  "activities": 4508,
  "categorical": 4509,
  "man": 4510,
  "inactive": 4511,
  "keyspace": 4512,
  "hard": 4513,
  "x86": 4514,
  "nargs": 4515,
  "r1": 4516,
  "-e": 4517,
  "np.float32": 4518,
  "module&apos;": 4519,
  "Server@@": 4520,
  "environ.get": 4521,
  "ce@@": 4522,
  "k.@@": 4523,
  "chroot": 4524,
  "accessible": 4525,
  "tf.@@": 4526,
  "answers": 4527,
  "chainer.Variable": 4528,
  "locs": 4529,
  "distributions": 4530,
  "Feed": 4531,
  "Pass": 4532,
  "Url": 4533,
  "t0": 4534,
  "chunksize": 4535,
  "errors.@@": 4536,
  "np.linspace": 4537,
  "l10n": 4538,
  "bipartite": 4539,
  "though": 4540,
  "Attempt": 4541,
  "DB@@": 4542,
  "token.@@": 4543,
  "ra": 4544,
  "ST@@": 4545,
  "S.@@": 4546,
  "expiry": 4547,
  "stock": 4548,
  "subplot": 4549,
  "x.ndim": 4550,
  "h1": 4551,
  "moving": 4552,
  "salt.utils.mac": 4553,
  "QUERY": 4554,
  "subdomain": 4555,
  "exchange": 4556,
  "FILETYPE": 4557,
  "sympy.polys.domains": 4558,
  "US": 4559,
  "-x": 4560,
  "IS": 4561,
  "venv": 4562,
  ".count": 4563,
  "datetime.date": 4564,
  "36@@": 4565,
  "cql": 4566,
  "logger.error": 4567,
  "logging.DEBUG": 4568,
  "color@@": 4569,
  "aren": 4570,
  "Queue": 4571,
  "bads": 4572,
  "th@@": 4573,
  "28@@": 4574,
  "id&apos;": 4575,
  "subsample": 4576,
  "shp": 4577,
  "unescape": 4578,
  "33": 4579,
  "talib": 4580,
  "load@@": 4581,
  "confirmation": 4582,
  "care": 4583,
  "10.@@": 4584,
  "SyntaxError": 4585,
  "IN@@": 4586,
  "colormap": 4587,
  "y-@@": 4588,
  "np.mean": 4589,
  "supply": 4590,
  "web@@": 4591,
  "performs": 4592,
  "content.@@": 4593,
  "xff": 4594,
  "e.args": 4595,
  "floor": 4596,
  "smallest": 4597,
  "startup": 4598,
  "reraise": 4599,
  "url@@": 4600,
  "MSG": 4601,
  "mod@@": 4602,
  "Request@@": 4603,
  "-s": 4604,
  "subsequent": 4605,
  "ks": 4606,
  "command-line": 4607,
  "abstract": 4608,
  ".pyc": 4609,
  "Local": 4610,
  "stats.@@": 4611,
  "Select": 4612,
  "chapter": 4613,
  "hashlib.md5": 4614,
  "spatial": 4615,
  "Python@@": 4616,
  "expansion": 4617,
  "waiting": 4618,
  "calc": 4619,
  "2`": 4620,
  "capabilities": 4621,
  "START": 4622,
  "emit": 4623,
  "framework": 4624,
  ".html": 4625,
  "text.replace": 4626,
  "trust": 4627,
  "multivariate": 4628,
  "contrib": 4629,
  "classification": 4630,
  "PER": 4631,
  "6.@@": 4632,
  "project.@@": 4633,
  "contributors": 4634,
  "os.path.realpath": 4635,
  "val@@": 4636,
  "resampled": 4637,
  "INET6": 4638,
  "nic": 4639,
  "purposes": 4640,
  "e-@@": 4641,
  "peer": 4642,
  "dfs": 4643,
  "formset": 4644,
  "handled": 4645,
  "divisions": 4646,
  "sheet": 4647,
  "ation@@": 4648,
  "Mode": 4649,
  "organisation": 4650,
  "permanent": 4651,
  "effective": 4652,
  ".st": 4653,
  "pci": 4654,
  "important": 4655,
  "wire": 4656,
  "replay": 4657,
  "Consul": 4658,
  "increasing": 4659,
  "visited": 4660,
  "mi@@": 4661,
  "prefs": 4662,
  "ap@@": 4663,
  "&apos;name": 4664,
  "oo": 4665,
  "click": 4666,
  "format@@": 4667,
  "weak": 4668,
  "dists": 4669,
  "corpus": 4670,
  "timed": 4671,
  "be@@": 4672,
  "80@@": 4673,
  "reduction": 4674,
  "iter@@": 4675,
  "ini": 4676,
  "show@@": 4677,
  "Foo": 4678,
  "zabbix": 4679,
  "op.join": 4680,
  "Bad": 4681,
  "hypothesis": 4682,
  "Sum": 4683,
  "eta": 4684,
  "Range": 4685,
  "specifier": 4686,
  "let": 4687,
  "detach": 4688,
  "name.@@": 4689,
  "io.@@": 4690,
  "180": 4691,
  "comes": 4692,
  "Con@@": 4693,
  "ie": 4694,
  "os.@@": 4695,
  "OAuth": 4696,
  "MAC": 4697,
  "spherical": 4698,
  "centrality": 4699,
  "resource.@@": 4700,
  "type.@@": 4701,
  "inherit": 4702,
  "colon": 4703,
  "Loop": 4704,
  "system.@@": 4705,
  "constants.@@": 4706,
  "page&apos;": 4707,
  "restricted": 4708,
  "Certificate": 4709,
  "Names": 4710,
  "LookupError": 4711,
  "swift": 4712,
  "block@@": 4713,
  "5.0": 4714,
  "Validates": 4715,
  "objects.create": 4716,
  "mod.@@": 4717,
  "friendly": 4718,
  "-n": 4719,
  "protobuf": 4720,
  "imp": 4721,
  "dig": 4722,
  "ation.@@": 4723,
  "dis@@": 4724,
  "comma-separated": 4725,
  "traversal": 4726,
  "inference": 4727,
  "energy": 4728,
  "neither": 4729,
  "convenience": 4730,
  "name`": 4731,
  "unavailable": 4732,
  "y&apos;": 4733,
  "Project": 4734,
  "urn": 4735,
  "ON": 4736,
  "topo": 4737,
  "logger.warning": 4738,
  "connectivity": 4739,
  "Multiple": 4740,
  "xmodule": 4741,
  "PY3": 4742,
  "timestamps": 4743,
  "UnicodeError": 4744,
  "periodic": 4745,
  "TEXT": 4746,
  "linode": 4747,
  "DE@@": 4748,
  "Cookie": 4749,
  "dr": 4750,
  "slugify": 4751,
  "faster": 4752,
  "512": 4753,
  "prints": 4754,
  "TOKEN": 4755,
  "iv": 4756,
  "200@@": 4757,
  "store.@@": 4758,
  "principal": 4759,
  "searched": 4760,
  "rational": 4761,
  "alive": 4762,
  "2-@@": 4763,
  "combinations": 4764,
  "alarm": 4765,
  "fault": 4766,
  "notebook": 4767,
  "np.nan": 4768,
  "auth.@@": 4769,
  "rl": 4770,
  "0.3": 4771,
  "toc": 4772,
  "transpose": 4773,
  "unittest": 4774,
  "9.@@": 4775,
  "po@@": 4776,
  "glob.glob": 4777,
  "connecting": 4778,
  "default@@": 4779,
  "sha256": 4780,
  "spacing": 4781,
  "DE.t": 4782,
  "job.@@": 4783,
  "app.config": 4784,
  "Paths": 4785,
  "a2": 4786,
  "virt": 4787,
  "remove@@": 4788,
  "Fake@@": 4789,
  "vendor": 4790,
  "ddof": 4791,
  "np.exp": 4792,
  "classifier": 4793,
  "50@@": 4794,
  "lo@@": 4795,
  "param@@": 4796,
  "indexing": 4797,
  "child.@@": 4798,
  "win@@": 4799,
  "my-@@": 4800,
  "object.@@": 4801,
  "disconnect": 4802,
  "displays": 4803,
  "Iterable": 4804,
  "ra@@": 4805,
  "subproject": 4806,
  "profiler": 4807,
  "ctype": 4808,
  "naming": 4809,
  "apps.get": 4810,
  "tmin": 4811,
  "medium": 4812,
  "dots": 4813,
  "Step": 4814,
  "handler.@@": 4815,
  "annotations": 4816,
  "ensures": 4817,
  "gate": 4818,
  "NONE": 4819,
  "third": 4820,
  "predict": 4821,
  "keypair": 4822,
  "usable": 4823,
  "Provides": 4824,
  "27": 4825,
  "Keys": 4826,
  "Path@@": 4827,
  "COOKIE": 4828,
  "tried": 4829,
  "8.@@": 4830,
  "avatar": 4831,
  "normally": 4832,
  "classname": 4833,
  "0.05": 4834,
  "fc": 4835,
  "REDIRECT": 4836,
  "reporter": 4837,
  "bin@@": 4838,
  "DATE": 4839,
  "det": 4840,
  "Bad@@": 4841,
  "distributed": 4842,
  "polys": 4843,
  "-name": 4844,
  "consistent": 4845,
  "65@@": 4846,
  "version&apos;": 4847,
  "PermissionDenied": 4848,
  "enforce": 4849,
  "RE.match": 4850,
  "Writer": 4851,
  "tutorial": 4852,
  "Proxy": 4853,
  "periods": 4854,
  "Object@@": 4855,
  "game": 4856,
  "bold": 4857,
  "Pre@@": 4858,
  "metadata.@@": 4859,
  "list.@@": 4860,
  "date@@": 4861,
  "compose": 4862,
  "had": 4863,
  "char@@": 4864,
  "reps": 4865,
  "isnull": 4866,
  "os.path.isabs": 4867,
  "-l": 4868,
  "string.split": 4869,
  "funcname": 4870,
  "TestCase": 4871,
  "sqf": 4872,
  "printer": 4873,
  "Policy": 4874,
  "Multi@@": 4875,
  "re.escape": 4876,
  "STREAM": 4877,
  "sz": 4878,
  "stubs": 4879,
  "rgba": 4880,
  "blog": 4881,
  "rh": 4882,
  "mp@@": 4883,
  "deleting": 4884,
  "register.inclusion": 4885,
  "pv": 4886,
  "uptime": 4887,
  "s.sort": 4888,
  "patched": 4889,
  ".match": 4890,
  "With": 4891,
  "blobs": 4892,
  "drivers": 4893,
  "numbering": 4894,
  "ignoring": 4895,
  "fwd": 4896,
  "1``": 4897,
  "controller&apos;": 4898,
  "rois": 4899,
  "fragments": 4900,
  "Users": 4901,
  "singleton": 4902,
  "ImproperlyConfigured": 4903,
  "ff@@": 4904,
  "``.": 4905,
  "quo": 4906,
  "MODULE": 4907,
  "ic@@": 4908,
  "hypervisor": 4909,
  "ACCESS": 4910,
  "incorrect": 4911,
  ".close": 4912,
  "base64.b64encode": 4913,
  "colorize": 4914,
  "produced": 4915,
  "ation&apos;": 4916,
  "locally": 4917,
  "``dict``": 4918,
  "0.25": 4919,
  "unset": 4920,
  "Vector3": 4921,
  "How": 4922,
  "indptr": 4923,
  "print@@": 4924,
  "gaussian": 4925,
  "IP@@": 4926,
  "SQLAlchemy": 4927,
  "ram": 4928,
  "frame.f": 4929,
  "SkipTest": 4930,
  "rf": 4931,
  "rt": 4932,
  "GB": 4933,
  "become": 4934,
  "xmin": 4935,
  "0x@@": 4936,
  "38@@": 4937,
  "lms": 4938,
  "production": 4939,
  "requesting": 4940,
  "posts": 4941,
  "serialization": 4942,
  "corr": 4943,
  "7.@@": 4944,
  "vms": 4945,
  "authority": 4946,
  "PYTHON": 4947,
  "numerical": 4948,
  "SITE": 4949,
  "association": 4950,
  "ci": 4951,
  "operating": 4952,
  "freqs": 4953,
  "ating": 4954,
  "stackoverflow.com": 4955,
  "48": 4956,
  "lhs": 4957,
  "MD5": 4958,
  "taskid": 4959,
  "nlags": 4960,
  "Accepts": 4961,
  "urlconf": 4962,
  "Extra": 4963,
  "inter@@": 4964,
  "prefixed": 4965,
  "cache.get": 4966,
  "INDEX": 4967,
  "sys.executable": 4968,
  "configurations": 4969,
  "ip.@@": 4970,
  "39@@": 4971,
  "0.0@@": 4972,
  "CREATE": 4973,
  "mon": 4974,
  "socket.socket": 4975,
  "dir@@": 4976,
  "sessions": 4977,
  "nm": 4978,
  "ing.@@": 4979,
  "iso": 4980,
  "newly": 4981,
  "RPC": 4982,
  "ses": 4983,
  "cgi": 4984,
  "mro": 4985,
  "visibility": 4986,
  "rounded": 4987,
  "estimators": 4988,
  "Timestamp": 4989,
  "polygon": 4990,
  "datetime.datetime.now": 4991,
  "detailed": 4992,
  "filesize": 4993,
  "STATE": 4994,
  "kws": 4995,
  "Store": 4996,
  "monic": 4997,
  "revisions": 4998,
  "ind2": 4999,
  ".execute": 5000,
  "55@@": 5001,
  "Extension": 5002,
  "sockets": 5003,
  "submission": 5004,
  "ate@@": 5005,
  "Target": 5006,
  "fuzzy": 5007,
  "prediction": 5008,
  "imag": 5009,
  "x509": 5010,
  "bypass": 5011,
  "hook.command": 5012,
  "SET": 5013,
  "monom": 5014,
  "nbytes": 5015,
  "underscore": 5016,
  "thresh": 5017,
  "Message@@": 5018,
  "`name`": 5019,
  "pvals": 5020,
  "face": 5021,
  "transformer": 5022,
  "cy": 5023,
  "By@@": 5024,
  "OP": 5025,
  "printing": 5026,
  "assuming": 5027,
  "var@@": 5028,
  "name``": 5029,
  "Node@@": 5030,
  "full@@": 5031,
  "tmp@@": 5032,
  "ori": 5033,
  "Additional": 5034,
  "differences": 5035,
  "parent.@@": 5036,
  "out.append": 5037,
  "gi@@": 5038,
  "et": 5039,
  "ret.update": 5040,
  "Calls": 5041,
  "Group@@": 5042,
  "closure": 5043,
  "26@@": 5044,
  "MIN": 5045,
  "snap": 5046,
  "explanation": 5047,
  "LIMIT": 5048,
  "installer": 5049,
  "Language": 5050,
  "source@@": 5051,
  "nd": 5052,
  "approved": 5053,
  "----": 5054,
  "-t": 5055,
  "`x": 5056,
  "produces": 5057,
  "dispatcher": 5058,
  "probs": 5059,
  "cells": 5060,
  "controls": 5061,
  "ve": 5062,
  "ret@@": 5063,
  "fitness": 5064,
  "user.email": 5065,
  "CONTENT": 5066,
  "terminate": 5067,
  "pricing": 5068,
  "rotate": 5069,
  "Media": 5070,
  "29@@": 5071,
  "89@@": 5072,
  "Process@@": 5073,
  "software": 5074,
  "frappe.@@": 5075,
  "zipfile": 5076,
  "cur@@": 5077,
  "0000": 5078,
  "value2": 5079,
  "artifacts": 5080,
  "completions": 5081,
  "collapse": 5082,
  "identifiers": 5083,
  "slow": 5084,
  "threading": 5085,
  "MIME": 5086,
  "Config@@": 5087,
  "ated": 5088,
  "99@@": 5089,
  "lin": 5090,
  "occur": 5091,
  "processors": 5092,
  "sound": 5093,
  "universal": 5094,
  "course.id": 5095,
  "`numpy.ndarray`": 5096,
  "mc": 5097,
  "packets": 5098,
  "vt": 5099,
  "filtering": 5100,
  "net.@@": 5101,
  "float64": 5102,
  "data.append": 5103,
  "topology": 5104,
  "ec": 5105,
  "computer": 5106,
  "4.0": 5107,
  "vertical": 5108,
  "VPC": 5109,
  "a-@@": 5110,
  "computing": 5111,
  "b1": 5112,
  "r2": 5113,
  "file.close": 5114,
  "Timeout": 5115,
  "Expr": 5116,
  "6&apos;": 5117,
  "Available": 5118,
  "omega": 5119,
  "pre-@@": 5120,
  "pth": 5121,
  "METHOD": 5122,
  "texts": 5123,
  "providing": 5124,
  "openssl": 5125,
  "switches": 5126,
  "optimize": 5127,
  ".group": 5128,
  "contiguous": 5129,
  "socket.SOCK": 5130,
  "declared": 5131,
  "diffs": 5132,
  "machines": 5133,
  "start@@": 5134,
  "Empty": 5135,
  "indicator": 5136,
  "freeze": 5137,
  "element.@@": 5138,
  "Tree": 5139,
  "finding": 5140,
  "Turn": 5141,
  "Layer": 5142,
  "replaces": 5143,
  "current.@@": 5144,
  "PDF": 5145,
  "neighborhood": 5146,
  "backwards": 5147,
  "invert": 5148,
  "msvs": 5149,
  "tensor.@@": 5150,
  "87@@": 5151,
  "multiline": 5152,
  "overridden": 5153,
  "Make@@": 5154,
  "finance": 5155,
  "installing": 5156,
  "badge": 5157,
  "months": 5158,
  "few": 5159,
  "approximation": 5160,
  "ms@@": 5161,
  "importing": 5162,
  "GitHub": 5163,
  "Axis": 5164,
  "localized": 5165,
  "lr": 5166,
  "conn.create": 5167,
  "37@@": 5168,
  "Line@@": 5169,
  "mechanism": 5170,
  "collected": 5171,
  "ss@@": 5172,
  "Wraps": 5173,
  "script.site": 5174,
  "horizontal": 5175,
  "Or@@": 5176,
  "field.name": 5177,
  "aa": 5178,
  "piece": 5179,
  "Package": 5180,
  "song": 5181,
  "task.@@": 5182,
  "corner": 5183,
  "A.@@": 5184,
  "3-@@": 5185,
  "LIST": 5186,
  "city": 5187,
  "opts.@@": 5188,
  "phrase": 5189,
  "Content": 5190,
  "tt": 5191,
  "databases": 5192,
  "otherwise&apos;": 5193,
  "star": 5194,
  "spline": 5195,
  "rule.@@": 5196,
  "longest": 5197,
  "notifier": 5198,
  "int&apos;": 5199,
  "sed": 5200,
  "permitted": 5201,
  "quotas": 5202,
  "Color": 5203,
  "lh": 5204,
  "Cloud": 5205,
  "querystring": 5206,
  "um": 5207,
  "batches": 5208,
  "ting": 5209,
  "rstrip": 5210,
  "Parse@@": 5211,
  "net@@": 5212,
  "type&apos;": 5213,
  "ind1": 5214,
  "meta.@@": 5215,
  "argspec": 5216,
  "UnicodeEncodeError": 5217,
  "installed&apos;": 5218,
  "responder": 5219,
  "caching": 5220,
  "ub": 5221,
  "rpm": 5222,
  "np.random.RandomState": 5223,
  "convolution": 5224,
  "COMMAND": 5225,
  "sl": 5226,
  "ascending": 5227,
  "1234": 5228,
  "Writes": 5229,
  "tid": 5230,
  "lx": 5231,
  "Items": 5232,
  "gender": 5233,
  "line.find": 5234,
  ".exists": 5235,
  "assertion": 5236,
  "Sensor": 5237,
  "numpy.ndarray": 5238,
  "More": 5239,
  "ln": 5240,
  "errback": 5241,
  "-like": 5242,
  "Mock": 5243,
  "building": 5244,
  "community": 5245,
  "percentile": 5246,
  "boundaries": 5247,
  "MESSAGE": 5248,
  "，": 5249,
  "TP": 5250,
  "dash": 5251,
  "values&apos;": 5252,
  "idxs": 5253,
  "content-type": 5254,
  "Allow": 5255,
  "online": 5256,
  "sales": 5257,
  "mounted": 5258,
  "some@@": 5259,
  "subprocess.call": 5260,
  "fileno": 5261,
  "dependent": 5262,
  "centers": 5263,
  "plt": 5264,
  "out.@@": 5265,
  "shard": 5266,
  "CA": 5267,
  "ACL": 5268,
  "REMOTE": 5269,
  "tagged": 5270,
  "lut": 5271,
  "replacing": 5272,
  "J.": 5273,
  "transforms": 5274,
  "splitLine": 5275,
  "ac": 5276,
  "blocksize": 5277,
  "idle": 5278,
  "KB": 5279,
  "soft": 5280,
  "effects": 5281,
  "trusted": 5282,
  "-1.0": 5283,
  "divisor": 5284,
  "Stream": 5285,
  "executing": 5286,
  "fe@@": 5287,
  "NAMESPACE": 5288,
  "ver@@": 5289,
  "mri": 5290,
  "highest": 5291,
  "ci@@": 5292,
  "cl@@": 5293,
  "45@@": 5294,
  "sff": 5295,
  "meant": 5296,
  "Handles": 5297,
  "Format@@": 5298,
  "website": 5299,
  "--no-index": 5300,
  "IMAGE": 5301,
  "deprecation": 5302,
  "wanted": 5303,
  "names.append": 5304,
  "rec@@": 5305,
  "Or": 5306,
  "tab@@": 5307,
  "yielded": 5308,
  "paragraph": 5309,
  "objects.all": 5310,
  "Fetch": 5311,
  "barcodes": 5312,
  "pval": 5313,
  "Builder": 5314,
  "interpolate": 5315,
  "Compare": 5316,
  "Channel": 5317,
  "log.exception": 5318,
  "locks": 5319,
  "opcode": 5320,
  "PROTOCOL": 5321,
  "link@@": 5322,
  "bench": 5323,
  "row.@@": 5324,
  "act": 5325,
  "params.get": 5326,
  "int@@": 5327,
  "LOG.warning": 5328,
  "discover": 5329,
  "vim": 5330,
  "tree.@@": 5331,
  "hsl": 5332,
  "temperature": 5333,
  "tf.reduce": 5334,
  "Other": 5335,
  "set.@@": 5336,
  "infoblox": 5337,
  "internally": 5338,
  ".lstrip": 5339,
  "fire": 5340,
  "os.O": 5341,
  "etree": 5342,
  "guest": 5343,
  "`str`": 5344,
  "userid": 5345,
  "insecure": 5346,
  "Results": 5347,
  "init@@": 5348,
  "Custom": 5349,
  "sink": 5350,
  "aeobj": 5351,
  "Tries": 5352,
  "np.where": 5353,
  "itemsize": 5354,
  "code.co": 5355,
  "coding": 5356,
  "value.split": 5357,
  "Sort": 5358,
  "getvalue": 5359,
  "nth": 5360,
  "applicable": 5361,
  "indexed": 5362,
  "Yield": 5363,
  "knowledge": 5364,
  "2016.11.0": 5365,
  "mongo": 5366,
  "deltas": 5367,
  "network.@@": 5368,
  "LOG.info": 5369,
  "Authorization": 5370,
  "instrument": 5371,
  "six.PY3": 5372,
  "AST": 5373,
  "sitemap": 5374,
  "teardown": 5375,
  "HTTP@@": 5376,
  "facet": 5377,
  "persistent": 5378,
  "mismatch": 5379,
  ".json": 5380,
  "pooling": 5381,
  "common.@@": 5382,
  "mass": 5383,
  "reject": 5384,
  "34": 5385,
  "xmlns": 5386,
  "`f": 5387,
  "Iterator": 5388,
  "vhost": 5389,
  "Join": 5390,
  "GMT": 5391,
  "outcome": 5392,
  "Performs": 5393,
  "pin": 5394,
  "significant": 5395,
  "hardware": 5396,
  "assumptions": 5397,
  "ally": 5398,
  "coeffs": 5399,
  "Expression": 5400,
  "output.write": 5401,
  "determines": 5402,
  "SE@@": 5403,
  "UN@@": 5404,
  "scorer": 5405,
  "non-negative": 5406,
  "Label": 5407,
  "s.encode": 5408,
  "UNIX": 5409,
  "libcloud": 5410,
  "bi@@": 5411,
  "quick": 5412,
  "eye": 5413,
  "CourseKey.from": 5414,
  "gem": 5415,
  "elems": 5416,
  "Course@@": 5417,
  "SYSTEM": 5418,
  "Disable": 5419,
  "sense": 5420,
  "Similar": 5421,
  "ba@@": 5422,
  "cx": 5423,
  "cms": 5424,
  "mathbf": 5425,
  "sorting": 5426,
  "Query@@": 5427,
  "tty": 5428,
  "Index@@": 5429,
  "ctypes": 5430,
  "renamed": 5431,
  "bn": 5432,
  "reviewer": 5433,
  "contributor": 5434,
  "serializers": 5435,
  "losses": 5436,
  "unsafe": 5437,
  "Module@@": 5438,
  "allocate": 5439,
  "perspective": 5440,
  "hue": 5441,
  "Markdown": 5442,
  "func@@": 5443,
  "ipaddr": 5444,
  "initialization": 5445,
  "splitlines": 5446,
  "al.@@": 5447,
  "Displays": 5448,
  "Escape": 5449,
  "theano.function": 5450,
  "attr@@": 5451,
  "ldap": 5452,
  "python@@": 5453,
  "id.@@": 5454,
  "inheritance": 5455,
  "numpy.asarray": 5456,
  "action.@@": 5457,
  "ctl": 5458,
  "tamper": 5459,
  "milliseconds": 5460,
  "filename.endswith": 5461,
  "iters": 5462,
  "Fraction": 5463,
  "Rule": 5464,
  "photo": 5465,
  "approx": 5466,
  "getCraftedTextFromText": 5467,
  "in6": 5468,
  "offline": 5469,
  "truth": 5470,
  "thrift": 5471,
  "transparent": 5472,
  "35@@": 5473,
  "far": 5474,
  "xpath": 5475,
  "human-readable": 5476,
  "nc": 5477,
  "microsecond": 5478,
  "mo": 5479,
  "nesting": 5480,
  "Secret": 5481,
  "addrs": 5482,
  "backing": 5483,
  "seg": 5484,
  "LOG.exception": 5485,
  "lease": 5486,
  "Assumes": 5487,
  "allowing": 5488,
  "pytest.mark.skipif": 5489,
  "routing": 5490,
  "fig.add": 5491,
  "mpstate": 5492,
  "Default@@": 5493,
  "Replaces": 5494,
  "443": 5495,
  "LOCAL": 5496,
  "lxc": 5497,
  "te@@": 5498,
  "gettext": 5499,
  "scratch": 5500,
  "pa@@": 5501,
  "gc": 5502,
  "updating": 5503,
  "urlparse.urlparse": 5504,
  "nums": 5505,
  "EXISTS": 5506,
  "token.contents.split": 5507,
  "overlay": 5508,
  "85@@": 5509,
  "top-level": 5510,
  "belong": 5511,
  "-based": 5512,
  "b64encode": 5513,
  "mgr": 5514,
  "FS": 5515,
  "302": 5516,
  "pickled": 5517,
  "deletion": 5518,
  "grp": 5519,
  "LibVLC": 5520,
  ".size": 5521,
  "figsize": 5522,
  "tokenizer": 5523,
  "tip": 5524,
  "write@@": 5525,
  "Metadata": 5526,
  "viewer": 5527,
  "xi": 5528,
  "xenapi": 5529,
  "directives": 5530,
  "post@@": 5531,
  "Normalize": 5532,
  "fastq": 5533,
  "rx": 5534,
  "zfs": 5535,
  "register.simple": 5536,
  "substitution": 5537,
  "Protocol": 5538,
  "coils": 5539,
  "-y": 5540,
  "st.@@": 5541,
  "cap": 5542,
  "VAR": 5543,
  "user&apos;": 5544,
  "Str": 5545,
  "nameserver": 5546,
  "Both": 5547,
  "mag": 5548,
  "a.shape": 5549,
  "factorial": 5550,
  "response.content": 5551,
  "postfix": 5552,
  "ast.@@": 5553,
  "nodes.@@": 5554,
  "etype": 5555,
  "t`": 5556,
  "Based": 5557,
  "100@@": 5558,
  "grouping": 5559,
  "tag@@": 5560,
  "separators": 5561,
  "Pro@@": 5562,
  "settings.get": 5563,
  "directory&apos;": 5564,
  "X.@@": 5565,
  "image.shape": 5566,
  "Merge": 5567,
  "smtp": 5568,
  "np.uint8": 5569,
  "testdir": 5570,
  "returncode": 5571,
  "SCHEMA": 5572,
  "prepared": 5573,
  "pivot": 5574,
  "traceback.print": 5575,
  "ancestors": 5576,
  "Error@@": 5577,
  "World": 5578,
  "APPS": 5579,
  "trigger.group": 5580,
  "ap": 5581,
  "Ensures": 5582,
  "quit": 5583,
  "iff": 5584,
  "instantiate": 5585,
  "request.META.get": 5586,
  "Domain": 5587,
  "persist": 5588,
  "postgres": 5589,
  "encodings": 5590,
  "rd": 5591,
  "secrets": 5592,
  "bear": 5593,
  "found&apos;": 5594,
  "trail": 5595,
  "frequencies": 5596,
  "diff@@": 5597,
  "inset": 5598,
  "per@@": 5599,
  "86@@": 5600,
  "Flask": 5601,
  "tbl": 5602,
  "token.split": 5603,
  "rot": 5604,
  "-0.@@": 5605,
  "disp": 5606,
  "Page@@": 5607,
  "Normal": 5608,
  "settings.getReadRepository": 5609,
  "delayed": 5610,
  "violations": 5611,
  "GPU": 5612,
  "setdefault": 5613,
  "Plot": 5614,
  "s.shape": 5615,
  "rheader": 5616,
  "resid": 5617,
  "going": 5618,
  "adjacency": 5619,
  "thrown": 5620,
  "RESOURCE": 5621,
  "information&apos;": 5622,
  "distinct": 5623,
  "SETTINGS": 5624,
  "escaping": 5625,
  "resp.status": 5626,
  "A.shape": 5627,
  "a-z": 5628,
  "ticks": 5629,
  "shouldn": 5630,
  "retention": 5631,
  "NameError": 5632,
  "scalars": 5633,
  "pagination": 5634,
  "Match": 5635,
  "shipping": 5636,
  "minimal": 5637,
  "BY": 5638,
  "plt.figure": 5639,
  "dataframe": 5640,
  "Code@@": 5641,
  "label@@": 5642,
  "graph.@@": 5643,
  "Don": 5644,
  "sums": 5645,
  "bracket": 5646,
  "spawn": 5647,
  "w.@@": 5648,
  "authors": 5649,
  "logging.warning": 5650,
  "Dummy": 5651,
  "rect": 5652,
  "8080": 5653,
  "equalizer": 5654,
  "transition": 5655,
  "ROS": 5656,
  "come": 5657,
  "unregister": 5658,
  "belonging": 5659,
  "sdk": 5660,
  "lv": 5661,
  "39": 5662,
  "Called": 5663,
  "Schema": 5664,
  "however": 5665,
  "lookups": 5666,
  "contrast": 5667,
  "caches": 5668,
  "ek": 5669,
  "sqlalchemy": 5670,
  "estimated": 5671,
  "Attach": 5672,
  "rdata": 5673,
  "ability": 5674,
  "plugin.@@": 5675,
  "attempting": 5676,
  "Cassandra": 5677,
  "obj@@": 5678,
  "search@@": 5679,
  "hot": 5680,
  "Added": 5681,
  "out.write": 5682,
  "0x": 5683,
  "bit@@": 5684,
  "inter": 5685,
  "timeperiod": 5686,
  "Folder": 5687,
  "OS@@": 5688,
  "test-@@": 5689,
  "Numpy": 5690,
  "hadoop": 5691,
  "throttle": 5692,
  "suggested": 5693,
  "Errors": 5694,
  "IO": 5695,
  "dg": 5696,
  "13@@": 5697,
  "pvalue": 5698,
  "np.unique": 5699,
  "timeseries": 5700,
  "fork": 5701,
  "exponential": 5702,
  "years": 5703,
  "secondary": 5704,
  "ansible": 5705,
  "expr.@@": 5706,
  "advanced": 5707,
  "neighbor": 5708,
  "Local@@": 5709,
  "implicit": 5710,
  "first@@": 5711,
  "gr": 5712,
  "observer": 5713,
  "grain": 5714,
  "status.@@": 5715,
  "e.message": 5716,
  "able@@": 5717,
  "wildcard": 5718,
  "A.": 5719,
  "0-@@": 5720,
  "Dir": 5721,
  "multigraph": 5722,
  "Cache@@": 5723,
  "hash@@": 5724,
  "sls": 5725,
  "vi@@": 5726,
  "K.@@": 5727,
  "invalidate": 5728,
  "evaluation": 5729,
  "xp": 5730,
  "error.@@": 5731,
  "expressed": 5732,
  "Outputs": 5733,
  "subsection": 5734,
  "suffixes": 5735,
  "momentum": 5736,
  "AR@@": 5737,
  "Meta": 5738,
  "vg": 5739,
  "Attempts": 5740,
  "descr": 5741,
  "trial": 5742,
  "Extracts": 5743,
  "mt": 5744,
  "purpose": 5745,
  "pathlist": 5746,
  "BLOCK": 5747,
  "datasource": 5748,
  "MNE": 5749,
  "ma@@": 5750,
  "Mac": 5751,
  "errmsg": 5752,
  "often": 5753,
  "pairwise": 5754,
  "tex": 5755,
  "kwargs.setdefault": 5756,
  "subpath": 5757,
  "icons": 5758,
  "converting": 5759,
  "29": 5760,
  "site@@": 5761,
  "ROLE": 5762,
  "recording": 5763,
  "conflict": 5764,
  "UID": 5765,
  "bufsize": 5766,
  "ates": 5767,
  "LOGIN": 5768,
  "descriptions": 5769,
  "Read@@": 5770,
  "bo@@": 5771,
  "srs": 5772,
  "99": 5773,
  "As@@": 5774,
  "millis": 5775,
  "Figure": 5776,
  "project0": 5777,
  "37": 5778,
  "stylesheet": 5779,
  "Auto@@": 5780,
  "publishers": 5781,
  "frappe.whitelist": 5782,
  "boto.@@": 5783,
  "functional": 5784,
  "Twisted": 5785,
  "vmax": 5786,
  "dataset.@@": 5787,
  "vmin": 5788,
  "Error`": 5789,
  "temp@@": 5790,
  "Bytes": 5791,
  "invoice": 5792,
  "s.html": 5793,
  "decorators": 5794,
  "ter@@": 5795,
  "df@@": 5796,
  "ing-@@": 5797,
  "Value@@": 5798,
  ".where": 5799,
  "excluding": 5800,
  "os.chmod": 5801,
  "hive": 5802,
  "Runner": 5803,
  "JPEG": 5804,
  "safely": 5805,
  "defining": 5806,
  "spectral": 5807,
  "Role": 5808,
  "saving": 5809,
  "k1": 5810,
  "jsonify": 5811,
  "pref": 5812,
  "gen.Task": 5813,
  "newpath": 5814,
  "fresh": 5815,
  "pki": 5816,
  "use@@": 5817,
  "silent": 5818,
  "hashlib.sha1": 5819,
  "Login": 5820,
  "USERNAME": 5821,
  "em": 5822,
  "Unsupported": 5823,
  "subnets": 5824,
  "frappe.db.sql": 5825,
  "domain@@": 5826,
  "Fetches": 5827,
  "backward": 5828,
  "attrib": 5829,
  "kb": 5830,
  "stamp": 5831,
  "pkg.@@": 5832,
  "DETAILS": 5833,
  "UPDATE": 5834,
  "-0.5": 5835,
  "wd": 5836,
  "html@@": 5837,
  "holds": 5838,
  "A-Z": 5839,
  "multiply": 5840,
  "concatenate": 5841,
  "so@@": 5842,
  "os.pathsep": 5843,
  "succeeded": 5844,
  "reduced": 5845,
  "plist": 5846,
  "`Tensor`": 5847,
  "ESXi": 5848,
  "lam": 5849,
  "integrate": 5850,
  "sdm": 5851,
  "version@@": 5852,
  "np.inf": 5853,
  "pytest.mark.network": 5854,
  "chains": 5855,
  "fo": 5856,
  "flowgram": 5857,
  "tk": 5858,
  "chassis": 5859,
  "Run@@": 5860,
  "health": 5861,
  "True``": 5862,
  "schemas": 5863,
  "End": 5864,
  "runlevel": 5865,
  "`get": 5866,
  "soup": 5867,
  "CHAR": 5868,
  "gb": 5869,
  "ur@@": 5870,
  "re.IGNORECASE": 5871,
  "Update@@": 5872,
  "subtitle": 5873,
  "readonly": 5874,
  "L2": 5875,
  "recognized": 5876,
  "popen": 5877,
  "stc": 5878,
  "collector": 5879,
  "consumed": 5880,
  "split@@": 5881,
  "searching": 5882,
  "html&apos;": 5883,
  "fif": 5884,
  "match@@": 5885,
  "development": 5886,
  "makedirs": 5887,
  "text.split": 5888,
  "banner": 5889,
  "publisher": 5890,
  "re.I": 5891,
  "vae": 5892,
  "built-in": 5893,
  "ING": 5894,
  "cycles": 5895,
  "maxlen": 5896,
  "Event@@": 5897,
  "2014.7.0": 5898,
  "Pattern": 5899,
  "depend": 5900,
  "AL@@": 5901,
  "skipping": 5902,
  "enrolled": 5903,
  "ml": 5904,
  "peak": 5905,
  "55": 5906,
  "identities": 5907,
  "Environment": 5908,
  "balancer": 5909,
  "adjusted": 5910,
  "consecutive": 5911,
  "pools": 5912,
  "Email": 5913,
  "PNG": 5914,
  "objective": 5915,
  "intermediate": 5916,
  "has@@": 5917,
  "spec@@": 5918,
  "EVENT": 5919,
  "octet": 5920,
  "strs": 5921,
  "envelope": 5922,
  "dictionary&apos;": 5923,
  "pc": 5924,
  "filetype": 5925,
  "mirror": 5926,
  "dev@@": 5927,
  "Account": 5928,
  "id``": 5929,
  "turned": 5930,
  "shlex.split": 5931,
  "divide": 5932,
  "onto": 5933,
  "URL@@": 5934,
  "global@@": 5935,
  "triple": 5936,
  "ler": 5937,
  "error&apos;": 5938,
  "codon": 5939,
  "node.outputs": 5940,
  "memo": 5941,
  "inherited": 5942,
  "33@@": 5943,
  "descending": 5944,
  "squares": 5945,
  "Vector": 5946,
  "modulo": 5947,
  "Search@@": 5948,
  "dropped": 5949,
  "course.@@": 5950,
  "template.TemplateSyntaxError": 5951,
  "Markup": 5952,
  "convention": 5953,
  "lex": 5954,
  "follower": 5955,
  "dl": 5956,
  "gz": 5957,
  "S3@@": 5958,
  "44@@": 5959,
  "Functions": 5960,
  "ALIAS": 5961,
  "lineage": 5962,
  "constructed": 5963,
  "changing": 5964,
  "h2": 5965,
  "nat": 5966,
  "-v": 5967,
  "Controller": 5968,
  "ag@@": 5969,
  "ceil": 5970,
  "db.get": 5971,
  "utils.get": 5972,
  "np.max": 5973,
  "2.4": 5974,
  "path.endswith": 5975,
  "tor": 5976,
  "marks": 5977,
  "An@@": 5978,
  "reported": 5979,
  "registry.@@": 5980,
  "spectrum": 5981,
  "conn.delete": 5982,
  "vary": 5983,
  "nginx": 5984,
  "Task@@": 5985,
  "settings.USE": 5986,
  "parses": 5987,
  "stream.write": 5988,
  "lp": 5989,
  "map@@": 5990,
  "unlimited": 5991,
  "domain.@@": 5992,
  "CSR": 5993,
  "FOUND": 5994,
  "point@@": 5995,
  "highlight": 5996,
  "Creating": 5997,
  "backoff": 5998,
  "Instance@@": 5999,
  "aetypes.Type": 6000,
  "cube": 6001,
  "json@@": 6002,
  "tracking": 6003,
  "priv": 6004,
  "intent": 6005,
  "Amazon": 6006,
  "generate@@": 6007,
  "Skip": 6008,
  "sequential": 6009,
  "Variables": 6010,
  "calculation": 6011,
  "benchmark": 6012,
  "netmask": 6013,
  "nx": 6014,
  "ASN1": 6015,
  "ID@@": 6016,
  "retain": 6017,
  "regardless": 6018,
  "ES": 6019,
  "path`": 6020,
  "urllib.quote": 6021,
  "weeks": 6022,
  "QUrl": 6023,
  "relpath": 6024,
  "os.system": 6025,
  "sub-@@": 6026,
  "b2": 6027,
  "CURRENT": 6028,
  "FLAGS": 6029,
  "kwargs.items": 6030,
  "samp": 6031,
  "par@@": 6032,
  "set&apos;": 6033,
  "maxsize": 6034,
  "earlier": 6035,
  "if@@": 6036,
  "cant": 6037,
  "s.decode": 6038,
  "rdtype": 6039,
  "fa": 6040,
  "Specifies": 6041,
  "c3": 6042,
  "Auth": 6043,
  "rectangle": 6044,
  "facebook": 6045,
  "numpy.zeros": 6046,
  "ha": 6047,
  "Clean": 6048,
  "approximate": 6049,
  "fileserver": 6050,
  "gecos": 6051,
  "sbin": 6052,
  "ic": 6053,
  "ave": 6054,
  "exts": 6055,
  "line.rstrip": 6056,
  "Auth@@": 6057,
  "keychain": 6058,
  "hostnames": 6059,
  "WRITEME&apos;": 6060,
  "decomposition": 6061,
  "twisted": 6062,
  "random.random": 6063,
  "NUMBER": 6064,
  "fs.@@": 6065,
  "population": 6066,
  "deepcopy": 6067,
  "ymax": 6068,
  "call@@": 6069,
  "trigger.sender": 6070,
  "un": 6071,
  "Pool": 6072,
  "VALUES": 6073,
  "Identifier": 6074,
  "uuid.uuid4": 6075,
  "nx.NetworkXError": 6076,
  "imap": 6077,
  "46@@": 6078,
  "ol@@": 6079,
  "fl": 6080,
  "02": 6081,
  "twice": 6082,
  "joint": 6083,
  "wish": 6084,
  "exclusive": 6085,
  "mne": 6086,
  "central": 6087,
  "Resource@@": 6088,
  "astype": 6089,
  "occurrences": 6090,
  "csc": 6091,
  "derivatives": 6092,
  "hasher": 6093,
  "service.get": 6094,
  "150": 6095,
  "pos@@": 6096,
  "path.replace": 6097,
  "Counter": 6098,
  "downloads": 6099,
  "ft": 6100,
  "performing": 6101,
  "loader.get": 6102,
  "episodes": 6103,
  "formfield": 6104,
  "files.append": 6105,
  "AC@@": 6106,
  "port@@": 6107,
  "parser.compile": 6108,
  "sess": 6109,
  "subscribe": 6110,
  "scenarios": 6111,
  "exempt": 6112,
  "1000.0": 6113,
  "GL": 6114,
  "ir": 6115,
  "vis": 6116,
  "english": 6117,
  "votes": 6118,
  "referrer": 6119,
  "hr": 6120,
  "AT@@": 6121,
  "os.error": 6122,
  "api.get": 6123,
  "actor": 6124,
  "dog": 6125,
  "tick": 6126,
  "path.join": 6127,
  "division": 6128,
  "escapes": 6129,
  "NO@@": 6130,
  "applying": 6131,
  "red@@": 6132,
  "Target@@": 6133,
  "s.index": 6134,
  "platform.system": 6135,
  "git@@": 6136,
  "ev@@": 6137,
  "respective": 6138,
  "string.replace": 6139,
  "scales": 6140,
  "0.8": 6141,
  "nbsp": 6142,
  "rounding": 6143,
  "vlm": 6144,
  "75": 6145,
  "text@@": 6146,
  "R.dup": 6147,
  "recv": 6148,
  "Deleted": 6149,
  "``list``": 6150,
  "sysctl": 6151,
  "memberships": 6152,
  "gp": 6153,
  "-style": 6154,
  "gallery": 6155,
  "90@@": 6156,
  ".max": 6157,
  "verts": 6158,
  "in-place": 6159,
  "Linear": 6160,
  "Insert": 6161,
  "JavaScript": 6162,
  "hmac": 6163,
  "Switch": 6164,
  "headers.get": 6165,
  "liveaction": 6166,
  "Block": 6167,
  "beacon": 6168,
  "n-1": 6169,
  "captured": 6170,
  "mandatory": 6171,
  "---": 6172,
  "1,2": 6173,
  "yellow": 6174,
  "httpd": 6175,
  "results.@@": 6176,
  "Hash": 6177,
  "remotes": 6178,
  "msec": 6179,
  "away": 6180,
  "Authentication": 6181,
  "Reset": 6182,
  "DIRECTORY": 6183,
  "LJ": 6184,
  "matlist": 6185,
  "owned": 6186,
  "ENV": 6187,
  "alter": 6188,
  "field@@": 6189,
  "aff4": 6190,
  "attrname": 6191,
  "submitted": 6192,
  "class&apos;": 6193,
  "nor": 6194,
  "auto-@@": 6195,
  "brand": 6196,
  "56@@": 6197,
  "Be@@": 6198,
  "view.@@": 6199,
  "substitute": 6200,
  "algorithms": 6201,
  "Random": 6202,
  "MS": 6203,
  "thumbprint": 6204,
  "analyze": 6205,
  "labeled": 6206,
  "replacements": 6207,
  "Row": 6208,
  "READ": 6209,
  "cname": 6210,
  "vCenter": 6211,
  "punctuation": 6212,
  "vtor.check": 6213,
  "frontend": 6214,
  "Loops": 6215,
  "Total": 6216,
  "os@@": 6217,
  "bdm": 6218,
  "ment": 6219,
  "wants": 6220,
  "Instead": 6221,
  "template.@@": 6222,
  "outfile.write": 6223,
  "percentiles": 6224,
  "NUM": 6225,
  "Client@@": 6226,
  ".create": 6227,
  "Site": 6228,
  "ylabel": 6229,
  "toggle": 6230,
  "tpl": 6231,
  "prefer": 6232,
  "natural": 6233,
  "tester": 6234,
  "latter": 6235,
  "xapi": 6236,
  "item@@": 6237,
  "delimiters": 6238,
  "submodule": 6239,
  ".txt": 6240,
  "method&apos;": 6241,
  "showing": 6242,
  "authn": 6243,
  "np.sin": 6244,
  "ufunc": 6245,
  "MEG": 6246,
  "n`": 6247,
  "annotate": 6248,
  "certfile": 6249,
  "Renders": 6250,
  "dic": 6251,
  "DOM": 6252,
  "bookmark": 6253,
  "rcParams": 6254,
  "current.db": 6255,
  "differ": 6256,
  "optimal": 6257,
  "TS": 6258,
  "other@@": 6259,
  "restrict": 6260,
  "past": 6261,
  "HTTPS": 6262,
  "xdg": 6263,
  "weekday": 6264,
  "cloned": 6265,
  "site-packages": 6266,
  "builder.@@": 6267,
  "match.groups": 6268,
  "declaration": 6269,
  "observed": 6270,
  "docstrings": 6271,
  "match.start": 6272,
  "thus": 6273,
  "helpers.get": 6274,
  "circular": 6275,
  "sys.platform.startswith": 6276,
  "embedding": 6277,
  "workspace": 6278,
  "multi-@@": 6279,
  "logger.addHandler": 6280,
  "Prefix": 6281,
  "Zone": 6282,
  "magnitude": 6283,
  "trainable": 6284,
  "NaN": 6285,
  "-id": 6286,
  "jenkins": 6287,
  "val1": 6288,
  "versioned": 6289,
  "Define": 6290,
  "PUBLIC": 6291,
  "FOR": 6292,
  "pyc": 6293,
  "class.@@": 6294,
  "HttpResponseBadRequest": 6295,
  "JS": 6296,
  "Float": 6297,
  "people": 6298,
  "cpus": 6299,
  "Deprecated": 6300,
  "NAMES": 6301,
  "tri": 6302,
  "breaks": 6303,
  "typename": 6304,
  "optimization": 6305,
  "77@@": 6306,
  "d.get": 6307,
  "preload": 6308,
  "Minimum": 6309,
  "order.@@": 6310,
  "ca@@": 6311,
  "cursor.execute": 6312,
  "TAG": 6313,
  "Chart": 6314,
  "Configure": 6315,
  "numerator": 6316,
  "happens": 6317,
  "groupby": 6318,
  "array@@": 6319,
  "Rational": 6320,
  ".com": 6321,
  "cleared": 6322,
  "output.append": 6323,
  "shouldAnalyze": 6324,
  "dist@@": 6325,
  "svg": 6326,
  "Iterate": 6327,
  "47@@": 6328,
  "tau": 6329,
  "wx": 6330,
  "line.@@": 6331,
  "foo.@@": 6332,
  "Close": 6333,
  "Move": 6334,
  "paths.append": 6335,
  "matplotlib.pyplot": 6336,
  "infrastructure": 6337,
  "sr@@": 6338,
  "image@@": 6339,
  "EN@@": 6340,
  "Types": 6341,
  "rebuild": 6342,
  "Title": 6343,
  "the@@": 6344,
  "ts.@@": 6345,
  "descriptor.@@": 6346,
  "urljoin": 6347,
  "fi": 6348,
  "socket.@@": 6349,
  "re.@@": 6350,
  "reasons": 6351,
  "bounding": 6352,
  "``name``": 6353,
  "BACKEND": 6354,
  "rater": 6355,
  "criterion": 6356,
  "solver": 6357,
  "dropout": 6358,
  "Standard": 6359,
  "Comment": 6360,
  "quot": 6361,
  "triggered": 6362,
  "dask": 6363,
  "LE@@": 6364,
  "objects&apos;": 6365,
  "UNKNOWN": 6366,
  "rel@@": 6367,
  "RGBA": 6368,
  "fds": 6369,
  ".to": 6370,
  "Current": 6371,
  "F.@@": 6372,
  "module.params": 6373,
  "Logs": 6374,
  "job@@": 6375,
  "INSERT": 6376,
  "auth@@": 6377,
  "Force": 6378,
  "ds.@@": 6379,
  "2``": 6380,
  "hyper": 6381,
  "Got": 6382,
  "Category": 6383,
  "isdir": 6384,
  "page@@": 6385,
  "acquire": 6386,
  "ho@@": 6387,
  "one@@": 6388,
  "Unit": 6389,
  "reached": 6390,
  "detection": 6391,
  "angles": 6392,
  "ugettext": 6393,
  "ns0": 6394,
  "instantiated": 6395,
  "block.@@": 6396,
  "sids": 6397,
  "serv": 6398,
  "sends": 6399,
  "fullpath": 6400,
  "errno.EEXIST": 6401,
  "res.append": 6402,
  "wrt": 6403,
  "np.hstack": 6404,
  "videos": 6405,
  "INPUT": 6406,
  "camera": 6407,
  "proportion": 6408,
  "ENABLED": 6409,
  "ER@@": 6410,
  "--no-@@": 6411,
  "cluster.@@": 6412,
  "0,1": 6413,
  "q1": 6414,
  "asynchronous": 6415,
  "2015.5.0": 6416,
  "AGENT": 6417,
  "John": 6418,
  "watcher": 6419,
  "git.@@": 6420,
  "Tag@@": 6421,
  "Verifies": 6422,
  "conn.list": 6423,
  "shows": 6424,
  "Level": 6425,
  "1st": 6426,
  "localize": 6427,
  "0.6": 6428,
  "revert": 6429,
  "`f`": 6430,
  ".run": 6431,
  "Couldn": 6432,
  "fa@@": 6433,
  "ONLY": 6434,
  "IV": 6435,
  "workunit": 6436,
  "fnames": 6437,
  "uint": 6438,
  "ref.@@": 6439,
  "hashable": 6440,
  "tied": 6441,
  ".start": 6442,
  "tools.ietf.org": 6443,
  "Starting": 6444,
  "modification": 6445,
  "linter": 6446,
  "lens": 6447,
  "grep": 6448,
  "wrapping": 6449,
  "settings.DEBUG": 6450,
  "usernames": 6451,
  "clauses": 6452,
  "onerror": 6453,
  "back@@": 6454,
  "10.0": 6455,
  "Unexpected": 6456,
  "Registers": 6457,
  "Second": 6458,
  "reviews": 6459,
  "Scale": 6460,
  "plat": 6461,
  "TARGET": 6462,
  "whatever": 6463,
  "ADMIN": 6464,
  "importlib.import": 6465,
  "value.encode": 6466,
  "Because": 6467,
  "url.@@": 6468,
  "tunnel": 6469,
  "bond": 6470,
  "reflect": 6471,
  "ftp": 6472,
  "tmpl": 6473,
  "C.@@": 6474,
  "remain": 6475,
  "ne": 6476,
  "mapreduce": 6477,
  "Report": 6478,
  "nrows": 6479,
  "resp.@@": 6480,
  "therefore": 6481,
  "ret.@@": 6482,
  "ENGINE": 6483,
  "mako": 6484,
  "est": 6485,
  "listdir": 6486,
  "Look": 6487,
  "sup": 6488,
  "Relative": 6489,
  "Works": 6490,
  "freedom": 6491,
  "ohlc": 6492,
  "cg": 6493,
  "profiling": 6494,
  "die": 6495,
  "exceeded": 6496,
  "--action": 6497,
  "mesh": 6498,
  "songs": 6499,
  "val.@@": 6500,
  "operate": 6501,
  "dont": 6502,
  "contacts": 6503,
  "ymin": 6504,
  "uniq": 6505,
  "basket": 6506,
  "Strings": 6507,
  "minibatch": 6508,
  "401": 6509,
  "AF": 6510,
  "urllib.urlencode": 6511,
  "&apos;No": 6512,
  "fqdn": 6513,
  "experiment": 6514,
  "this@@": 6515,
  "m.update": 6516,
  "chmod": 6517,
  "wmi": 6518,
  "stddev": 6519,
  "StringIO.StringIO": 6520,
  "approval": 6521,
  "scroll": 6522,
  "over@@": 6523,
  "diop": 6524,
  "vertno": 6525,
  "quadrature": 6526,
  "il@@": 6527,
  "nitro": 6528,
  "d-": 6529,
  "expose": 6530,
  "procedure": 6531,
  "toplevel": 6532,
  "summary.@@": 6533,
  "Translate": 6534,
  "Out": 6535,
  "interpret": 6536,
  "2.6": 6537,
  "gpg": 6538,
  "xem": 6539,
  "Success": 6540,
  "cm@@": 6541,
  "value1": 6542,
  "articles": 6543,
  "62": 6544,
  "string.ascii": 6545,
  "argtypes": 6546,
  "SECRET": 6547,
  "monkeypatch.setattr": 6548,
  "tl": 6549,
  "Two": 6550,
  "theano.config.floatX": 6551,
  "k2": 6552,
  "receipt": 6553,
  "2001": 6554,
  "sl@@": 6555,
  "tempfile": 6556,
  "Action@@": 6557,
  "edited": 6558,
  "Decorate": 6559,
  "account.@@": 6560,
  "dat@@": 6561,
  "propagate": 6562,
  "blocking": 6563,
  "host.@@": 6564,
  "es.@@": 6565,
  "assignments": 6566,
  "build-@@": 6567,
  "70": 6568,
  "6.0": 6569,
  "rp": 6570,
  "lock@@": 6571,
  "segmentation": 6572,
  "conflicts": 6573,
  "pubkey": 6574,
  "os.getpid": 6575,
  "randint": 6576,
  "rss": 6577,
  "view@@": 6578,
  "orm": 6579,
  "consisting": 6580,
  "clique": 6581,
  "R.dmp": 6582,
  "urllib": 6583,
  "Property@@": 6584,
  "Syntax": 6585,
  "Distribution": 6586,
  "circle": 6587,
  "triangular": 6588,
  "cache@@": 6589,
  "lng": 6590,
  "output.@@": 6591,
  "trimmed": 6592,
  "ParseError": 6593,
  "schemes": 6594,
  "isscalar": 6595,
  "FILENAME": 6596,
  "OverflowError": 6597,
  "primes": 6598,
  "crc": 6599,
  "copy@@": 6600,
  "util.get": 6601,
  "probe": 6602,
  "interact": 6603,
  "sampled": 6604,
  "fitting": 6605,
  "post-@@": 6606,
  "os.close": 6607,
  "scanner": 6608,
  "plotly": 6609,
  "key.startswith": 6610,
  "alloc": 6611,
  "df.@@": 6612,
  "04@@": 6613,
  "hudson.plugins.@@": 6614,
  "Provide": 6615,
  "Thread@@": 6616,
  "et@@": 6617,
  "LINE": 6618,
  "pp@@": 6619,
  "pi@@": 6620,
  "imread": 6621,
  "cpp": 6622,
  "sts": 6623,
  "optimized": 6624,
  "json.load": 6625,
  "SS": 6626,
  "sometimes": 6627,
  "da@@": 6628,
  "geo": 6629,
  "placed": 6630,
  "49@@": 6631,
  "type@@": 6632,
  "matplotlib.@@": 6633,
  "d.addCallback": 6634,
  "neutron": 6635,
  "OUTPUT": 6636,
  "jpeg": 6637,
  "evaluator": 6638,
  "img@@": 6639,
  "meters": 6640,
  "des": 6641,
  "opts.get": 6642,
  "ed&apos;": 6643,
  "errors.append": 6644,
  "MODEL": 6645,
  "bandwidth": 6646,
  "filelist": 6647,
  "Special": 6648,
  "Non@@": 6649,
  "underscores": 6650,
  "Accept": 6651,
  "structured": 6652,
  "fix@@": 6653,
  "tris": 6654,
  "intensity": 6655,
  "printable": 6656,
  "factory.create": 6657,
  "loop@@": 6658,
  "ax.@@": 6659,
  "executor": 6660,
  "submissions": 6661,
  "available&apos;": 6662,
  "Mark": 6663,
  "fps": 6664,
  "sys.stdout.flush": 6665,
  "L1": 6666,
  "0.4": 6667,
  "Word": 6668,
  "seems": 6669,
  "Patch": 6670,
  "template.render": 6671,
  "Templates": 6672,
  "polar": 6673,
  "opt@@": 6674,
  "Ex@@": 6675,
  "Derivation": 6676,
  "tiles": 6677,
  "Frame": 6678,
  "receivers": 6679,
  "65535": 6680,
  "agents": 6681,
  "puts": 6682,
  "Limit": 6683,
  "precedence": 6684,
  "qiime": 6685,
  "Width": 6686,
  "docker.@@": 6687,
  "sentiment": 6688,
  "daily": 6689,
  "node.children": 6690,
  "1,@@": 6691,
  "recs": 6692,
  "inspect.getargspec": 6693,
  "es@@": 6694,
  "request.is": 6695,
  "class@@": 6696,
  "v0": 6697,
  "path.append": 6698,
  "lights": 6699,
  "journal": 6700,
  "LDAP": 6701,
  "cc@@": 6702,
  "restype": 6703,
  "p.communicate": 6704,
  "TODO&apos;": 6705,
  "Start@@": 6706,
  "bare": 6707,
  "nullable": 6708,
  "dict.items": 6709,
  "module.run": 6710,
  "rar": 6711,
  "solr": 6712,
  "ansi": 6713,
  "standalone": 6714,
  "600": 6715,
  "algo": 6716,
  "Script": 6717,
  "w3af": 6718,
  "DICT": 6719,
  ".git": 6720,
  "node1": 6721,
  "coroutine": 6722,
  "--version": 6723,
  "globally": 6724,
  "tmax": 6725,
  "cs@@": 6726,
  "result.get": 6727,
  "FreeBSD": 6728,
  "Release": 6729,
  "operand": 6730,
  "easier": 6731,
  "const.@@": 6732,
  "mac@@": 6733,
  "umask": 6734,
  "taxa": 6735,
  "hexadecimal": 6736,
  "blocked": 6737,
  "coll": 6738,
  "indx": 6739,
  "ADDRESS": 6740,
  "``a``": 6741,
  "C.": 6742,
  "automatic": 6743,
  "VMs": 6744,
  "copies": 6745,
  "kv": 6746,
  "dialect": 6747,
  "err@@": 6748,
  "col.@@": 6749,
  "ros": 6750,
  "widths": 6751,
  "heads": 6752,
  "INT": 6753,
  "dedent": 6754,
  "id`": 6755,
  "IO@@": 6756,
  "request.set": 6757,
  "wc": 6758,
  "rmtree": 6759,
  "sourcecode": 6760,
  "formatters": 6761,
  "garbage": 6762,
  "django.conf": 6763,
  "IPs": 6764,
  "paging": 6765,
  "Function@@": 6766,
  "ded": 6767,
  "Source@@": 6768,
  "varname": 6769,
  "handshake": 6770,
  "&apos;ascii": 6771,
  "XML@@": 6772,
  "wildcards": 6773,
  "Import@@": 6774,
  "preserving": 6775,
  "calculates": 6776,
  "d`": 6777,
  "53": 6778,
  "sdist": 6779,
  "0.75": 6780,
  "builders": 6781,
  "88@@": 6782,
  "tr@@": 6783,
  "name.strip": 6784,
  "loc@@": 6785,
  "output&apos;": 6786,
  "paired": 6787,
  "board": 6788,
  "substitutions": 6789,
  "CSRF": 6790,
  "dilation": 6791,
  "work@@": 6792,
  "fobj": 6793,
  "Model@@": 6794,
  "BeautifulSoup": 6795,
  "xml@@": 6796,
  "apiserver": 6797,
  "math.sqrt": 6798,
  "ANSI": 6799,
  "elemwise": 6800,
  "functools.partial": 6801,
  "behaviour": 6802,
  "Style": 6803,
  "io.open": 6804,
  "p-value": 6805,
  "ownership": 6806,
  "Fixture": 6807,
  "error@@": 6808,
  "centered": 6809,
  "fall": 6810,
  "legal": 6811,
  "penalty": 6812,
  "np.atleast": 6813,
  "value.replace": 6814,
  "for@@": 6815,
  "s.insert": 6816,
  "target@@": 6817,
  "tan": 6818,
  "Network@@": 6819,
  "nose": 6820,
  "strftime": 6821,
  "Turns": 6822,
  "Successfully": 6823,
  "les": 6824,
  "den@@": 6825,
  "settings.FEATURES.get": 6826,
  "Absolute": 6827,
  "p.returncode": 6828,
  "saml": 6829,
  "DEPRECATED": 6830,
  ".remove": 6831,
  "transactions": 6832,
  "Common": 6833,
  "pure": 6834,
  "38": 6835,
  "cp@@": 6836,
  "sys.@@": 6837,
  "z1": 6838,
  "i1": 6839,
  "95": 6840,
  "listening": 6841,
  "exits": 6842,
  "`numpy.@@": 6843,
  "HTML@@": 6844,
  "map.@@": 6845,
  "Eq": 6846,
  "op.@@": 6847,
  "hsv": 6848,
  "bu@@": 6849,
  "pty": 6850,
  "name2": 6851,
  "manager.get": 6852,
  "descendants": 6853,
  "OpenSSL": 6854,
  "instructions": 6855,
  "orgname": 6856,
  "Information": 6857,
  "concurrency": 6858,
  "60@@": 6859,
  "holding": 6860,
  "chs": 6861,
  "lcm": 6862,
  "unichr": 6863,
  "terminated": 6864,
  "string@@": 6865,
  "mat@@": 6866,
  "viewpoint": 6867,
  "fires": 6868,
  "os.rename": 6869,
  "client@@": 6870,
  "ings": 6871,
  "math.ceil": 6872,
  "Net@@": 6873,
  "socket.inet": 6874,
  "byte@@": 6875,
  "goal": 6876,
  "fabtools.@@": 6877,
  "ent@@": 6878,
  "Attributes": 6879,
  "arg.@@": 6880,
  "modpath": 6881,
  "acceptance": 6882,
  ".iteritems": 6883,
  "guaranteed": 6884,
  "caption": 6885,
  "Table@@": 6886,
  "crash": 6887,
  "tempfile.NamedTemporaryFile": 6888,
  "function.@@": 6889,
  "caps": 6890,
  "dir.@@": 6891,
  "verifier": 6892,
  "tempfile.mkdtemp": 6893,
  "Delete@@": 6894,
  "items.append": 6895,
  "np.cos": 6896,
  "COUNT": 6897,
  "s.iteritems": 6898,
  "map.get": 6899,
  "omit": 6900,
  "greenlet": 6901,
  "cmd.@@": 6902,
  "er&apos;": 6903,
  "distrib": 6904,
  "FOO": 6905,
  "shadow": 6906,
  "scheduled": 6907,
  "Region": 6908,
  "ator@@": 6909,
  "geom": 6910,
  "v4": 6911,
  "likelihood": 6912,
  "conjugate": 6913,
  "config@@": 6914,
  "filepaths": 6915,
  "indented": 6916,
  "gray": 6917,
  "t.render": 6918,
  "Enabled": 6919,
  "stim": 6920,
  "ways": 6921,
  "kb.@@": 6922,
  "root@@": 6923,
  "`v`": 6924,
  "Link@@": 6925,
  "Username": 6926,
  "log.warn": 6927,
  "asc": 6928,
  "waiter": 6929,
  "generally": 6930,
  "recall": 6931,
  "FigureClass": 6932,
  "000": 6933,
  "7&apos;": 6934,
  "args.get": 6935,
  "cumulative": 6936,
  "Skipping": 6937,
  "raw.@@": 6938,
  "cohorted": 6939,
  "srv": 6940,
  "occurrence": 6941,
  "errno.ENOENT": 6942,
  "colour": 6943,
  "managers": 6944,
  "Token@@": 6945,
  "composer": 6946,
  "Main": 6947,
  "varargs": 6948,
  "index.html": 6949,
  "Version@@": 6950,
  "bar@@": 6951,
  "02x": 6952,
  "subtask": 6953,
  "upstart": 6954,
  "contexts": 6955,
  "mn": 6956,
  "potentially": 6957,
  "ua": 6958,
  "pr@@": 6959,
  "requester": 6960,
  "emitted": 6961,
  "ke@@": 6962,
  "clustering": 6963,
  "tot": 6964,
  "sec@@": 6965,
  "developer": 6966,
  "bytecode": 6967,
  "pdb": 6968,
  "zipfile.ZipFile": 6969,
  "math.log": 6970,
  "namedtuple": 6971,
  "activated": 6972,
  "ify": 6973,
  "sailthru": 6974,
  "argmax": 6975,
  "im2": 6976,
  "consistency": 6977,
  "slope": 6978,
  "converters": 6979,
  "Operation": 6980,
  "longitude": 6981,
  "Review": 6982,
  "grey": 6983,
  "np.dtype": 6984,
  "skips": 6985,
  "-q": 6986,
  "Home": 6987,
  "G.@@": 6988,
  "Redirect": 6989,
  "six.PY2": 6990,
  "tf.get": 6991,
  "subprocess.CalledProcessError": 6992,
  "tools.@@": 6993,
  "chance": 6994,
  "inferred": 6995,
  "cinder": 6996,
  "web.@@": 6997,
  "val2": 6998,
  "ct@@": 6999,
  "loopback": 7000,
  "yy": 7001,
  "Looks": 7002,
  "wide": 7003,
  "man@@": 7004,
  "fnmatch": 7005,
  "Site@@": 7006,
  "Skein": 7007,
  "goes": 7008,
  "callables": 7009,
  "memoized": 7010,
  "packageName": 7011,
  "failing": 7012,
  "safe@@": 7013,
  "ator": 7014,
  "Option": 7015,
  "np.asanyarray": 7016,
  "paginate": 7017,
  ".f": 7018,
  "ig@@": 7019,
  "pd.@@": 7020,
  "music": 7021,
  "npm": 7022,
  "current@@": 7023,
  "COURSE": 7024,
  "pton": 7025,
  "latitude": 7026,
  "`section": 7027,
  "preprocessing": 7028,
  "Custom@@": 7029,
  "regularization": 7030,
  "request.headers": 7031,
  "nav": 7032,
  "fval": 7033,
  "1e-05": 7034,
  "quaternion": 7035,
  "friends": 7036,
  "Buffer": 7037,
  "5-@@": 7038,
  "raw@@": 7039,
  "value.strip": 7040,
  "prs": 7041,
  "view&apos;": 7042,
  "69@@": 7043,
  "focus": 7044,
  "incomplete": 7045,
  "Docker": 7046,
  "tenants": 7047,
  "movie": 7048,
  "moments": 7049,
  "regularizer": 7050,
  "analytics": 7051,
  "ENABLE": 7052,
  "x01": 7053,
  "triangles": 7054,
  "xlabel": 7055,
  "2.1": 7056,
  "sw": 7057,
  "MUST": 7058,
  "Generic": 7059,
  "random.seed": 7060,
  "img.@@": 7061,
  "typed": 7062,
  "array.@@": 7063,
  "capability": 7064,
  "qt": 7065,
  "adjacent": 7066,
  "learn": 7067,
  "pb2.@@": 7068,
  "mx": 7069,
  "passwords": 7070,
  "GUI": 7071,
  "mine": 7072,
  "linewidth": 7073,
  "stack@@": 7074,
  "111": 7075,
  "En@@": 7076,
  "temporarily": 7077,
  "fits": 7078,
  "clf": 7079,
  "concatenated": 7080,
  "Account@@": 7081,
  "dm": 7082,
  "stale": 7083,
  "kw@@": 7084,
  "datetimes": 7085,
  "sizing": 7086,
  "cid": 7087,
  "LinOp": 7088,
  "request.args.get": 7089,
  "PROJECT": 7090,
  "Find@@": 7091,
  "d.items": 7092,
  "consists": 7093,
  "tf.reshape": 7094,
  "ciphers": 7095,
  "ij": 7096,
  "elt": 7097,
  "Root": 7098,
  "ffi.NULL": 7099,
  "coef": 7100,
  "-u": 7101,
  "JID": 7102,
  "generator.@@": 7103,
  "outdir": 7104,
  "dll": 7105,
  "cosine": 7106,
  "gce": 7107,
  "iri": 7108,
  "trivial": 7109,
  "cb@@": 7110,
  "exists&apos;": 7111,
  "d.append": 7112,
  "CourseKey": 7113,
  "multiplication": 7114,
  "ENDIAN": 7115,
  "efficient": 7116,
  "synset": 7117,
  "`path`": 7118,
  "fold": 7119,
  "12.@@": 7120,
  "VDI": 7121,
  "Map@@": 7122,
  "UI": 7123,
  "dict1": 7124,
  "variants": 7125,
  "204": 7126,
  "Just": 7127,
  "illegal": 7128,
  "header.@@": 7129,
  "subtree": 7130,
  "mute": 7131,
  "Raw": 7132,
  "unlink": 7133,
  "All@@": 7134,
  "`obj`": 7135,
  "files&apos;": 7136,
  "-g": 7137,
  "base64.b64decode": 7138,
  "hex@@": 7139,
  "limitby": 7140,
  "K.zero": 7141,
  ".strftime": 7142,
  "timing": 7143,
  "link.@@": 7144,
  "bot.say": 7145,
  "tanh": 7146,
  "bad@@": 7147,
  "solutions": 7148,
  "Controller&apos;": 7149,
  "form.cleaned": 7150,
  "surrounding": 7151,
  "CLIENT": 7152,
  "hmac.new": 7153,
  "ravel": 7154,
  "upgrades": 7155,
  "unquoted": 7156,
  "x&apos;": 7157,
  "NE@@": 7158,
  "ve@@": 7159,
  "drawn": 7160,
  "AN@@": 7161,
  "extraction": 7162,
  "slashes": 7163,
  "fromlist": 7164,
  "clsid": 7165,
  "deque": 7166,
  "FunctionName": 7167,
  "59": 7168,
  "cur.execute": 7169,
  "Seq": 7170,
  "59@@": 7171,
  "MM": 7172,
  "DER": 7173,
  "sentinel": 7174,
  "tetragrid": 7175,
  "mathbb": 7176,
  "Remote@@": 7177,
  ".exe": 7178,
  "XXX": 7179,
  "storage.@@": 7180,
  "legend": 7181,
  "resnet": 7182,
  "Checker": 7183,
  "ER": 7184,
  "compound": 7185,
  "S.": 7186,
  "Admin": 7187,
  "Plugin@@": 7188,
  "xor": 7189,
  "trials": 7190,
  "dimshuffle": 7191,
  "tweets": 7192,
  "counting": 7193,
  "lot": 7194,
  "M.": 7195,
  "detrend": 7196,
  "RUN": 7197,
  "hashlib.sha256": 7198,
  "norms": 7199,
  "buffer.@@": 7200,
  "cr@@": 7201,
  "invocation": 7202,
  "trunk": 7203,
  "&apos;Invalid": 7204,
  "EMPTY": 7205,
  "Player": 7206,
  "jn": 7207,
  "exp@@": 7208,
  "Input@@": 7209,
  "networkx": 7210,
  "dockerng.@@": 7211,
  "not@@": 7212,
  "REQUIRED": 7213,
  "ob@@": 7214,
  "sickbeard.@@": 7215,
  "ylim": 7216,
  "sass": 7217,
  "coupon": 7218,
  "mix": 7219,
  "iei@@": 7220,
  "marketing": 7221,
  "s3.prep": 7222,
  "widget.@@": 7223,
  "infinite": 7224,
  "severity": 7225,
  "extent": 7226,
  "easily": 7227,
  "kern": 7228,
  "System.@@": 7229,
  "classify": 7230,
  "resized": 7231,
  "purchase": 7232,
  "courseware": 7233,
  "modifiers": 7234,
  "np.allclose": 7235,
  "Filter@@": 7236,
  "langs": 7237,
  "Job@@": 7238,
  "chunked": 7239,
  "logging.exception": 7240,
  "Labels": 7241,
  "pool.@@": 7242,
  "rbenv": 7243,
  "regex.match": 7244,
  "logger.setLevel": 7245,
  "ambiguous": 7246,
  "salt.@@": 7247,
  "Allows": 7248,
  "endfor": 7249,
  ".one": 7250,
  "Executes": 7251,
  "flask": 7252,
  "bt": 7253,
  "NoneType": 7254,
  "frappe.db.get": 7255,
  "LEN": 7256,
  "Where": 7257,
  "snippets": 7258,
  "stack.@@": 7259,
  "56": 7260,
  "der@@": 7261,
  "C2": 7262,
  "designed": 7263,
  "Complex": 7264,
  "webapp": 7265,
  "provider.@@": 7266,
  "ELB": 7267,
  "Equivalent": 7268,
  "in-@@": 7269,
  "paginated": 7270,
  "word@@": 7271,
  "GCE": 7272,
  "Dumper": 7273,
  "im.@@": 7274,
  "seen.add": 7275,
  "RO@@": 7276,
  "&apos;default": 7277,
  "sign@@": 7278,
  "monkey": 7279,
  "sanity": 7280,
  "dimensional": 7281,
  "&apos;The": 7282,
  "Which": 7283,
  "plugins.@@": 7284,
  "CalledProcessError": 7285,
  "heading": 7286,
  "``x``": 7287,
  "termination": 7288,
  "84@@": 7289,
  "conf.get": 7290,
  "1e-08": 7291,
  "Output@@": 7292,
  "np.vstack": 7293,
  "bars": 7294,
  "xmax": 7295,
  "np.isnan": 7296,
  "cartesian": 7297,
  "wrappers": 7298,
  "commented": 7299,
  "compact": 7300,
  "gyp": 7301,
  "datetime.@@": 7302,
  "prototype": 7303,
  "pl@@": 7304,
  "insensitive": 7305,
  "IMPL.volume": 7306,
  "lint": 7307,
  "autoload": 7308,
  "peers": 7309,
  "SkyCoord": 7310,
  "Course": 7311,
  "mixin": 7312,
  "urlsafe": 7313,
  "clipboard": 7314,
  "Serialize": 7315,
  "stanza": 7316,
  "Host@@": 7317,
  "HMAC": 7318,
  "repository.@@": 7319,
  "&apos;the": 7320,
  "Parent": 7321,
  "elementNode.attributes": 7322,
  "py.@@": 7323,
  "s.strip": 7324,
  "fstype": 7325,
  "return@@": 7326,
  "sq": 7327,
  "newest": 7328,
  "vmadm": 7329,
  "Profile@@": 7330,
  "measurement": 7331,
  "craft.writeChainTextWithNounMessage": 7332,
  "expr.args": 7333,
  "PY": 7334,
  "preserved": 7335,
  "os.urandom": 7336,
  "suggestions": 7337,
  "extractor": 7338,
  "SS@@": 7339,
  "header@@": 7340,
  "Points": 7341,
  "cf@@": 7342,
  "say": 7343,
  "y.shape": 7344,
  "rdf": 7345,
  "extends": 7346,
  "gl": 7347,
  "Leaf": 7348,
  "screenshot": 7349,
  "backslash": 7350,
  "sys.stdin": 7351,
  "beacons": 7352,
  "radians": 7353,
  "ids.append": 7354,
  "NetworkXError": 7355,
  "dp": 7356,
  "expm": 7357,
  "concurrent": 7358,
  "Field@@": 7359,
  "ST": 7360,
  "communicate": 7361,
  "decrypted": 7362,
  "testing.requires": 7363,
  "tion@@": 7364,
  "def@@": 7365,
  "oauth2": 7366,
  "task@@": 7367,
  "arp": 7368,
  "obj.get": 7369,
  "loggers": 7370,
  "str.split": 7371,
  "numpy.allclose": 7372,
  "s.create": 7373,
  "cal": 7374,
  "EC2": 7375,
  "value.lower": 7376,
  "Template@@": 7377,
  "band": 7378,
  "Flag": 7379,
  "0`": 7380,
  "MA@@": 7381,
  "70@@": 7382,
  "tf.float32": 7383,
  "OUT": 7384,
  "LOCK": 7385,
  "41": 7386,
  "data.items": 7387,
  "np.r": 7388,
  "revoke": 7389,
  "001.yaml": 7390,
  "fixup": 7391,
  "aligned": 7392,
  "table@@": 7393,
  "tion": 7394,
  "ted@@": 7395,
  "salt-call": 7396,
  "src.@@": 7397,
  "cibfile": 7398,
  "closes": 7399,
  "met": 7400,
  "skew": 7401,
  "keyring": 7402,
  "paragraphs": 7403,
  "bp": 7404,
  "among": 7405,
  "sorts": 7406,
  "Evoked": 7407,
  "ness": 7408,
  "Properties": 7409,
  "Destroy": 7410,
  "se.@@": 7411,
  "um@@": 7412,
  "repo.@@": 7413,
  "originally": 7414,
  "format&apos;": 7415,
  "authorize": 7416,
  "slightly": 7417,
  ".rsplit": 7418,
  "cors": 7419,
  "f.seek": 7420,
  "settings.LANGUAGE": 7421,
  "logger.@@": 7422,
  "session.call": 7423,
  "frame.@@": 7424,
  "tf.Tensor": 7425,
  "Cluster": 7426,
  "RandomState": 7427,
  "budget": 7428,
  "LOCATION": 7429,
  "Missing@@": 7430,
  "validity": 7431,
  "rad": 7432,
  "dict@@": 7433,
  "tf.name": 7434,
  "masks": 7435,
  "Tk": 7436,
  "xlim": 7437,
  "repositories": 7438,
  "low@@": 7439,
  "ipaddress": 7440,
  "request.headers.get": 7441,
  "schema.@@": 7442,
  "satisfied": 7443,
  ".2f": 7444,
  "lxc.@@": 7445,
  "66@@": 7446,
  "Headers": 7447,
  "DN": 7448,
  "m.groups": 7449,
  "limit@@": 7450,
  "sysv": 7451,
  "SUCCESS": 7452,
  "refer": 7453,
  "supplier": 7454,
  "coefs": 7455,
  "docname": 7456,
  "emLen": 7457,
  "node2": 7458,
  "51": 7459,
  "0.0.0.0": 7460,
  "72": 7461,
  "Color@@": 7462,
  "demultiplex": 7463,
  "blast": 7464,
  "ta": 7465,
  "proc.communicate": 7466,
  "turns": 7467,
  "datas": 7468,
  "Spec": 7469,
  "ld": 7470,
  "necessarily": 7471,
  "copying": 7472,
  "backend.@@": 7473,
  "AS": 7474,
  "invite": 7475,
  "buffered": 7476,
  "http.@@": 7477,
  "disassociate": 7478,
  "fonts": 7479,
  "views.@@": 7480,
  "findall": 7481,
  "consume": 7482,
  "f0": 7483,
  "simplified": 7484,
  "overflow": 7485,
  "arglist": 7486,
  "qry": 7487,
  "BUILD": 7488,
  "defs": 7489,
  "datastr": 7490,
  "tidy": 7491,
  "guide": 7492,
  "qutebrowser": 7493,
  "submodules": 7494,
  "mission": 7495,
  "arange": 7496,
  "cons": 7497,
  "ecg": 7498,
  "he@@": 7499,
  "localtime": 7500,
  "line&apos;": 7501,
  "Virtual": 7502,
  "art": 7503,
  "server&apos;": 7504,
  "Logger": 7505,
  "Supported": 7506,
  "coordinator": 7507,
  "tls": 7508,
  "decision": 7509,
  "time.@@": 7510,
  "astroid.@@": 7511,
  "foo@@": 7512,
  "sph": 7513,
  "LANGUAGES": 7514,
  "PRO@@": 7515,
  "bunch": 7516,
  "edge@@": 7517,
  "nl": 7518,
  "st.st": 7519,
  "consensus": 7520,
  "helpers.@@": 7521,
  "forever": 7522,
  "Th@@": 7523,
  "pkgname": 7524,
  "Reverse": 7525,
  "sk@@": 7526,
  "annotated": 7527,
  "ignores": 7528,
  "os.curdir": 7529,
  "increase": 7530,
  "xonsh": 7531,
  "yaml.safe": 7532,
  "tld": 7533,
  "cyclic": 7534,
  "trans@@": 7535,
  "policy.@@": 7536,
  "nvars": 7537,
  "sharing": 7538,
  "start.@@": 7539,
  "unit@@": 7540,
  "falls": 7541,
  "brightness": 7542,
  "renewal": 7543,
  "A1": 7544,
  "ACCEPT": 7545,
  "referer": 7546,
  "distro": 7547,
  "initiator": 7548,
  "implementing": 7549,
  "STDOUT": 7550,
  "yielding": 7551,
  "studio": 7552,
  "lxml": 7553,
  "proposed": 7554,
  "sandbox": 7555,
  "splitted": 7556,
  "sample@@": 7557,
  "ElementTree": 7558,
  "smooth": 7559,
  "Control@@": 7560,
  "api@@": 7561,
  "plotting": 7562,
  "ncols": 7563,
  "pks": 7564,
  "http@@": 7565,
  "genome": 7566,
  "debian": 7567,
  "med": 7568,
  "event@@": 7569,
  "OFF": 7570,
  "im1": 7571,
  "k.startswith": 7572,
  "guard": 7573,
  "topological": 7574,
  "dipole": 7575,
  "lat@@": 7576,
  "time.strftime": 7577,
  "IMPL.instance": 7578,
  "AES": 7579,
  "warnings.catch": 7580,
  "Regression": 7581,
  "SZ": 7582,
  "Testing": 7583,
  "Ch@@": 7584,
  "jwt": 7585,
  "Num": 7586,
  "Control": 7587,
  "FAILED": 7588,
  "greenlets": 7589,
  "convergence": 7590,
  "sents": 7591,
  "modifier": 7592,
  "request.META": 7593,
  "maximal": 7594,
  "iptables": 7595,
  "protocols": 7596,
  "logging.@@": 7597,
  "ntp": 7598,
  "SHA1": 7599,
  "Item@@": 7600,
  "earned": 7601,
  "balance": 7602,
  "Vary": 7603,
  "tmpdir.join": 7604,
  "da": 7605,
  "cmd@@": 7606,
  "PATTERN": 7607,
  "families": 7608,
  "container.@@": 7609,
  "outstr": 7610,
  "ctypes.byref": 7611,
  "kde": 7612,
  ".index": 7613,
  "UNICODE": 7614,
  "S.get": 7615,
  "permalink": 7616,
  "fp.write": 7617,
  "le.@@": 7618,
  "key&apos;": 7619,
  "tap": 7620,
  "warns": 7621,
  "signs": 7622,
  "&apos;doc": 7623,
  "ZZ.map": 7624,
  "reloader": 7625,
  "96": 7626,
  "buttons": 7627,
  "BIG": 7628,
  "command&apos;": 7629,
  "engine.@@": 7630,
  "browse": 7631,
  "quteproc": 7632,
  "Single": 7633,
  "string1": 7634,
  "corners": 7635,
  "tf.cast": 7636,
  "DATASET": 7637,
  "redis.@@": 7638,
  "channel@@": 7639,
  "affected": 7640,
  "location.@@": 7641,
  "lin@@": 7642,
  "openstack": 7643,
  "decreasing": 7644,
  "-b": 7645,
  "buffering": 7646,
  "Non-@@": 7647,
  "reserve": 7648,
  "C1": 7649,
  "comp@@": 7650,
  "unary": 7651,
  "Max@@": 7652,
  "response.json": 7653,
  "bom": 7654,
  "go@@": 7655,
  "signup": 7656,
  "float&apos;": 7657,
  "MLP": 7658,
  "ran": 7659,
  "mounts": 7660,
  "SOURCE": 7661,
  "gof.local": 7662,
  "cookiecutter": 7663,
  "themselves": 7664,
  "WITH": 7665,
  "–": 7666,
  "af@@": 7667,
  "resets": 7668,
  "datetime.datetime.utcnow": 7669,
  "match.end": 7670,
  "devs": 7671,
  "iControl": 7672,
  "delimited": 7673,
  "protect": 7674,
  "pylab": 7675,
  "rid": 7676,
  "Removing": 7677,
  "x.strip": 7678,
  "English": 7679,
  "Image.open": 7680,
  "Validate@@": 7681,
  "roll": 7682,
  "K.one": 7683,
  "issued": 7684,
  "storing": 7685,
  "Flags": 7686,
  "SEARCH": 7687,
  "utils.print": 7688,
  "sm@@": 7689,
  "numpy.dot": 7690,
  "54": 7691,
  "py&apos;": 7692,
  "chart.add": 7693,
  "promo": 7694,
  "zz": 7695,
  "existence": 7696,
  "changelog": 7697,
  "Meta@@": 7698,
  "causes": 7699,
  "engines": 7700,
  "`data`": 7701,
  "4096": 7702,
  "crt": 7703,
  "redirected": 7704,
  "xe2": 7705,
  "dead": 7706,
  "Distance": 7707,
  "overlaps": 7708,
  "nb@@": 7709,
  "plots": 7710,
  "Unknown@@": 7711,
  "zmq": 7712,
  "contributions": 7713,
  "stack.append": 7714,
  "Content-Length": 7715,
  "PY2": 7716,
  "sibling": 7717,
  "2.7": 7718,
  "lags": 7719,
  "change@@": 7720,
  "Decodes": 7721,
  "cherrypy.log": 7722,
  "Comment@@": 7723,
  "cyan": 7724,
  "Tool": 7725,
  "strongly": 7726,
  "EnvironmentError": 7727,
  "2002": 7728,
  ".parse": 7729,
  "prop.@@": 7730,
  ".getCraftedGcode": 7731,
  "subdirectories": 7732,
  "lstrip": 7733,
  "indicated": 7734,
  "data.update": 7735,
  "plane": 7736,
  "strictly": 7737,
  "monitoring": 7738,
  "throws": 7739,
  "touch": 7740,
  "oslo": 7741,
  "i0": 7742,
  "search.@@": 7743,
  "member.@@": 7744,
  "TR@@": 7745,
  "CS": 7746,
  "mostly": 7747,
  "devname": 7748,
  "rawtext": 7749,
  "Problem": 7750,
  "zk": 7751,
  "snmp": 7752,
  "``n``": 7753,
  "Provider": 7754,
  "off@@": 7755,
  "Targets": 7756,
  "crl": 7757,
  "POSIX": 7758,
  "Signal": 7759,
  "libs": 7760,
  "comparing": 7761,
  "xxx": 7762,
  "Email@@": 7763,
  "COMMENT": 7764,
  "pe@@": 7765,
  "packs": 7766,
  "DS": 7767,
  "AS@@": 7768,
  "in.@@": 7769,
  "DI@@": 7770,
  "LW": 7771,
  "pct": 7772,
  "Always": 7773,
  "stochastic": 7774,
  "User.objects.get": 7775,
  "Registry": 7776,
  "quoting": 7777,
  "fns": 7778,
  "gd": 7779,
  "len@@": 7780,
  "salt.modules.@@": 7781,
  "thread.@@": 7782,
  "massform": 7783,
  "They": 7784,
  "brackets": 7785,
  "Namespace": 7786,
  "morsel": 7787,
  "1000000": 7788,
  "Objects": 7789,
  "encodes": 7790,
  "tm": 7791,
  "bcs": 7792,
  "multinomial": 7793,
  "pn": 7794,
  "system&apos;": 7795,
  "Evaluate": 7796,
  "osquery.@@": 7797,
  "realtime": 7798,
  "Publisher": 7799,
  "Fourier": 7800,
  "PY@@": 7801,
  "Override": 7802,
  "ger": 7803,
  "finalize": 7804,
  "Icon": 7805,
  "Right": 7806,
  "outline": 7807,
  "COLORS": 7808,
  "manage.py": 7809,
  "lti": 7810,
  "Formatter": 7811,
  "node.get": 7812,
  "backups": 7813,
  "process.@@": 7814,
  "urlpatterns": 7815,
  "adjustment": 7816,
  "bugs": 7817,
  "AppName": 7818,
  ".png": 7819,
  "kernels": 7820,
  "lockfile": 7821,
  "als": 7822,
  "ser": 7823,
  "params.append": 7824,
  "encoders": 7825,
  "sphere": 7826,
  "Dis@@": 7827,
  "Access@@": 7828,
  "Downloads": 7829,
  "bookmarks": 7830,
  "REQ": 7831,
  "proxy.@@": 7832,
  "deserialize": 7833,
  "kappa": 7834,
  "SDK": 7835,
  "NotFoundError": 7836,
  ".ravel": 7837,
  "ago": 7838,
  "ph@@": 7839,
  "100000": 7840,
  "valueComplex": 7841,
  "certname": 7842,
  "modifies": 7843,
  "process@@": 7844,
  "array&apos;": 7845,
  "scoped": 7846,
  "distribute": 7847,
  "it.@@": 7848,
  "db.execute": 7849,
  "privacy": 7850,
  "Sign": 7851,
  ".extend": 7852,
  "fake@@": 7853,
  ".render": 7854,
  "docker-compose": 7855,
  "fatal": 7856,
  "theano.tensor.@@": 7857,
  "network@@": 7858,
  "Product": 7859,
  "unsubscribe": 7860,
  "collapsed": 7861,
  "bot.reply": 7862,
  "label.@@": 7863,
  "fetched": 7864,
  "total@@": 7865,
  "Algorithm": 7866,
  "canonicalize": 7867,
  "crypt": 7868,
  "gradients": 7869,
  "1j": 7870,
  "thread@@": 7871,
  "Pow": 7872,
  "tool@@": 7873,
  "dt.@@": 7874,
  "time.gmtime": 7875,
  "contextkey": 7876,
  "Validator": 7877,
  "pyversion": 7878,
  "args.server": 7879,
  "values.append": 7880,
  "suggest": 7881,
  "per-@@": 7882,
  "session.get": 7883,
  "accurate": 7884,
  "getGeometryOutput": 7885,
  "fac": 7886,
  "fin@@": 7887,
  "keyboard": 7888,
  "ctr": 7889,
  "module.params.get": 7890,
  "populated": 7891,
  "statsd.incr": 7892,
  "interesting": 7893,
  "Id@@": 7894,
  "Header@@": 7895,
  "ext@@": 7896,
  "equality": 7897,
  "import@@": 7898,
  "factorization": 7899,
  "Ex": 7900,
  "arrow": 7901,
  "DAY": 7902,
  "RESET": 7903,
  "NODE": 7904,
  "``x": 7905,
  "logging.StreamHandler": 7906,
  "tmpfile": 7907,
  "Guide": 7908,
  "ative": 7909,
  "az": 7910,
  "FilterForm": 7911,
  "fr@@": 7912,
  "elem.@@": 7913,
  ".type": 7914,
  "strings&apos;": 7915,
  "Strip": 7916,
  "tells": 7917,
  "fl@@": 7918,
  "code.@@": 7919,
  "memcached": 7920,
  "top@@": 7921,
  "product.@@": 7922,
  "projs": 7923,
  "ORDER": 7924,
  "tor@@": 7925,
  "station": 7926,
  "s0": 7927,
  "relationships": 7928,
  "key1": 7929,
  "SEP": 7930,
  "s.filter": 7931,
  "Position": 7932,
  "Post": 7933,
  "talib.@@": 7934,
  ".mean": 7935,
  "sn@@": 7936,
  "uni@@": 7937,
  "index@@": 7938,
  "RFC@@": 7939,
  "em@@": 7940,
  "Attribute@@": 7941,
  "listeners": 7942,
  "sig@@": 7943,
  "acts": 7944,
  "rtn": 7945,
  "contribution": 7946,
  "basepath": 7947,
  "succeed": 7948,
  "LabJackException": 7949,
  "Constructs": 7950,
  "commas": 7951,
  "command@@": 7952,
  "pagerduty": 7953,
  "factory.@@": 7954,
  "blockdevice": 7955,
  "noop": 7956,
  "completely": 7957,
  "dbs": 7958,
  "Ref": 7959,
  "mp.@@": 7960,
  "ContentType": 7961,
  "col1": 7962,
  "nx.path": 7963,
  "Lookup": 7964,
  "eol": 7965,
  "-1.@@": 7966,
  "Issue": 7967,
  "&apos;request": 7968,
  "next@@": 7969,
  "substring": 7970,
  "destroyed": 7971,
  "ps@@": 7972,
  "reasonable": 7973,
  "120": 7974,
  ".1f": 7975,
  "name1": 7976,
  "email.@@": 7977,
  "buffers": 7978,
  "rvm": 7979,
  "zs": 7980,
  "cn": 7981,
  "xhtml": 7982,
  "card": 7983,
  "comparable": 7984,
  "to&apos;": 7985,
  "Ne@@": 7986,
  "part@@": 7987,
  "on-@@": 7988,
  "ro": 7989,
  "Microsoft": 7990,
  "syspath": 7991,
  "COLOR": 7992,
  "Class@@": 7993,
  "apikey": 7994,
  "Radius": 7995,
  "g2": 7996,
  "tuple&apos;": 7997,
  "taxes": 7998,
  "rejected": 7999,
  "queue.@@": 8000,
  "permutations": 8001,
  "su@@": 8002,
  "State@@": 8003,
  "php": 8004,
  "Block@@": 8005,
  "aux": 8006,
  "PS": 8007,
  "pypi": 8008,
  "affinity": 8009,
  "Widget": 8010,
  "101": 8011,
  "Global": 8012,
  "Git": 8013,
  "url.startswith": 8014,
  "random.randrange": 8015,
  "descendant": 8016,
  "serializable": 8017,
  "Call@@": 8018,
  "tips": 8019,
  "Assign": 8020,
  "Imports": 8021,
  "G.is": 8022,
  "DIRS": 8023,
  "Upload": 8024,
  "srcs": 8025,
  "powers": 8026,
  "stringfilter": 8027,
  "Typically": 8028,
  "lo.@@": 8029,
  "sigma2": 8030,
  "injection": 8031,
  "FLAGS.@@": 8032,
  "Device@@": 8033,
  "datadir": 8034,
  "IIS": 8035,
  "bytes&apos;": 8036,
  "dbref": 8037,
  "sdb": 8038,
  "prof": 8039,
  "ant": 8040,
  "macros": 8041,
  "fitted": 8042,
  "by@@": 8043,
  "5000": 8044,
  "X509": 8045,
  "ai@@": 8046,
  "mode@@": 8047,
  ".gz": 8048,
  "ALLOWED": 8049,
  "shallow": 8050,
  "one-@@": 8051,
  "attempted": 8052,
  "triggers": 8053,
  "Its": 8054,
  "text.strip": 8055,
  "refers": 8056,
  "vispy": 8057,
  "qtbot": 8058,
  "tri@@": 8059,
  "unify": 8060,
  "Epochs": 8061,
  "android": 8062,
  "ier": 8063,
  "CLASSES": 8064,
  "power@@": 8065,
  "autotest": 8066,
  "np.logical": 8067,
  "BAD": 8068,
  "fast@@": 8069,
  "del@@": 8070,
  "ru@@": 8071,
  "needle": 8072,
  "resultant": 8073,
  "FIELDS": 8074,
  "http.BAD": 8075,
  "prop@@": 8076,
  "featured": 8077,
  "en-us": 8078,
  "Fields": 8079,
  "-0@@": 8080,
  "synchronous": 8081,
  "mk@@": 8082,
  "google.com": 8083,
  "TO@@": 8084,
  "addon.@@": 8085,
  "nin": 8086,
  "treeType": 8087,
  "kwargs.update": 8088,
  "pickle.dumps": 8089,
  "spans": 8090,
  "nd@@": 8091,
  "Append": 8092,
  "pkl": 8093,
  "clipped": 8094,
  "it&apos;": 8095,
  "ha1": 8096,
  "saves": 8097,
  "g1": 8098,
  "izip": 8099,
  "ng": 8100,
  "Passing": 8101,
  "car@@": 8102,
  "exposed": 8103,
  "table.name": 8104,
  "privilege": 8105,
  "contextfunction": 8106,
  "hi@@": 8107,
  "jboss": 8108,
  "enroll": 8109,
  "Inter@@": 8110,
  "loopLists": 8111,
  "Thus": 8112,
  ".set@@": 8113,
  "conv2d": 8114,
  "vmdk": 8115,
  "Op": 8116,
  "shares": 8117,
  "Constant": 8118,
  "fine": 8119,
  "entity.@@": 8120,
  "ke": 8121,
  "admins": 8122,
  "token@@": 8123,
  "Supports": 8124,
  "sum@@": 8125,
  "PATCH": 8126,
  "suppressed": 8127,
  "Lines": 8128,
  "Possible": 8129,
  "pjoin": 8130,
  "Binary": 8131,
  "latin-1": 8132,
  "leaving": 8133,
  "unlock": 8134,
  "Encoding": 8135,
  "8&apos;": 8136,
  "32bit": 8137,
  "overwritten": 8138,
  "cacert": 8139,
  "early": 8140,
  "match.@@": 8141,
  "routines": 8142,
  "resume": 8143,
  "display@@": 8144,
  ".load": 8145,
  "tag.@@": 8146,
  "ck@@": 8147,
  "Feature": 8148,
  "traces": 8149,
  "settings.startMainLoopFromConstructor": 8150,
  "`int`": 8151,
  "ted&apos;": 8152,
  "autocommit": 8153,
  "vcs": 8154,
  "quotient": 8155,
  "hack": 8156,
  "synchronized": 8157,
  "threaded": 8158,
  "fh.write": 8159,
  "INVALID": 8160,
  "la@@": 8161,
  "range@@": 8162,
  "qty": 8163,
  "determining": 8164,
  "EEG": 8165,
  ".has": 8166,
  "Computation": 8167,
  "Site.objects.get": 8168,
  "send@@": 8169,
  "selections": 8170,
  "SMTP": 8171,
  "np.any": 8172,
  "che@@": 8173,
  "Admin@@": 8174,
  "edx": 8175,
  "sp.@@": 8176,
  "exec@@": 8177,
  "soon": 8178,
  "series.@@": 8179,
  "residue": 8180,
  "caused": 8181,
  "testcase": 8182,
  "Remove@@": 8183,
  "question.@@": 8184,
  "pytest.mark.cmd": 8185,
  "Stack": 8186,
  "commentable": 8187,
  "succeeds": 8188,
  "origin@@": 8189,
  "lim": 8190,
  "apis": 8191,
  "Generate@@": 8192,
  "coach": 8193,
  "ordinal": 8194,
  "misc": 8195,
  "dell": 8196,
  "INTO": 8197,
  "ensuring": 8198,
  "Need": 8199,
  "Doc@@": 8200,
  "package.@@": 8201,
  "jit": 8202,
  "workdir": 8203,
  "Command@@": 8204,
  "AM@@": 8205,
  "unit.@@": 8206,
  "filename@@": 8207,
  "navigation": 8208,
  "te": 8209,
  "identifying": 8210,
  "textual": 8211,
  "49": 8212,
  "Credentials": 8213,
  "fp.read": 8214,
  "grants": 8215,
  "→": 8216,
  "dict.keys": 8217,
  "declare": 8218,
  "bridges": 8219,
  "prefetch": 8220,
  "ut@@": 8221,
  "stack.pop": 8222,
  "Serializer": 8223,
  "itervalues": 8224,
  "ties": 8225,
  "Compile": 8226,
  "vec1": 8227,
  "IPv4Network": 8228,
  "invoking": 8229,
  "SUPPORTED": 8230,
  "lorem": 8231,
  "helpful": 8232,
  "protocol.commands.add": 8233,
  "joins": 8234,
  "layer.@@": 8235,
  "key2": 8236,
  "xmpp": 8237,
  "Out@@": 8238,
  "yum": 8239,
  "address.@@": 8240,
  "Dump": 8241,
  "profile.get": 8242,
  "hashlib": 8243,
  "bzr": 8244,
  "osp.join": 8245,
  "docs.python.org": 8246,
  "part.@@": 8247,
  "issue@@": 8248,
  "Descriptor": 8249,
  "Result@@": 8250,
  "0.7": 8251,
  "jids": 8252,
  "dot@@": 8253,
  "le-@@": 8254,
  "post.@@": 8255,
  "ack": 8256,
  "quad": 8257,
  "om@@": 8258,
  "Edit": 8259,
  "fieldset": 8260,
  "CIDR": 8261,
  "Changes": 8262,
  "wcs": 8263,
  "TASK": 8264,
  "distutils": 8265,
  "cm.@@": 8266,
  "STORE": 8267,
  "apache": 8268,
  "Bokeh": 8269,
  "sized": 8270,
  "x.dtype": 8271,
  "shorten": 8272,
  "atime": 8273,
  "ma.@@": 8274,
  "urllib.unquote": 8275,
  "MP@@": 8276,
  "s.count": 8277,
  "KEYS": 8278,
  "signal.@@": 8279,
  "perf": 8280,
  "xc3": 8281,
  "parens": 8282,
  "Do@@": 8283,
  "emr": 8284,
  "Alias": 8285,
  "np.int32": 8286,
  "NN": 8287,
  "os.path.relpath": 8288,
  "spaced": 8289,
  "committed": 8290,
  "flist": 8291,
  "2048": 8292,
  "bottleneck": 8293,
  "Restart": 8294,
  "frame@@": 8295,
  "thin": 8296,
  "response.get": 8297,
  "robust": 8298,
  "options.append": 8299,
  "led": 8300,
  "inf@@": 8301,
  "numer": 8302,
  "Per": 8303,
  "interest": 8304,
  "transformations": 8305,
  "item.get": 8306,
  "JWT": 8307,
  "sympy.polys.galoistools": 8308,
  ".isdigit": 8309,
  "qsl": 8310,
  "six.binary": 8311,
  "exiting": 8312,
  "key-value": 8313,
  "rep@@": 8314,
  "File.@@": 8315,
  "caught": 8316,
  "ax@@": 8317,
  "recently": 8318,
  "Bar": 8319,
  "scrub": 8320,
  "ConfigurationError": 8321,
  "np@@": 8322,
  "1996": 8323,
  "tower": 8324,
  "summ": 8325,
  "preprocessor": 8326,
  "sel@@": 8327,
  "estimates": 8328,
  "pooled": 8329,
  "Splits": 8330,
  "segs": 8331,
  "Analysis": 8332,
  "vb": 8333,
  "libc": 8334,
  "eip": 8335,
  "syms": 8336,
  "grayscale": 8337,
  "&apos;id": 8338,
  "``path``": 8339,
  "Reactor": 8340,
  "albums": 8341,
  "typecode": 8342,
  "np.random.uniform": 8343,
  "sql.@@": 8344,
  "entered": 8345,
  "0.0001": 8346,
  "decimal.Decimal": 8347,
  "ENTRY": 8348,
  "ds@@": 8349,
  "jd": 8350,
  "Lock": 8351,
  "messaging": 8352,
  "os.path.normcase": 8353,
  "string.digits": 8354,
  "bounded": 8355,
  "tf.add": 8356,
  "Bo@@": 8357,
  "g.message": 8358,
  "dev.@@": 8359,
  "Base64": 8360,
  "with@@": 8361,
  "ge": 8362,
  "newfunc": 8363,
  "--format": 8364,
  "bdstoken": 8365,
  "isfile": 8366,
  "Params": 8367,
  "interface.@@": 8368,
  "qualities": 8369,
  "Qt.@@": 8370,
  "sv": 8371,
  "CMS": 8372,
  "t.value": 8373,
  "placement": 8374,
  "Cache-Control": 8375,
  "inserting": 8376,
  "unspecified": 8377,
  "restrictions": 8378,
  "directions": 8379,
  "outgoing": 8380,
  "sys.path.insert": 8381,
  "Permission": 8382,
  "musicpd.org": 8383,
  "dbData": 8384,
  "real@@": 8385,
  "v.": 8386,
  "np.ceil": 8387,
  "numsamples": 8388,
  "Api@@": 8389,
  "Max": 8390,
  "`y`": 8391,
  "quantile": 8392,
  "slaves": 8393,
  "Me@@": 8394,
  "os.X": 8395,
  "LOG.warn": 8396,
  "sqlalchemy.@@": 8397,
  "`boto.@@": 8398,
  "release@@": 8399,
  "timeline": 8400,
  "lift": 8401,
  "discussions": 8402,
  "D.": 8403,
  "Finder": 8404,
  "DEVICE": 8405,
  "Trying": 8406,
  "structures": 8407,
  "prepended": 8408,
  "dict2": 8409,
  "`u`": 8410,
  "nbins": 8411,
  "deco": 8412,
  "helpers": 8413,
  "official": 8414,
  "participant": 8415,
  "sizeof": 8416,
  "rescale": 8417,
  "TLS": 8418,
  "ep@@": 8419,
  "editing": 8420,
  "ret.get": 8421,
  ".list": 8422,
  "dag": 8423,
  "hp": 8424,
  "likes": 8425,
  "trans.@@": 8426,
  "Copies": 8427,
  "entering": 8428,
  "LANG": 8429,
  "archive.getTextIfEmpty": 8430,
  "package@@": 8431,
  "Defines": 8432,
  "blade": 8433,
  "pm": 8434,
  "randrange": 8435,
  "Monitor": 8436,
  "logging.INFO": 8437,
  "user-@@": 8438,
  "segmentYMirror": 8439,
  "G.name": 8440,
  "seq@@": 8441,
  "poles": 8442,
  "lab": 8443,
  "cubic": 8444,
  "oldest": 8445,
  "&apos;text": 8446,
  "hdfs": 8447,
  "filePath": 8448,
  "useless": 8449,
  "user.save": 8450,
  "readlines": 8451,
  "cat@@": 8452,
  "capfd.readouterr": 8453,
  "ENTER": 8454,
  "Removed": 8455,
  "concrete": 8456,
  "common@@": 8457,
  "cPickle.load": 8458,
  "WRITE": 8459,
  "n-@@": 8460,
  "plt.@@": 8461,
  "dependents": 8462,
  "Copy@@": 8463,
  "example.@@": 8464,
  "Euclidean": 8465,
  "prereqs": 8466,
  "alg": 8467,
  "mouse": 8468,
  "al-@@": 8469,
  "：": 8470,
  "took": 8471,
  "nu": 8472,
  "But": 8473,
  "implementations": 8474,
  "HASH": 8475,
  "bilinear": 8476,
  "Load@@": 8477,
  "BEM": 8478,
  "sion": 8479,
  "eog": 8480,
  "opt.@@": 8481,
  "par": 8482,
  "experimental": 8483,
  "undo": 8484,
  "gather": 8485,
  "argname": 8486,
  "octets": 8487,
  "unmodified": 8488,
  "PYTHONPATH": 8489,
  "API@@": 8490,
  "Web": 8491,
  "velocity": 8492,
  "UTF8": 8493,
  "mem@@": 8494,
  "79@@": 8495,
  "48@@": 8496,
  "er`": 8497,
  "qemu": 8498,
  "conferences": 8499,
  "Volume@@": 8500,
  "C3": 8501,
  "Connection@@": 8502,
  "differs": 8503,
  "ME@@": 8504,
  "reg@@": 8505,
  "er-@@": 8506,
  "shell.@@": 8507,
  "seld": 8508,
  "FFT": 8509,
  "fixer": 8510,
  "Middleware": 8511,
  "satisfy": 8512,
  "CMD": 8513,
  "msbuild": 8514,
  "subgraph": 8515,
  "aes": 8516,
  "content@@": 8517,
  "recorded": 8518,
  "blueprint.route": 8519,
  "GROUP": 8520,
  "srid": 8521,
  "unrecognized": 8522,
  "retained": 8523,
  "CHUNK": 8524,
  "04": 8525,
  "CUDA": 8526,
  "refine": 8527,
  "fig@@": 8528,
  "Unlike": 8529,
  "ni": 8530,
  "intf": 8531,
  "lang@@": 8532,
  "log.trace": 8533,
  "unstable": 8534,
  "fractional": 8535,
  "config&apos;": 8536,
  "super@@": 8537,
  "sBy@@": 8538,
  "addr@@": 8539,
  "UserWarning": 8540,
  "Journal": 8541,
  "Storage@@": 8542,
  "np.sort": 8543,
  "D.@@": 8544,
  "rooms": 8545,
  "mf": 8546,
  "1000000.0": 8547,
  "sabnzbd.@@": 8548,
  "deterministic": 8549,
  "succ": 8550,
  "euclidean.get@@": 8551,
  "ephemeral": 8552,
  "apt": 8553,
  "ta@@": 8554,
  "argparse.ArgumentParser": 8555,
  "Downloading": 8556,
  "pointing": 8557,
  "aka": 8558,
  "e.g": 8559,
  "DateTime": 8560,
  "ngram": 8561,
  "2013": 8562,
  "non-empty": 8563,
  "AR": 8564,
  "m2m": 8565,
  "Be": 8566,
  "i4": 8567,
  "le&apos;": 8568,
  "&apos;Error": 8569,
  "yml": 8570,
  "pd.Series": 8571,
  "Minimal": 8572,
  "names&apos;": 8573,
  "ine": 8574,
  "sFrom@@": 8575,
  "TOPIC": 8576,
  "device@@": 8577,
  "aetypes.ObjectSpecifier": 8578,
  "proc.@@": 8579,
  "OTU": 8580,
  "playback": 8581,
  "importRadius": 8582,
  "com.@@": 8583,
  "Agent": 8584,
  "ai": 8585,
  "Global@@": 8586,
  "gcodec.isProcedureDoneOrFileIsEmpty": 8587,
  "nonnegative": 8588,
  "bust": 8589,
  ".path": 8590,
  "sympy.@@": 8591,
  "fs@@": 8592,
  "Dispatch": 8593,
  "HttpRequest": 8594,
  "overriding": 8595,
  "responsible": 8596,
  "kerns": 8597,
  "TE@@": 8598,
  "customization": 8599,
  "tic": 8600,
  "ding": 8601,
  "jitter": 8602,
  "runner.run": 8603,
  "facecolor": 8604,
  "base64.urlsafe": 8605,
  "&apos;r": 8606,
  "u1": 8607,
  "varnames": 8608,
  "Parameter@@": 8609,
  "parser.delete": 8610,
  "didn": 8611,
  "rev@@": 8612,
  "usec": 8613,
  "input.@@": 8614,
  "Left": 8615,
  "displaying": 8616,
  "Enter": 8617,
  "fail@@": 8618,
  "sklearn": 8619,
  "deal": 8620,
  "www": 8621,
  "Modify": 8622,
  "3.1": 8623,
  "fx": 8624,
  "datatype": 8625,
  "conference": 8626,
  "Once": 8627,
  "node.parent": 8628,
  "CS@@": 8629,
  "aggressive": 8630,
  "option@@": 8631,
  "DIV": 8632,
  "time.localtime": 8633,
  "openshift": 8634,
  "dcos": 8635,
  "nrow": 8636,
  "include@@": 8637,
  "nw": 8638,
  "NS@@": 8639,
  "behaves": 8640,
  "Flocker": 8641,
  "discovered": 8642,
  "rms": 8643,
  "f.readline": 8644,
  "pmf": 8645,
  "cassandra": 8646,
  "Shift": 8647,
  "organizations": 8648,
  "allocations": 8649,
  "imdb": 8650,
  "liability": 8651,
  "Element@@": 8652,
  "MNIST": 8653,
  "key.lower": 8654,
  "value@@": 8655,
  "Bessel": 8656,
  "ax1": 8657,
  "blah": 8658,
  "Scan": 8659,
  "nova.@@": 8660,
  "ee": 8661,
  "mocked": 8662,
  "ciphertext": 8663,
  "MyClass": 8664,
  "rich": 8665,
  "urllib2.urlopen": 8666,
  "cre@@": 8667,
  "big@@": 8668,
  "Permutation": 8669,
  "np.float": 8670,
  "cargs": 8671,
  "no-@@": 8672,
  "dirs.append": 8673,
  "CHARS": 8674,
  "c0": 8675,
  "sm.@@": 8676,
  "obj.id": 8677,
  "single-@@": 8678,
  "n&apos;": 8679,
  "ri": 8680,
  "52": 8681,
  "reachable": 8682,
  "forced": 8683,
  "Shape": 8684,
  "fgraph": 8685,
  "Mock@@": 8686,
  "stem": 8687,
  "tempfile.mkstemp": 8688,
  "Include": 8689,
  "System@@": 8690,
  "string.@@": 8691,
  "noverlap": 8692,
  "hdf5": 8693,
  "User.@@": 8694,
  "signatures": 8695,
  "Prepare": 8696,
  "gl@@": 8697,
  "Core": 8698,
  "Raw@@": 8699,
  "ext.@@": 8700,
  "as-is": 8701,
  "MAIN": 8702,
  "HANDLER": 8703,
  "mr": 8704,
  "multiplied": 8705,
  "qu@@": 8706,
  "TZ": 8707,
  "manner": 8708,
  "hrm": 8709,
  "9&apos;": 8710,
  "&apos;a": 8711,
  "85": 8712,
  "Rec@@": 8713,
  "ste@@": 8714,
  "checkpoints": 8715,
  "searches": 8716,
  "va": 8717,
  "wise": 8718,
  "generalized": 8719,
  "browser.@@": 8720,
  "read-only": 8721,
  "console.@@": 8722,
  "copy.copy": 8723,
  "math.pi": 8724,
  "normpath": 8725,
  "np.random.rand": 8726,
  "y`": 8727,
  "os.path.islink": 8728,
  "signal.signal": 8729,
  "plt.show": 8730,
  "ENTITY": 8731,
  "getCraftedText": 8732,
  "balanced": 8733,
  "arg1": 8734,
  "script.@@": 8735,
  "9.1.@@": 8736,
  "Rate": 8737,
  "jinja2": 8738,
  "--quiet": 8739,
  "commandline": 8740,
  "splunk": 8741,
  "archived": 8742,
  "amo.STATUS": 8743,
  "TEMP": 8744,
  "AT": 8745,
  "rand@@": 8746,
  "rdclass": 8747,
  "fn.@@": 8748,
  "TB": 8749,
  "ce": 8750,
  "102": 8751,
  "simple@@": 8752,
  "rounds": 8753,
  "Derivative": 8754,
  "stacked": 8755,
  "dict.update": 8756,
  "deletes": 8757,
  "BINARY": 8758,
  "opportunity": 8759,
  "FileName": 8760,
  "dep@@": 8761,
  "Write@@": 8762,
  "save@@": 8763,
  "limiting": 8764,
  "pk@@": 8765,
  "games": 8766,
  "Tool@@": 8767,
  "ia": 8768,
  "SEPARATOR": 8769,
  "queried": 8770,
  "orthogonal": 8771,
  "2nd": 8772,
  "targeted": 8773,
  "service@@": 8774,
  "capfd": 8775,
  "type``": 8776,
  "vel": 8777,
  "eightBit@@": 8778,
  "Connection`": 8779,
  "Post@@": 8780,
  "cred": 8781,
  "Encoder": 8782,
  "GOOGLE": 8783,
  "&apos;user": 8784,
  "curl": 8785,
  "byref": 8786,
  "43": 8787,
  "statusContent": 8788,
  "bcc": 8789,
  "roidb": 8790,
  "newname": 8791,
  "sphinx": 8792,
  "nibabel": 8793,
  "AG@@": 8794,
  "-R": 8795,
  "feeds": 8796,
  "Body": 8797,
  "Form@@": 8798,
  "pil": 8799,
  "zf": 8800,
  "artists": 8801,
  "SE": 8802,
  "meta.get": 8803,
  "Expand": 8804,
  "Logging@@": 8805,
  "assoc": 8806,
  "consts": 8807,
  "ldots": 8808,
  "name.encode": 8809,
  "L.@@": 8810,
  "intp": 8811,
  "scalings": 8812,
  "config.floatX": 8813,
  "ERS": 8814,
  "ever": 8815,
  "2011": 8816,
  "session.begin": 8817,
  "Train": 8818,
  "skimage": 8819,
  "Gpu@@": 8820,
  "plugin@@": 8821,
  "fin": 8822,
  "Ids": 8823,
  "drain": 8824,
  "django-@@": 8825,
  "initialise": 8826,
  "``str``&apos;": 8827,
  "DROP": 8828,
  "frappe.local.@@": 8829,
  "maxwidth": 8830,
  "r.append": 8831,
  "address&apos;": 8832,
  "shorter": 8833,
  "ICRS": 8834,
  "nv": 8835,
  "summarize": 8836,
  "Init": 8837,
  "Zhang": 8838,
  "homepage": 8839,
  "flows": 8840,
  "exported": 8841,
  "Generic@@": 8842,
  "brew": 8843,
  "seeds": 8844,
  "stdev": 8845,
  "Qt": 8846,
  "suffixFileName": 8847,
  "One@@": 8848,
  "ETag": 8849,
  "000@@": 8850,
  "checkpoint": 8851,
  "iam": 8852,
  "incr": 8853,
  "os.path": 8854,
  "e&apos;": 8855,
  "cert@@": 8856,
  "ter.@@": 8857,
  "301": 8858,
  "ker@@": 8859,
  "conflicting": 8860,
  "vi": 8861,
  "body.@@": 8862,
  "delete@@": 8863,
  "monitors": 8864,
  "254": 8865,
  "Inputs": 8866,
  "Effect": 8867,
  "44": 8868,
  "Int": 8869,
  "six.itervalues": 8870,
  "hints": 8871,
  "CI@@": 8872,
  "gi": 8873,
  "yi": 8874,
  "Sh@@": 8875,
  "keeps": 8876,
  "Destination": 8877,
  "scatter": 8878,
  "rospack": 8879,
  "grab": 8880,
  "pep8": 8881,
  "bd": 8882,
  "CC": 8883,
  "Resolver": 8884,
  "el.@@": 8885,
  "immediate": 8886,
  "sympy.polys.densebasic": 8887,
  "cuts": 8888,
  "test&apos;": 8889,
  "Type.@@": 8890,
  "popup": 8891,
  "Hook": 8892,
  "conj": 8893,
  "Trigger": 8894,
  "3.5": 8895,
  "tv": 8896,
  "LIB": 8897,
  "rnd": 8898,
  "Press": 8899,
  "geo@@": 8900,
  "Apache": 8901,
  "request.LANGUAGE": 8902,
  "mainly": 8903,
  "NFFT": 8904,
  "begin@@": 8905,
  "news": 8906,
  "pointBegin": 8907,
  "drafts": 8908,
  "recursion": 8909,
  "Expires": 8910,
  "y``": 8911,
  "force@@": 8912,
  "obstime": 8913,
  "present&apos;": 8914,
  "BaseException": 8915,
  "8000": 8916,
  "meta@@": 8917,
  "getnode": 8918,
  "caffe": 8919,
  "stdlib": 8920,
  "peering": 8921,
  "service&apos;": 8922,
  "vec2": 8923,
  "envs": 8924,
  "thread.start": 8925,
  "ev": 8926,
  "hop": 8927,
  "us@@": 8928,
  "Git@@": 8929,
  "Resolve": 8930,
  "messages.@@": 8931,
  "pillarenv": 8932,
  "text.@@": 8933,
  "vv": 8934,
  "Private": 8935,
  "BACKENDS": 8936,
  "BYTES": 8937,
  "codecs.open": 8938,
  "Produce": 8939,
  "MA": 8940,
  "datetime.utcnow": 8941,
  "Lo@@": 8942,
  "s3db.@@": 8943,
  "Fail": 8944,
  "proto@@": 8945,
  "xmlrpc": 8946,
  "Ro@@": 8947,
  "constrained": 8948,
  "nx.Graph": 8949,
  "PEP": 8950,
  "refname": 8951,
  "p`": 8952,
  "CE@@": 8953,
  "alphas": 8954,
  "varkw": 8955,
  "HAVE": 8956,
  "nobody": 8957,
  "MESSAGES": 8958,
  "blob.@@": 8959,
  "ctx.run": 8960,
  "magenta": 8961,
  "tooltip": 8962,
  "scans": 8963,
  "harmonic": 8964,
  "Document@@": 8965,
  "parsers": 8966,
  "ACTION": 8967,
  "Some@@": 8968,
  "Content-Disposition": 8969,
  "divided": 8970,
  "binomial": 8971,
  "pointEnd": 8972,
  "errors.Error": 8973,
  "tb.tb": 8974,
  "dataReg": 8975,
  "forget": 8976,
  "file-@@": 8977,
  "peaks": 8978,
  "comb": 8979,
  "atleast": 8980,
  "string.encode": 8981,
  "OAuth@@": 8982,
  "timeit": 8983,
  "K.is": 8984,
  "Endpoint": 8985,
  "deserializer": 8986,
  "systemctl": 8987,
  "documented": 8988,
  "mkstemp": 8989,
  "returners": 8990,
  "Virtual@@": 8991,
  "profilers": 8992,
  "hw": 8993,
  "pb@@": 8994,
  "s.list": 8995,
  "suite.addTest": 8996,
  "second@@": 8997,
  "4-@@": 8998,
  "senderkey": 8999,
  "Angle": 9000,
  "osx": 9001,
  "matvec": 9002,
  "dist.@@": 9003,
  "Wiley": 9004,
  "time&apos;": 9005,
  "fontext": 9006,
  "deployer": 9007,
  "crossover": 9008,
  "residuals": 9009,
  "jj": 9010,
  "capitalize": 9011,
  "unittest.TestSuite": 9012,
  "COLS": 9013,
  "fromstring": 9014,
  "rootdir": 9015,
  "joining": 9016,
  "ObjectDoesNotExist": 9017,
  "Additionally": 9018,
  "alerts": 9019,
  "ny": 9020,
  "dipoles": 9021,
  "3-D": 9022,
  "Mean": 9023,
  "s.delete": 9024,
  "followlinks": 9025,
  "decide": 9026,
  "adapted": 9027,
  "Initial": 9028,
  "sideLength": 9029,
  "Li@@": 9030,
  "201@@": 9031,
  "vlanid": 9032,
  "Usually": 9033,
  "flowgrams": 9034,
  "searchPaths": 9035,
  "join@@": 9036,
  "getframe": 9037,
  "hosting": 9038,
  "mis@@": 9039,
  "harvest": 9040,
  "no-op": 9041,
  "bl@@": 9042,
  "2.3": 9043,
  "portage": 9044,
  "e2": 9045,
  "ation`": 9046,
  "shards": 9047,
  "Indices": 9048,
  "stream@@": 9049,
  ".options": 9050,
  "quantum": 9051,
  "disjoint": 9052,
  "Stream@@": 9053,
  "s.close": 9054,
  "textwrap.dedent": 9055,
  "SHOW": 9056,
  "environments": 9057,
  "prune": 9058,
  "DEVICES": 9059,
  "decim": 9060,
  "dashes": 9061,
  "vm@@": 9062,
  ".objects.get": 9063,
  "SUB@@": 9064,
  "Tree@@": 9065,
  "08": 9066,
  "transcripts": 9067,
  "subtasks": 9068,
  "sTo@@": 9069,
  "57@@": 9070,
  "query@@": 9071,
  "paginator": 9072,
  "01@@": 9073,
  "chart.render": 9074,
  "environment.@@": 9075,
  "np.random.random": 9076,
  "signum": 9077,
  "string.strip": 9078,
  "32-bit": 9079,
  "s2@@": 9080,
  "provision": 9081,
  "Nodes": 9082,
  "84": 9083,
  "maxsplit": 9084,
  "redundant": 9085,
  "events.@@": 9086,
  "np.diag": 9087,
  "subdirectory": 9088,
  "oc@@": 9089,
  "Feature.from": 9090,
  "Modified": 9091,
  "flag@@": 9092,
  "1e-10": 9093,
  "unicodedata.normalize": 9094,
  "moves": 9095,
  "request.user.profile.is": 9096,
  "proxied": 9097,
  "billed": 9098,
  "dir`": 9099,
  ".setdefault": 9100,
  "options.options.@@": 9101,
  "port.@@": 9102,
  "xmlElement.attributeDictionary": 9103,
  "pseudo": 9104,
  "chunk@@": 9105,
  "endings": 9106,
  "sy@@": 9107,
  "workbook": 9108,
  "on&apos;": 9109,
  "cache.set": 9110,
  "uint64": 9111,
  "graph@@": 9112,
  "w1": 9113,
  "embargo": 9114,
  "jl": 9115,
  "Groups": 9116,
  "`User": 9117,
  "SlashSeparatedCourseKey.from": 9118,
  "sep.join": 9119,
  "Register@@": 9120,
  "obsolete": 9121,
  "pid@@": 9122,
  "webhook": 9123,
  "Session@@": 9124,
  "bb@@": 9125,
  "np.eye": 9126,
  "89": 9127,
  "pformat": 9128,
  "biom": 9129,
  "univariate": 9130,
  "PROFILE": 9131,
  "attribute@@": 9132,
  "ul@@": 9133,
  "kurtosis": 9134,
  "colordown": 9135,
  "colorup": 9136,
  "g.content": 9137,
  "INITools": 9138,
  "2-tuples": 9139,
  "approach": 9140,
  "we@@": 9141,
  "ali@@": 9142,
  "b64": 9143,
  "deny": 9144,
  "projected": 9145,
  "deriv": 9146,
  "appropriately": 9147,
  "identifies": 9148,
  "eventually": 9149,
  "tweet": 9150,
  "cal@@": 9151,
  "frappe": 9152,
  "request@@": 9153,
  "IC": 9154,
  "suites": 9155,
  "sys@@": 9156,
  "If@@": 9157,
  "geometric": 9158,
  "exist&apos;": 9159,
  "1.3": 9160,
  "couldn": 9161,
  "Events": 9162,
  "AdWordsClient": 9163,
  "GCD": 9164,
  "url.split": 9165,
  "authkey": 9166,
  "fc@@": 9167,
  "pkg@@": 9168,
  "out.getvalue": 9169,
  "Applies": 9170,
  "vert": 9171,
  "02@@": 9172,
  "COM": 9173,
  "cherrypy.@@": 9174,
  "Pipeline": 9175,
  "Marks": 9176,
  "us-east-1&apos;": 9177,
  "pickle.load": 9178,
  "foreground": 9179,
  "numPatterns": 9180,
  "autospec": 9181,
  "AB@@": 9182,
  "detached": 9183,
  "equations": 9184,
  "Bar@@": 9185,
  "Message.@@": 9186,
  "dynamically": 9187,
  "Http@@": 9188,
  "PROPERTY": 9189,
  "fe": 9190,
  "`tab@@": 9191,
  "MOD": 9192,
  "user.get": 9193,
  "98": 9194,
  "reporting": 9195,
  "ated@@": 9196,
  "h.append": 9197,
  "ga": 9198,
  "replies": 9199,
  "250": 9200,
  "64-bit": 9201,
  "vagrant": 9202,
  "TensorFlow": 9203,
  "method.@@": 9204,
  "model@@": 9205,
  "&apos;w": 9206,
  "lport": 9207,
  "Bob": 9208,
  "distname": 9209,
  "s3@@": 9210,
  "58": 9211,
  "methodname": 9212,
  "ARN": 9213,
  "sk": 9214,
  "construction": 9215,
  "chat": 9216,
  "reservations": 9217,
  "br@@": 9218,
  "Tags": 9219,
  "05": 9220,
  "size.@@": 9221,
  "HTTPConnection": 9222,
  "os.open": 9223,
  "swapped": 9224,
  "form-data": 9225,
  "psql": 9226,
  ".conf": 9227,
  "mocks": 9228,
  "rule@@": 9229,
  "Se@@": 9230,
  "installs": 9231,
  "1e-06": 9232,
  "Debian": 9233,
  "DNA": 9234,
  "maxval": 9235,
  "Help": 9236,
  "user-agent": 9237,
  "Di@@": 9238,
  "issuer": 9239,
  "rv.@@": 9240,
  "09@@": 9241,
  "-specific": 9242,
  "ranks": 9243,
  "not&apos;": 9244,
  "-6": 9245,
  "Sphinx": 9246,
  "cats": 9247,
  "websocket": 9248,
  "gemset": 9249,
  "Marker": 9250,
  "delete&apos;": 9251,
  "Schema@@": 9252,
  "administrator": 9253,
  "My": 9254,
  "ance": 9255,
  "Po@@": 9256,
  "request.body": 9257,
  "eggs": 9258,
  "t``": 9259,
  "docstr": 9260,
  "index2": 9261,
  "1,2,3": 9262,
  "ifconfig": 9263,
  "K0": 9264,
  "eval@@": 9265,
  "angular": 9266,
  "chisquare": 9267,
  "SC@@": 9268,
  "reindex": 9269,
  "sFor@@": 9270,
  "hosted": 9271,
  "multiprocessing": 9272,
  "Method@@": 9273,
  "pager": 9274,
  "evaluatedLinkValue": 9275,
  "ity": 9276,
  "main@@": 9277,
  "els": 9278,
  "pip-test-package": 9279,
  "-to-@@": 9280,
  "foo&apos;": 9281,
  "es.append": 9282,
  "Matplotlib": 9283,
  "redirection": 9284,
  "interaction": 9285,
  "proba": 9286,
  "`text`": 9287,
  "uname": 9288,
  "AssertError": 9289,
  "site.@@": 9290,
  "dh": 9291,
  "soap": 9292,
  "archive.@@": 9293,
  "posted": 9294,
  "locale.@@": 9295,
  "library.global": 9296,
  "pat@@": 9297,
  "right.@@": 9298,
  "matrix.@@": 9299,
  "2006": 9300,
  "cancelled": 9301,
  "retrying": 9302,
  "Adding": 9303,
  "opens": 9304,
  "infered": 9305,
  "Display@@": 9306,
  "info@@": 9307,
  "headerlist": 9308,
  "moderator": 9309,
  "profile@@": 9310,
  "Mask": 9311,
  "request.args": 9312,
  "time.mktime": 9313,
  "numa": 9314,
  "LEVEL": 9315,
  "backslashes": 9316,
  "pyname": 9317,
  "lemma": 9318,
  "fnmatch.fnmatch": 9319,
  "queued": 9320,
  "Modules": 9321,
  "idea": 9322,
  "posting": 9323,
  "exit@@": 9324,
  "polling": 9325,
  "a.ndim": 9326,
  "Clears": 9327,
  "Collect": 9328,
  "XBlock": 9329,
  "rank@@": 9330,
  "prereq": 9331,
  "motion": 9332,
  "URL&apos;": 9333,
  "ers.@@": 9334,
  "Of@@": 9335,
  "subreddit": 9336,
  "pt@@": 9337,
  "runners": 9338,
  "maxiter": 9339,
  "FIFF.FIFFV": 9340,
  "sen@@": 9341,
  "usual": 9342,
  "auths": 9343,
  "uni": 9344,
  "decl": 9345,
  "Notification": 9346,
  "math.@@": 9347,
  "py3": 9348,
  "cobbler": 9349,
  "compat.@@": 9350,
  "2015": 9351,
  "FORMATS": 9352,
  "lru": 9353,
  "request.json": 9354,
  "supporting": 9355,
  "stat@@": 9356,
  "-j": 9357,
  "cli@@": 9358,
  "graded": 9359,
  "2007": 9360,
  "R.": 9361,
  "intpart": 9362,
  "timezone.now": 9363,
  "Glance": 9364,
  "w2": 9365,
  "latin1": 9366,
  "Bit@@": 9367,
  "stacks": 9368,
  "env.get": 9369,
  "sql@@": 9370,
  "inrec": 9371,
  "MetaData": 9372,
  "cygwin": 9373,
  "str2": 9374,
  "03": 9375,
  "ind@@": 9376,
  "ED": 9377,
  "MARKER": 9378,
  "bval": 9379,
  "Prompt": 9380,
  "definite": 9381,
  "ves": 9382,
  "earth": 9383,
  "T1": 9384,
  "authdb": 9385,
  "stream.@@": 9386,
  "np.random.seed": 9387,
  "Datastore": 9388,
  "p4": 9389,
  "ni@@": 9390,
  "Java": 9391,
  "queue@@": 9392,
  "subsets": 9393,
  "www.example.com": 9394,
  "parts.pop": 9395,
  "cookiejar": 9396,
  "d0": 9397,
  "P.": 9398,
  "nid": 9399,
  "icmp": 9400,
  "meta.app": 9401,
  "ies": 9402,
  "001": 9403,
  "Snapshot": 9404,
  "Backend": 9405,
  "Offset": 9406,
  "startIndex": 9407,
  "dark": 9408,
  "np.argsort": 9409,
  "disk@@": 9410,
  "translator": 9411,
  "unsorted": 9412,
  "regroup": 9413,
  "np.min": 9414,
  "category.@@": 9415,
  "showwarning": 9416,
  "composed": 9417,
  "b&apos;": 9418,
  "Dict@@": 9419,
  "Point@@": 9420,
  "separately": 9421,
  "nqubits": 9422,
  "L.append": 9423,
  "Calling": 9424,
  "mmap": 9425,
  "totals": 9426,
  "mirrors": 9427,
  "repeats": 9428,
  "cli.command": 9429,
  "rsplit": 9430,
  "ren@@": 9431,
  "interp": 9432,
  "irange": 9433,
  "trainer": 9434,
  "viewname": 9435,
  "renew": 9436,
  "vers": 9437,
  "nofollow": 9438,
  "c-@@": 9439,
  "scope.@@": 9440,
  "CN": 9441,
  "tc": 9442,
  "OpenID": 9443,
  "Hz": 9444,
  "re.finditer": 9445,
  "text&apos;": 9446,
  "Edge": 9447,
  "balancers": 9448,
  "Fix": 9449,
  "IMPL.@@": 9450,
  "relations": 9451,
  "nzo": 9452,
  "library.@@": 9453,
  "session@@": 9454,
  "LOGGER.info": 9455,
  "make.conf": 9456,
  "Lexer": 9457,
  "Sons": 9458,
  "Feature@@": 9459,
  "kl": 9460,
  "line1": 9461,
  "templatetags": 9462,
  "tornado": 9463,
  "attributeName": 9464,
  "``GF": 9465,
  "compilation": 9466,
  "ten": 9467,
  "2004": 9468,
  "macOS": 9469,
  "upstream": 9470,
  "numCols": 9471,
  "Ansible": 9472,
  "random.shuffle": 9473,
  "Kwargs": 9474,
  "okay": 9475,
  "overload": 9476,
  "code&apos;": 9477,
  "divergence": 9478,
  "kn": 9479,
  "ctypes.POINTER": 9480,
  "NB": 9481,
  "anon": 9482,
  "nbr": 9483,
  "file.name": 9484,
  ".distinct": 9485,
  "Order@@": 9486,
  "uint16": 9487,
  "arguments&apos;": 9488,
  "pluralize": 9489,
  "loader.@@": 9490,
  "0.00@@": 9491,
  "table.c.@@": 9492,
  "put@@": 9493,
  "masquerade": 9494,
  "local.@@": 9495,
  "`k": 9496,
  "speech": 9497,
  "flat@@": 9498,
  "wo": 9499,
  "gte": 9500,
  "head@@": 9501,
  "SO@@": 9502,
  "first.@@": 9503,
  "virt.@@": 9504,
  "TMP": 9505,
  "Graph@@": 9506,
  "ID&apos;": 9507,
  "outstream": 9508,
  "out.splitlines": 9509,
  "crossentropy": 9510,
  "ang@@": 9511,
  "files.@@": 9512,
  "Shanjie": 9513,
  "convex": 9514,
  "Null": 9515,
  "gating": 9516,
  "disconnected": 9517,
  "Score": 9518,
  "args.extend": 9519,
  "atoms": 9520,
  "frappe.init": 9521,
  "clean@@": 9522,
  "session.flush": 9523,
  "ation-@@": 9524,
  "fancy": 9525,
  "Shows": 9526,
  "Linode": 9527,
  "raw.info": 9528,
  "typical": 9529,
  "backlog": 9530,
  "Jin": 9531,
  "saltutil.sync": 9532,
  "chown": 9533,
  "Unpack": 9534,
  "bank": 9535,
  "iscsi": 9536,
  "ustr": 9537,
  "Original": 9538,
  "expecting": 9539,
  "thumb": 9540,
  "evaluates": 9541,
  "revalidate": 9542,
  "out.split": 9543,
  "tex@@": 9544,
  "similarities": 9545,
  "Stub": 9546,
  "keras": 9547,
  "closer": 9548,
  "ADD": 9549,
  "configuration.@@": 9550,
  "bitmap": 9551,
  "settings.EMAIL": 9552,
  "shutil.copy": 9553,
  "gca": 9554,
  "TRUE": 9555,
  "deployed": 9556,
  "Nitrogen": 9557,
  "INSTALLED": 9558,
  "Plotly": 9559,
  "proto.@@": 9560,
  "cloud@@": 9561,
  "request.session.get": 9562,
  "88": 9563,
  "itertools.chain": 9564,
  "random.sample": 9565,
  "`mne.verbose`": 9566,
  "train@@": 9567,
  "0.17.0": 9568,
  "context.owner": 9569,
  "AP@@": 9570,
  "default&apos;": 9571,
  "`Logging": 9572,
  "tut": 9573,
  "str1": 9574,
  "Detect": 9575,
  "futures": 9576,
  "fo@@": 9577,
  "DATETIME": 9578,
  "Too": 9579,
  "unread": 9580,
  "OAUTH": 9581,
  "dest@@": 9582,
  "fetcher": 9583,
  "mkfs": 9584,
  "Obj": 9585,
  "76": 9586,
  "av@@": 9587,
  "settings.DEFAULT": 9588,
  "’": 9589,
  "AD@@": 9590,
  "42@@": 9591,
  "one.@@": 9592,
  "SUFFIX": 9593,
  "querying": 9594,
  "Arg@@": 9595,
  "blanks": 9596,
  "ling": 9597,
  "rabbitmqctl": 9598,
  "registrations": 9599,
  "ence": 9600,
  "classmethod": 9601,
  "roaming": 9602,
  "subsystem": 9603,
  "z2": 9604,
  "flagged": 9605,
  "element.text": 9606,
  "prerequisite": 9607,
  "inst.@@": 9608,
  "mapper.@@": 9609,
  "eigenvalue": 9610,
  "datacenters": 9611,
  "l.append": 9612,
  "ze": 9613,
  "Frame@@": 9614,
  "queue.put": 9615,
  "localization": 9616,
  "arithmetic": 9617,
  "gateways": 9618,
  "hashing": 9619,
  "tion&apos;": 9620,
  "ino": 9621,
  "coming": 9622,
  "hexsha": 9623,
  "savepoint": 9624,
  ".r@@": 9625,
  "specifically": 9626,
  "First@@": 9627,
  "Byte": 9628,
  "Summary": 9629,
  "ok@@": 9630,
  "salt.utils.get": 9631,
  "list-@@": 9632,
  "ES@@": 9633,
  "Worker": 9634,
  "addr.@@": 9635,
  "Xml@@": 9636,
  "MACHINE": 9637,
  "pixelTable": 9638,
  "incompatible": 9639,
  "Jianming": 9640,
  "UT@@": 9641,
  "whenever": 9642,
  "malformed": 9643,
  "bh": 9644,
  "filt": 9645,
  "averages": 9646,
  "repo@@": 9647,
  "inspect.isclass": 9648,
  "St@@": 9649,
  "setUp": 9650,
  ".dot": 9651,
  "SI@@": 9652,
  "ax.plot": 9653,
  "enumeration": 9654,
  "Basic@@": 9655,
  "icon@@": 9656,
  "LI": 9657,
  "session.add": 9658,
  "2016.3.4": 9659,
  "nzb": 9660,
  "ents": 9661,
  "oper": 9662,
  "Sync": 9663,
  ".search": 9664,
  "vec@@": 9665,
  "fabmetheus": 9666,
  "rvs": 9667,
  "case-insensitive": 9668,
  "skip@@": 9669,
  "LINK": 9670,
  "Array@@": 9671,
  "jpg": 9672,
  "DATABASE": 9673,
  "ascii.read": 9674,
  "cv.@@": 9675,
  "colorbar": 9676,
  "vault": 9677,
  "rc@@": 9678,
  "displayable": 9679,
  "ksize": 9680,
  "HDN": 9681,
  "strength": 9682,
  "exprs": 9683,
  "race": 9684,
  "worst": 9685,
  "script@@": 9686,
  "driver.@@": 9687,
  "flaky": 9688,
  "history.@@": 9689,
  "Send@@": 9690,
  "Branch": 9691,
  "imp.find": 9692,
  "Flow": 9693,
  "slim.conv2d": 9694,
  "d``": 9695,
  "cj": 9696,
  "Identity": 9697,
  "8.0": 9698,
  "GPG": 9699,
  "gr@@": 9700,
  "unicode&apos;": 9701,
  "s.startswith": 9702,
  "svd": 9703,
  "ize": 9704,
  "k.lower": 9705,
  "Future": 9706,
  "MRI": 9707,
  "synonyms": 9708,
  "c.name": 9709,
  "verb": 9710,
  "respond": 9711,
  "nics": 9712,
  "mon@@": 9713,
  "CH": 9714,
  "picture": 9715,
  "keeping": 9716,
  "io@@": 9717,
  "disposition": 9718,
  "brick": 9719,
  "datetime.time": 9720,
  "returnValue": 9721,
  "literals": 9722,
  "calculations": 9723,
  "pw@@": 9724,
  "defer": 9725,
  "sys.getfilesystemencoding": 9726,
  "request.url": 9727,
  "unpickle": 9728,
  "setitem": 9729,
  "require.@@": 9730,
  "dT": 9731,
  "func.func": 9732,
  "segment@@": 9733,
  "ELLIPSIS": 9734,
  "requests.Response": 9735,
  "e-mail": 9736,
  "FT": 9737,
  "con.@@": 9738,
  "User-Agent": 9739,
  "SymPy": 9740,
  "Entity": 9741,
  "relu": 9742,
  "info&apos;": 9743,
  "Refresh": 9744,
  "squeeze": 9745,
  "rfc@@": 9746,
  "reg.@@": 9747,
  "itemgetter": 9748,
  "cuda.@@": 9749,
  "Forward": 9750,
  "fac@@": 9751,
  "bidding": 9752,
  "dargs": 9753,
  "FITS": 9754,
  "salt.utils.vmware.get": 9755,
  "can@@": 9756,
  "ell": 9757,
  "module.get": 9758,
  "ns@@": 9759,
  "lower@@": 9760,
  "qubit": 9761,
  "FORM": 9762,
  "Pmf": 9763,
  "font@@": 9764,
  "representations": 9765,
  "recarray": 9766,
  "all-@@": 9767,
  "parent@@": 9768,
  "csv@@": 9769,
  "update.@@": 9770,
  "rsync": 9771,
  "9.0": 9772,
  "Specifically": 9773,
  "math.floor": 9774,
  "stmts": 9775,
  "2005": 9776,
  "web2py": 9777,
  "pad@@": 9778,
  "check.@@": 9779,
  "SCOPE": 9780,
  "s3db": 9781,
  "2.2": 9782,
  "borrow": 9783,
  "meeting": 9784,
  "fh.read": 9785,
  "snr": 9786,
  "Indicates": 9787,
  "udp": 9788,
  "``n": 9789,
  "other.@@": 9790,
  "treat": 9791,
  "yn": 9792,
  "ly@@": 9793,
  "1.2.3.4": 9794,
  "independently": 9795,
  "used&apos;": 9796,
  "powershell": 9797,
  "DomainName": 9798,
  "Commit": 9799,
  "384": 9800,
  "cor@@": 9801,
  "variation": 9802,
  "data.pop": 9803,
  "twisted.internet": 9804,
  "renders": 9805,
  "b64decode": 9806,
  "jin.ece.illinois.edu": 9807,
  "201": 9808,
  "Loading": 9809,
  "THREAD": 9810,
  "mail.@@": 9811,
  "Loop@@": 9812,
  "os.devnull": 9813,
  "data.split": 9814,
  "46": 9815,
  "equity": 9816,
  "icinga2": 9817,
  "injected": 9818,
  "two-sided": 9819,
  "meminfo": 9820,
  "cluster@@": 9821,
  "stonith": 9822,
  "reorder": 9823,
  "ir@@": 9824,
  "PO@@": 9825,
  "Info@@": 9826,
  "downloading": 9827,
  "&apos;rb": 9828,
  "procs": 9829,
  "shutil.copyfile": 9830,
  "partition.@@": 9831,
  "endpoint@@": 9832,
  "format.@@": 9833,
  "Date@@": 9834,
  "Back@@": 9835,
  "Chain": 9836,
  "salt.utils.compare": 9837,
  "u3Handle": 9838,
  "invitation": 9839,
  "MEDIA": 9840,
  "data-@@": 9841,
  "Equal": 9842,
  "role.@@": 9843,
  "Machine": 9844,
  "escalation": 9845,
  "Stack@@": 9846,
  "honor": 9847,
  "07": 9848,
  "systems&apos;": 9849,
  "module@@": 9850,
  "s3.@@": 9851,
  "EXTENSION": 9852,
  "7.0": 9853,
  "accessor": 9854,
  "1024.0": 9855,
  "Pack@@": 9856,
  "FLAG": 9857,
  "fb": 9858,
  "alternatives": 9859,
  "exc.NoResultFound": 9860,
  "tion.@@": 9861,
  "ESCAPE": 9862,
  "datetime.datetime.strptime": 9863,
  "FAILURE": 9864,
  "utcnow": 9865,
  "Automatically": 9866,
  "context.is": 9867,
  "Negative": 9868,
  "ended": 9869,
  "footprint": 9870,
  "q0": 9871,
  "``.@@": 9872,
  "row1": 9873,
  "unpacked": 9874,
  "sos": 9875,
  "size`": 9876,
  "&apos;select": 9877,
  "sitedir": 9878,
  "calculating": 9879,
  "rels": 9880,
  "key.split": 9881,
  "a&apos;": 9882,
  "gdb": 9883,
  "Ste@@": 9884,
  "fp.close": 9885,
  ".ssh": 9886,
  "Escapes": 9887,
  "tfr": 9888,
  "Segment": 9889,
  "wi@@": 9890,
  "False``": 9891,
  "os.popen": 9892,
  "click.secho": 9893,
  "cert.@@": 9894,
  "update@@": 9895,
  "unsuccessful": 9896,
  "s.lower": 9897,
  "ADDR": 9898,
  "urlsplit": 9899,
  "np.argmax": 9900,
  "numba": 9901,
  "Referer": 9902,
  "76@@": 9903,
  "refreshed": 9904,
  "fid.write": 9905,
  "Saves": 9906,
  "UserRPC": 9907,
  "di": 9908,
  "conf.commands.register": 9909,
  "msg@@": 9910,
  "beyond": 9911,
  "re.MULTILINE": 9912,
  "Certificate@@": 9913,
  "Fake": 9914,
  "Batch": 9915,
  "sa.@@": 9916,
  "ex.@@": 9917,
  "dt@@": 9918,
  "img.shape": 9919,
  "pixelDictionary": 9920,
  "mini": 9921,
  "active@@": 9922,
  "ZeroDivisionError": 9923,
  "Interval": 9924,
  "complement": 9925,
  "appengine": 9926,
  "scipy.stats.@@": 9927,
  "pythonpath": 9928,
  "DJANGO": 9929,
  "territory": 9930,
  "Locale": 9931,
  "connect@@": 9932,
  "`func`": 9933,
  "exif": 9934,
  "Random@@": 9935,
  "Up@@": 9936,
  "endrec": 9937,
  "buildout": 9938,
  "ct.@@": 9939,
  "prices": 9940,
  "sb": 9941,
  "diagram": 9942,
  "HySymbol": 9943,
  "Enum": 9944,
  "someone": 9945,
  "continued": 9946,
  "pa": 9947,
  "conn.close": 9948,
  "mycontainer": 9949,
  "extension@@": 9950,
  "`k`": 9951,
  ".dtype": 9952,
  "Case": 9953,
  "DiGraph": 9954,
  "AL": 9955,
  "coro": 9956,
  "infinity": 9957,
  "BatchJob": 9958,
  "HH": 9959,
  "dict.@@": 9960,
  "FUNCTION": 9961,
  "doi": 9962,
  "Security": 9963,
  "renderers": 9964,
  "salt.utils.http.query": 9965,
  "loose": 9966,
  "cffi": 9967,
  "forms.@@": 9968,
  "Signature": 9969,
  "blink": 9970,
  "rfind": 9971,
  "opaque": 9972,
  "splitext": 9973,
  "sshd": 9974,
  "namespace.@@": 9975,
  "Image.@@": 9976,
  "rw": 9977,
  "Le@@": 9978,
  "count@@": 9979,
  "length@@": 9980,
  "coalesce": 9981,
  "EQUALS": 9982,
  "&apos;title": 9983,
  "sock.close": 9984,
  "enqueue": 9985,
  "Flatten": 9986,
  "request.FILES": 9987,
  "Dummy@@": 9988,
  "WINDOWS": 9989,
  "Rename": 9990,
  "Contact": 9991,
  "resource@@": 9992,
  "kw.pop": 9993,
  "errScore": 9994,
  "OSX": 9995,
  "synced": 9996,
  "MusicBrainz": 9997,
  "tostring": 9998,
  "JSON@@": 9999,
  "cl.@@": 10000,
  "trading": 10001,
  "result.extend": 10002,
  "d.keys": 10003,
  "pp.": 10004,
  "g-@@": 10005,
  "tickets": 10006,
  "gmail": 10007,
  "light@@": 10008,
  "lock.release": 10009,
  "SR": 10010,
  "Average": 10011,
  "matter": 10012,
  "paused": 10013,
  "k-@@": 10014,
  "repository.activate@@": 10015,
  "outs": 10016,
  "FILES": 10017,
  "lock.acquire": 10018,
  "dictize": 10019,
  "conn.execute": 10020,
  "docs.@@": 10021,
  "vm.@@": 10022,
  "eigenvalues": 10023,
  "trie": 10024,
  "tolist": 10025,
  "edX": 10026,
  "compresslevel": 10027,
  "Starts": 10028,
  "OAuth2": 10029,
  "Trace": 10030,
  "PostgreSQL": 10031,
  "MATCH": 10032,
  "Init@@": 10033,
  "ref.update": 10034,
  "Queue@@": 10035,
  "httpMethod": 10036,
  "ons": 10037,
  "crc32": 10038,
  "pattern.@@": 10039,
  "os.path.getmtime": 10040,
  "rpc.@@": 10041,
  "form&apos;": 10042,
  "build.@@": 10043,
  "jac": 10044,
  "logistic": 10045,
  "getaddrinfo": 10046,
  "etcd": 10047,
  "hist.@@": 10048,
  "paper": 10049,
  "EXTENSIONS": 10050,
  "Else": 10051,
  "adj": 10052,
  "hierarchical": 10053,
  "clicks": 10054,
  "xx@@": 10055,
  "s.py": 10056,
  "hn": 10057,
  "administration": 10058,
  "TA@@": 10059,
  "script.scratch": 10060,
  "robot": 10061,
  "hh": 10062,
  "np.reshape": 10063,
  "transport.@@": 10064,
  "contextFactory": 10065,
  "users.@@": 10066,
  "Updated": 10067,
  "recover": 10068,
  "Therefore": 10069,
  "arr.@@": 10070,
  "Cloud@@": 10071,
  "s.find": 10072,
  "TRACE": 10073,
  "meta.db": 10074,
  "47": 10075,
  "s.copy": 10076,
  "tz@@": 10077,
  "main.@@": 10078,
  "worker.@@": 10079,
  "gen.coroutine": 10080,
  "seg@@": 10081,
  "duplicated": 10082,
  "ment@@": 10083,
  "homogeneous": 10084,
  "favor": 10085,
  "8601": 10086,
  "master.@@": 10087,
  "-----BEGIN": 10088,
  "err.errno": 10089,
  "callers": 10090,
  "Strips": 10091,
  "multiset": 10092,
  "t3": 10093,
  "Reload": 10094,
  "optdict": 10095,
  "Put": 10096,
  "HasNoChildren": 10097,
  "exc.errno": 10098,
  "micro": 10099,
  "he": 10100,
  "calendar.timegm": 10101,
  "lbn": 10102,
  "install@@": 10103,
  "exceeds": 10104,
  "weakly": 10105,
  "Versions": 10106,
  "im.shape": 10107,
  "Port@@": 10108,
  "tvdb": 10109,
  "approve": 10110,
  "SVD": 10111,
  "s.setdefault": 10112,
  "random@@": 10113,
  "var1": 10114,
  "numpy.sum": 10115,
  "nz": 10116,
  "instant": 10117,
  "Software": 10118,
  "at.@@": 10119,
  "s2.@@": 10120,
  "R.@@": 10121,
  "looked": 10122,
  "a-zA-Z0-9": 10123,
  "Normalized": 10124,
  "pkg2": 10125,
  "1.4": 10126,
  "ceph": 10127,
  "Statement": 10128,
  "left.@@": 10129,
  "quarter": 10130,
  "values.@@": 10131,
  "IGNORE": 10132,
  "cnf": 10133,
  "nltk.@@": 10134,
  "data.encode": 10135,
  "gener@@": 10136,
  "typing": 10137,
  "R1": 10138,
  "begins": 10139,
  "ctx.db": 10140,
  "rare": 10141,
  "``value``": 10142,
  "md5sum": 10143,
  "58@@": 10144,
  "3.3": 10145,
  "CERT": 10146,
  "data.replace": 10147,
  "Details": 10148,
  "countdown": 10149,
  "255.0": 10150,
  "Gmail": 10151,
  "doctypes": 10152,
  "Maps": 10153,
  "EC@@": 10154,
  "Box": 10155,
  "0``": 10156,
  "err.@@": 10157,
  "display.@@": 10158,
  "monit": 10159,
  "0000@@": 10160,
  "ker": 10161,
  "CUSTOM": 10162,
  "tiny": 10163,
  "yticks": 10164,
  "UP": 10165,
  "streaming": 10166,
  "identity.@@": 10167,
  "sld": 10168,
  "Implements": 10169,
  "hook@@": 10170,
  "subcommand": 10171,
  "``p``": 10172,
  "deserialized": 10173,
  "SOCKET": 10174,
  "report.@@": 10175,
  "database&apos;": 10176,
  "Diff@@": 10177,
  "message&apos;": 10178,
  "CX": 10179,
  "datetime64": 10180,
  "ABC": 10181,
  "G.edges": 10182,
  "esc": 10183,
  "scoring": 10184,
  "fam": 10185,
  "owners": 10186,
  "av": 10187,
  "topdown": 10188,
  "scp": 10189,
  "METADATA": 10190,
  "ful": 10191,
  "subscribed": 10192,
  "recorder": 10193,
  "classpath": 10194,
  "06": 10195,
  "E.": 10196,
  "gtk": 10197,
  "semantics": 10198,
  "sample.@@": 10199,
  "precomputed": 10200,
  "worksheet": 10201,
  "Lib": 10202,
  "file`": 10203,
  "exc.strerror": 10204,
  "GC": 10205,
  "elsewhere": 10206,
  "destdir": 10207,
  "plt.plot": 10208,
  "argc": 10209,
  "cff": 10210,
  "topic.@@": 10211,
  "eof": 10212,
  "sidebar": 10213,
  "blobstore": 10214,
  "graph6": 10215,
  "WindowsError": 10216,
  "sig.return": 10217,
  "timeutils.utcnow": 10218,
  "subscribers": 10219,
  "ht": 10220,
  "Adapter": 10221,
  "on.@@": 10222,
  "psd": 10223,
  "`Request`": 10224,
  "five": 10225,
  "Transforms": 10226,
  "ba": 10227,
  "abs@@": 10228,
  "Ar@@": 10229,
  "hashfunc": 10230,
  "Axes": 10231,
  "encoder.@@": 10232,
  "result@@": 10233,
  "remember": 10234,
  "nbrs": 10235,
  "INFORMATION": 10236,
  "Exists": 10237,
  "Digest": 10238,
  "memb": 10239,
  "ortho": 10240,
  "ele": 10241,
  "errors.ApplicationError": 10242,
  "OR@@": 10243,
  "trophy": 10244,
  "simp": 10245,
  "unzip": 10246,
  "consistencygroup": 10247,
  "23@@": 10248,
  "2012": 10249,
  "mails": 10250,
  "Dialog": 10251,
  ".ndim": 10252,
  "CT@@": 10253,
  "CA@@": 10254,
  "UP@@": 10255,
  "signals.@@": 10256,
  "Redis": 10257,
  "OpenBSD": 10258,
  "karma": 10259,
  "req@@": 10260,
  "breadcrumbs": 10261,
  "cp.@@": 10262,
  "aton": 10263,
  "Ignore": 10264,
  "shear": 10265,
  "parsed.path": 10266,
  "enti@@": 10267,
  "feature@@": 10268,
  "Rule@@": 10269,
  "sf": 10270,
  "convenient": 10271,
  "completer": 10272,
  "At@@": 10273,
  "csm": 10274,
  "deployments": 10275,
  "alarms": 10276,
  "304": 10277,
  "any@@": 10278,
  "&apos;Could": 10279,
  "twitter": 10280,
  "End@@": 10281,
  "saturation": 10282,
  "checkbox": 10283,
  "comment.@@": 10284,
  "nonlinearity": 10285,
  "ifaces": 10286,
  "uk": 10287,
  "replace@@": 10288,
  ".groups": 10289,
  "54@@": 10290,
  "negate": 10291,
  "CHECK": 10292,
  "webserver": 10293,
  "sensitivity": 10294,
  "ui.@@": 10295,
  "K1": 10296,
  "timestr": 10297,
  "shebang": 10298,
  "MIDDLEWARE": 10299,
  "rooted": 10300,
  "cu@@": 10301,
  "passthrough": 10302,
  "mangle": 10303,
  "``Deferred``": 10304,
  "apple": 10305,
  "bf": 10306,
  "EOFError": 10307,
  "LU": 10308,
  "services.@@": 10309,
  "e1": 10310,
  "Draw": 10311,
  "tck": 10312,
  "replica": 10313,
  "cap@@": 10314,
  "eventDict": 10315,
  "unittest.TestCase": 10316,
  "track@@": 10317,
  "Elements": 10318,
  "66": 10319,
  "module.exit": 10320,
  "Solaris": 10321,
  "inches": 10322,
  "pytree": 10323,
  "-1&apos;": 10324,
  "modulename": 10325,
  "constructs": 10326,
  "leftmost": 10327,
  "norm@@": 10328,
  "Columns": 10329,
  "CFG": 10330,
  "pyplot.@@": 10331,
  "settings&apos;": 10332,
  "db&apos;": 10333,
  "i386": 10334,
  "mtu": 10335,
  ".objects.filter": 10336,
  "subtensor": 10337,
  "new-style": 10338,
  "fillvalue": 10339,
  "pkg1": 10340,
  "appscale": 10341,
  "ele@@": 10342,
  "function@@": 10343,
  "whom": 10344,
  "usages": 10345,
  "boto.connect": 10346,
  "truthy": 10347,
  "1.": 10348,
  "member@@": 10349,
  "``obj``": 10350,
  "``f": 10351,
  "Project@@": 10352,
  "PROCESS": 10353,
  "MongoDB": 10354,
  "definition.@@": 10355,
  "strips": 10356,
  "prospective": 10357,
  "bricks": 10358,
  "released": 10359,
  "verifies": 10360,
  "ax2": 10361,
  "Export": 10362,
  "co.co": 10363,
  "autocomplete": 10364,
  "basic.@@": 10365,
  "pytz": 10366,
  "0,@@": 10367,
  "au@@": 10368,
  "While": 10369,
  "quite": 10370,
  "pylint": 10371,
  "image&apos;": 10372,
  "PyCMSError": 10373,
  "overhead": 10374,
  "r0": 10375,
  "What": 10376,
  "eager": 10377,
  "npy": 10378,
  "clear@@": 10379,
  "Asserts": 10380,
  "autocorrelation": 10381,
  "content-length": 10382,
  "au": 10383,
  "qop": 10384,
  "Remote": 10385,
  "gevent": 10386,
  "gcs": 10387,
  "-level": 10388,
  "Subversion": 10389,
  "string.decode": 10390,
  "user.has": 10391,
  "appinfo": 10392,
  "pyquery": 10393,
  "grading": 10394,
  "comm@@": 10395,
  "directoryPath": 10396,
  "dpid": 10397,
  "z.@@": 10398,
  "Services": 10399,
  "Bundle": 10400,
  "forest": 10401,
  "cyg": 10402,
  ".save": 10403,
  "sha@@": 10404,
  "ptype": 10405,
  "option.@@": 10406,
  "HOSTS": 10407,
  "multipath": 10408,
  "threading.Thread": 10409,
  "theano.@@": 10410,
  "enrollments": 10411,
  "options&apos;": 10412,
  "92": 10413,
  "f.readlines": 10414,
  "six": 10415,
  "FD": 10416,
  "Unsupported@@": 10417,
  "Processor": 10418,
  "dl@@": 10419,
  "TEMPLATES": 10420,
  "commands.@@": 10421,
  "king": 10422,
  "CONTEXT": 10423,
  "sun": 10424,
  "hostvars": 10425,
  "c.w": 10426,
  "validates": 10427,
  "ascent": 10428,
  "ly-@@": 10429,
  "contingency": 10430,
  "BO@@": 10431,
  "taskqueue": 10432,
  "chocolatey": 10433,
  "urlquote": 10434,
  "Number@@": 10435,
  "transient": 10436,
  "ti": 10437,
  "Has": 10438,
  "logger.handlers": 10439,
  "ors": 10440,
  "nltk": 10441,
  "pillars": 10442,
  "talib.CDL@@": 10443,
  "volume.@@": 10444,
  "stub.data": 10445,
  "sd@@": 10446,
  "scm": 10447,
  "layer1": 10448,
  "string2": 10449,
  "jenkins.@@": 10450,
  "Verify@@": 10451,
  "comm": 10452,
  "gcc": 10453,
  "SO": 10454,
  "CDL@@": 10455,
  "staticmethod": 10456,
  "rax": 10457,
  "admin@@": 10458,
  "nout": 10459,
  "4.1": 10460,
  "args.pop": 10461,
  "client.GetService": 10462,
  "multi-line": 10463,
  "email@@": 10464,
  "tt.@@": 10465,
  "scored": 10466,
  "Track": 10467,
  "tive": 10468,
  "taxonomy": 10469,
  "betweenness": 10470,
  "appauthor": 10471,
  "orgs": 10472,
  "fetching": 10473,
  "descent": 10474,
  ".zip": 10475,
  "accumulate": 10476,
  "object@@": 10477,
  "bezier": 10478,
  "List.append": 10479,
  "ica": 10480,
  "Per@@": 10481,
  "trig": 10482,
  "orig@@": 10483,
  "last.@@": 10484,
  "ternary": 10485,
  "spec.get": 10486,
  "brief": 10487,
  "0.9@@": 10488,
  "4294967295": 10489,
  "bi": 10490,
  ".title": 10491,
  "runner.@@": 10492,
  "discount": 10493,
  "elem.tail": 10494,
  "Stats": 10495,
  "vision": 10496,
  "cython.@@": 10497,
  "Most": 10498,
  "np.maximum": 10499,
  "interrupt": 10500,
  "teams": 10501,
  "dic@@": 10502,
  "Checking": 10503,
  "PACK": 10504,
  "thresholdRatio": 10505,
  "d3": 10506,
  "fileNameSuffix": 10507,
  "request&apos;": 10508,
  "M.@@": 10509,
  ".config": 10510,
  "Includes": 10511,
  "base-@@": 10512,
  "proc.returncode": 10513,
  "constructing": 10514,
  "ban": 10515,
  "Mo@@": 10516,
  "hub.@@": 10517,
  "plays": 10518,
  "synchronize": 10519,
  "laplacian": 10520,
  "iso@@": 10521,
  "players": 10522,
  "mathjax": 10523,
  ".pyo": 10524,
  "logging.warn": 10525,
  "re.M": 10526,
  "affine": 10527,
  "pack@@": 10528,
  "after@@": 10529,
  "nv@@": 10530,
  "config.update": 10531,
  "traditional": 10532,
  "request.build": 10533,
  "URIs": 10534,
  "gl.gl@@": 10535,
  "08@@": 10536,
  "axes.@@": 10537,
  "retrieving": 10538,
  "socket.getaddrinfo": 10539,
  "fd.@@": 10540,
  "extern": 10541,
  "exporter": 10542,
  "Segment@@": 10543,
  "Param@@": 10544,
  "ratelimit": 10545,
  "chdir": 10546,
  "agent.@@": 10547,
  "ops.@@": 10548,
  "measures": 10549,
  "userdata": 10550,
  "interpolated": 10551,
  "31@@": 10552,
  "carving": 10553,
  "uint32": 10554,
  "modal": 10555,
  "ving": 10556,
  "euclidean": 10557,
  "Password@@": 10558,
  "eigvals": 10559,
  "x.size": 10560,
  "django.@@": 10561,
  "relaxed": 10562,
  "--user": 10563,
  "nan@@": 10564,
  "inbox": 10565,
  "delegate": 10566,
  "installReactor": 10567,
  "OF": 10568,
  "CL@@": 10569,
  "SH@@": 10570,
  "12345": 10571,
  "Op@@": 10572,
  ".args": 10573,
  "line.lstrip": 10574,
  "award": 10575,
  "bps": 10576,
  "stops": 10577,
  "conn.cursor": 10578,
  "UDP": 10579,
  "feincms": 10580,
  "1,3": 10581,
  "minval": 10582,
  "sor@@": 10583,
  "mu@@": 10584,
  "2014": 10585,
  "window@@": 10586,
  "parameter@@": 10587,
  "er.get": 10588,
  "Context@@": 10589,
  "numbered": 10590,
  "pickle.loads": 10591,
  "mnt": 10592,
  "SP@@": 10593,
  "Download@@": 10594,
  "url.replace": 10595,
  "Ho@@": 10596,
  "variations": 10597,
  "Alice": 10598,
  "walker": 10599,
  "Empty@@": 10600,
  "SNI": 10601,
  "LI@@": 10602,
  "zmq.@@": 10603,
  "state&apos;": 10604,
  "ATE": 10605,
  "&apos;http": 10606,
  "underline": 10607,
  "register@@": 10608,
  "annot": 10609,
  "hemi": 10610,
  "np.nonzero": 10611,
  "mainloop": 10612,
  "popular": 10613,
  "method@@": 10614,
  "trap": 10615,
  "SeqRecord": 10616,
  "retrieves": 10617,
  "Manager.@@": 10618,
  "pyi": 10619,
  "image1": 10620,
  "Url@@": 10621,
  "cache.clear": 10622,
  "Delta": 10623,
  "ty.@@": 10624,
  "md@@": 10625,
  "xunit": 10626,
  "list2": 10627,
  "pri@@": 10628,
  "linestyle": 10629,
  "ts@@": 10630,
  "Estimate": 10631,
  "DHCP": 10632,
  "settings.INSTALLED": 10633,
  "booleans": 10634,
  "unverified": 10635,
  "mixing": 10636,
  "Encodes": 10637,
  "fd.read": 10638,
  "prlctl": 10639,
  "-version": 10640,
  "reformatted": 10641,
  "`s": 10642,
  "untranslated": 10643,
  "relatively": 10644,
  "lu": 10645,
  "txn": 10646,
  "-10": 10647,
  "debug@@": 10648,
  "i-@@": 10649,
  "linebreaks": 10650,
  "data.ndim": 10651,
  "72@@": 10652,
  "--force": 10653,
  "alphanumeric": 10654,
  "stream.read": 10655,
  "especially": 10656,
  "YYYY-MM-DD": 10657,
  "``b``": 10658,
  "i`": 10659,
  "QuerySet": 10660,
  "pluginModule": 10661,
  "Before": 10662,
  "Resources": 10663,
  "dtype.kind": 10664,
  "datetime.strptime": 10665,
  "dbc": 10666,
  "sol@@": 10667,
  "Callable": 10668,
  "iso8601": 10669,
  "expectation": 10670,
  "XYZ": 10671,
  "4D": 10672,
  "REGISTRY": 10673,
  "permission@@": 10674,
  "pub@@": 10675,
  "ctrl": 10676,
  "``root``": 10677,
  "js@@": 10678,
  "pname": 10679,
  "distr": 10680,
  "kk": 10681,
  "tarfile.open": 10682,
  "helps": 10683,
  "REGEX.match": 10684,
  "orbits": 10685,
  "AUTO": 10686,
  "catalogs": 10687,
  "warnings.simplefilter": 10688,
  "hs": 10689,
  "Union": 10690,
  "timeval": 10691,
  "decompose": 10692,
  "detector": 10693,
  "package1": 10694,
  "Al@@": 10695,
  "version.split": 10696,
  "ini@@": 10697,
  "wrapper.@@": 10698,
  "tgrep": 10699,
  "ed-@@": 10700,
  "f-@@": 10701,
  "byteorder": 10702,
  "adgroup": 10703,
  "partner": 10704,
  "getNewDerivation": 10705,
  "trainingSequences": 10706,
  "jobs.@@": 10707,
  "zipline": 10708,
  "argsort": 10709,
  "surfaces": 10710,
  "decodes": 10711,
  "stop@@": 10712,
  "Contents": 10713,
  "tight": 10714,
  "3.4": 10715,
  "timesince": 10716,
  "subdirs": 10717,
  "press": 10718,
  "isdigit": 10719,
  "allowable": 10720,
  "unbalanced": 10721,
  "n``": 10722,
  "Density": 10723,
  "son": 10724,
  "recipe": 10725,
  "ClientException": 10726,
  "tests.@@": 10727,
  "httpbin": 10728,
  "Scenario": 10729,
  "pipeline.@@": 10730,
  "downloader": 10731,
  "restarted": 10732,
  "Combine": 10733,
  "cdrom": 10734,
  "exception.Invalid@@": 10735,
  "bodies": 10736,
  "RETURN": 10737,
  "hexdigest": 10738,
  "GIT": 10739,
  "userena": 10740,
  "typeclass": 10741,
  "zdir": 10742,
  "gaps": 10743,
  "tee": 10744,
  ".csv": 10745,
  "Google@@": 10746,
  "corrupted": 10747,
  "Binding": 10748,
  "stages": 10749,
  "s.set": 10750,
  "x`": 10751,
  "response.raise": 10752,
  "TI@@": 10753,
  "Of": 10754,
  "NETWORK": 10755,
  "np.testing.assert": 10756,
  "SAML": 10757,
  "remote@@": 10758,
  "non-ASCII": 10759,
  "decompress": 10760,
  "ck": 10761,
  "attr.@@": 10762,
  "list`": 10763,
  "covar": 10764,
  "doc.get": 10765,
  "aborted": 10766,
  "Flag@@": 10767,
  "only&apos;": 10768,
  "response.body": 10769,
  "language0": 10770,
  "stub.@@": 10771,
  "predefined": 10772,
  "ndarrays": 10773,
  "lu@@": 10774,
  "Another": 10775,
  "assertEqual": 10776,
  "db.DBConnection": 10777,
  "MODULES": 10778,
  "sv@@": 10779,
  "Deleting": 10780,
  "ten@@": 10781,
  "Disk": 10782,
  "initools": 10783,
  "hess": 10784,
  "declarative": 10785,
  "text.decode": 10786,
  "destFile": 10787,
  "DESCRIPTION": 10788,
  "cool": 10789,
  "cache&apos;": 10790,
  "reach": 10791,
  "la": 10792,
  "smote": 10793,
  "Pull": 10794,
  "yp": 10795,
  "affect": 10796,
  "Received": 10797,
  "GE@@": 10798,
  "hand": 10799,
  "recommendation": 10800,
  "78@@": 10801,
  "orient": 10802,
  "appending": 10803,
  "cfg.CONF.@@": 10804,
  "68": 10805,
  "profiler.trace": 10806,
  "Returned": 10807,
  "np.clip": 10808,
  "ise": 10809,
  "IDENTIFIER": 10810,
  "&apos;Unable": 10811,
  "``request``": 10812,
  "ellipsis": 10813,
  "extension.@@": 10814,
  "fused": 10815,
  "np.prod": 10816,
  "teacher": 10817,
  "file.seek": 10818,
  "c&apos;": 10819,
  "`value`": 10820,
  "xticks": 10821,
  "Win": 10822,
  "connection@@": 10823,
  "socktype": 10824,
  "Content@@": 10825,
  "fro": 10826,
  "Safely": 10827,
  "bump": 10828,
  "json.@@": 10829,
  "section.@@": 10830,
  "sqs": 10831,
  "Updating": 10832,
  "shifted": 10833,
  "Column@@": 10834,
  "Center": 10835,
  "frappe.connect": 10836,
  "pol": 10837,
[...]
